{
  "version": "1.0",
  "truncation": null,
  "padding": null,
  "added_tokens": [
    {
      "id": 0,
      "content": "[UNK]",
      "single_word": false,
      "lstrip": false,
      "rstrip": false,
      "normalized": false,
      "special": true
    },
    {
      "id": 1,
      "content": "[PAD]",
      "single_word": false,
      "lstrip": false,
      "rstrip": false,
      "normalized": false,
      "special": true
    },
    {
      "id": 2,
      "content": "[BOS]",
      "single_word": false,
      "lstrip": false,
      "rstrip": false,
      "normalized": false,
      "special": true
    },
    {
      "id": 3,
      "content": "[EOS]",
      "single_word": false,
      "lstrip": false,
      "rstrip": false,
      "normalized": false,
      "special": true
    }
  ],
  "normalizer": null,
  "pre_tokenizer": {
    "type": "Whitespace"
  },
  "post_processor": null,
  "decoder": null,
  "model": {
    "type": "BPE",
    "dropout": null,
    "unk_token": "[UNK]",
    "continuing_subword_prefix": null,
    "end_of_word_suffix": null,
    "fuse_unk": false,
    "byte_fallback": false,
    "ignore_merges": false,
    "vocab": {
      "[UNK]": 0,
      "[PAD]": 1,
      "[BOS]": 2,
      "[EOS]": 3,
      "!": 4,
      "\"": 5,
      "#": 6,
      "$": 7,
      "%": 8,
      "&": 9,
      "'": 10,
      "(": 11,
      ")": 12,
      "*": 13,
      "+": 14,
      ",": 15,
      "-": 16,
      ".": 17,
      "/": 18,
      "0": 19,
      "1": 20,
      "2": 21,
      "3": 22,
      "4": 23,
      "5": 24,
      "6": 25,
      "7": 26,
      "8": 27,
      "9": 28,
      ":": 29,
      ";": 30,
      "<": 31,
      "=": 32,
      ">": 33,
      "?": 34,
      "@": 35,
      "A": 36,
      "B": 37,
      "C": 38,
      "D": 39,
      "E": 40,
      "F": 41,
      "G": 42,
      "H": 43,
      "I": 44,
      "J": 45,
      "K": 46,
      "L": 47,
      "M": 48,
      "N": 49,
      "O": 50,
      "P": 51,
      "Q": 52,
      "R": 53,
      "S": 54,
      "T": 55,
      "U": 56,
      "V": 57,
      "W": 58,
      "X": 59,
      "Y": 60,
      "Z": 61,
      "[": 62,
      "\\": 63,
      "]": 64,
      "^": 65,
      "_": 66,
      "`": 67,
      "a": 68,
      "b": 69,
      "c": 70,
      "d": 71,
      "e": 72,
      "f": 73,
      "g": 74,
      "h": 75,
      "i": 76,
      "j": 77,
      "k": 78,
      "l": 79,
      "m": 80,
      "n": 81,
      "o": 82,
      "p": 83,
      "q": 84,
      "r": 85,
      "s": 86,
      "t": 87,
      "u": 88,
      "v": 89,
      "w": 90,
      "x": 91,
      "y": 92,
      "z": 93,
      "{": 94,
      "|": 95,
      "}": 96,
      "~": 97,
      "£": 98,
      "¥": 99,
      "§": 100,
      "°": 101,
      "±": 102,
      "²": 103,
      "³": 104,
      "¶": 105,
      "·": 106,
      "¹": 107,
      "»": 108,
      "È": 109,
      "×": 110,
      "Ú": 111,
      "Ü": 112,
      "ß": 113,
      "à": 114,
      "á": 115,
      "ã": 116,
      "ä": 117,
      "å": 118,
      "æ": 119,
      "ç": 120,
      "è": 121,
      "é": 122,
      "ê": 123,
      "ë": 124,
      "ì": 125,
      "í": 126,
      "î": 127,
      "ï": 128,
      "ñ": 129,
      "ó": 130,
      "ô": 131,
      "õ": 132,
      "ö": 133,
      "ù": 134,
      "ú": 135,
      "ü": 136,
      "ý": 137,
      "ā": 138,
      "ă": 139,
      "ć": 140,
      "Č": 141,
      "č": 142,
      "ē": 143,
      "ī": 144,
      "ı": 145,
      "ľ": 146,
      "Ł": 147,
      "ł": 148,
      "ń": 149,
      "ō": 150,
      "Ő": 151,
      "ő": 152,
      "ş": 153,
      "š": 154,
      "ũ": 155,
      "ū": 156,
      "ż": 157,
      "ǎ": 158,
      "ɣ": 159,
      "ɪ": 160,
      "Δ": 161,
      "Θ": 162,
      "Λ": 163,
      "ή": 164,
      "α": 165,
      "β": 166,
      "γ": 167,
      "ε": 168,
      "η": 169,
      "θ": 170,
      "λ": 171,
      "μ": 172,
      "ν": 173,
      "ρ": 174,
      "σ": 175,
      "τ": 176,
      "φ": 177,
      "χ": 178,
      "ω": 179,
      "ב": 180,
      "ה": 181,
      "ז": 182,
      "ם": 183,
      "ע": 184,
      "ר": 185,
      "ש": 186,
      "ת": 187,
      "ᵢ": 188,
      "ἀ": 189,
      "‐": 190,
      "‑": 191,
      "–": 192,
      "—": 193,
      "‘": 194,
      "’": 195,
      "“": 196,
      "”": 197,
      "„": 198,
      "•": 199,
      "…": 200,
      "‰": 201,
      "⁶": 202,
      "⁻": 203,
      "₁": 204,
      "₃": 205,
      "₇": 206,
      "€": 207,
      "₹": 208,
      "←": 209,
      "↑": 210,
      "→": 211,
      "↓": 212,
      "↔": 213,
      "∀": 214,
      "∅": 215,
      "∈": 216,
      "−": 217,
      "∘": 218,
      "∝": 219,
      "∩": 220,
      "≈": 221,
      "≠": 222,
      "≤": 223,
      "≥": 224,
      "≪": 225,
      "⊥": 226,
      "⋂": 227,
      "⋃": 228,
      "─": 229,
      "└": 230,
      "├": 231,
      "┤": 232,
      "▶": 233,
      "♪": 234,
      "⚡": 235,
      "✅": 236,
      "✓": 237,
      "✗": 238,
      "✨": 239,
      "❌": 240,
      "⟺": 241,
      "⭐": 242,
      "ⱼ": 243,
      "、": 244,
      "。": 245,
      "《": 246,
      "》": 247,
      "「": 248,
      "」": 249,
      "『": 250,
      "』": 251,
      "あ": 252,
      "い": 253,
      "う": 254,
      "え": 255,
      "お": 256,
      "か": 257,
      "が": 258,
      "き": 259,
      "く": 260,
      "け": 261,
      "げ": 262,
      "こ": 263,
      "さ": 264,
      "し": 265,
      "す": 266,
      "ず": 267,
      "そ": 268,
      "た": 269,
      "だ": 270,
      "ち": 271,
      "っ": 272,
      "つ": 273,
      "づ": 274,
      "て": 275,
      "で": 276,
      "と": 277,
      "ど": 278,
      "な": 279,
      "に": 280,
      "の": 281,
      "は": 282,
      "ば": 283,
      "ぶ": 284,
      "べ": 285,
      "ほ": 286,
      "ぼ": 287,
      "ま": 288,
      "み": 289,
      "め": 290,
      "も": 291,
      "や": 292,
      "よ": 293,
      "ら": 294,
      "り": 295,
      "る": 296,
      "れ": 297,
      "わ": 298,
      "を": 299,
      "ん": 300,
      "ア": 301,
      "ィ": 302,
      "イ": 303,
      "ウ": 304,
      "ェ": 305,
      "エ": 306,
      "オ": 307,
      "ク": 308,
      "グ": 309,
      "ゲ": 310,
      "コ": 311,
      "ゴ": 312,
      "サ": 313,
      "ザ": 314,
      "シ": 315,
      "ジ": 316,
      "ス": 317,
      "ズ": 318,
      "セ": 319,
      "ゼ": 320,
      "ソ": 321,
      "タ": 322,
      "チ": 323,
      "ッ": 324,
      "テ": 325,
      "デ": 326,
      "ト": 327,
      "ド": 328,
      "ナ": 329,
      "ニ": 330,
      "ノ": 331,
      "ハ": 332,
      "バ": 333,
      "パ": 334,
      "フ": 335,
      "プ": 336,
      "ム": 337,
      "ヤ": 338,
      "ュ": 339,
      "ユ": 340,
      "ラ": 341,
      "リ": 342,
      "ル": 343,
      "ロ": 344,
      "ン": 345,
      "・": 346,
      "ー": 347,
      "一": 348,
      "七": 349,
      "万": 350,
      "三": 351,
      "上": 352,
      "下": 353,
      "不": 354,
      "与": 355,
      "丑": 356,
      "且": 357,
      "世": 358,
      "丘": 359,
      "业": 360,
      "东": 361,
      "丢": 362,
      "两": 363,
      "严": 364,
      "丧": 365,
      "个": 366,
      "中": 367,
      "丰": 368,
      "临": 369,
      "为": 370,
      "主": 371,
      "丽": 372,
      "举": 373,
      "么": 374,
      "义": 375,
      "之": 376,
      "乎": 377,
      "乐": 378,
      "乘": 379,
      "乙": 380,
      "也": 381,
      "习": 382,
      "书": 383,
      "乱": 384,
      "了": 385,
      "予": 386,
      "争": 387,
      "事": 388,
      "二": 389,
      "于": 390,
      "云": 391,
      "互": 392,
      "五": 393,
      "些": 394,
      "交": 395,
      "亥": 396,
      "亦": 397,
      "产": 398,
      "享": 399,
      "亲": 400,
      "人": 401,
      "什": 402,
      "仁": 403,
      "仅": 404,
      "今": 405,
      "仍": 406,
      "从": 407,
      "仓": 408,
      "仕": 409,
      "他": 410,
      "付": 411,
      "代": 412,
      "令": 413,
      "以": 414,
      "仪": 415,
      "们": 416,
      "仮": 417,
      "仰": 418,
      "件": 419,
      "价": 420,
      "任": 421,
      "份": 422,
      "休": 423,
      "众": 424,
      "优": 425,
      "伙": 426,
      "会": 427,
      "伞": 428,
      "伟": 429,
      "传": 430,
      "伤": 431,
      "伴": 432,
      "似": 433,
      "但": 434,
      "位": 435,
      "低": 436,
      "住": 437,
      "体": 438,
      "何": 439,
      "作": 440,
      "你": 441,
      "佳": 442,
      "使": 443,
      "來": 444,
      "例": 445,
      "侏": 446,
      "依": 447,
      "価": 448,
      "侧": 449,
      "侯": 450,
      "便": 451,
      "保": 452,
      "信": 453,
      "修": 454,
      "俱": 455,
      "個": 456,
      "們": 457,
      "倒": 458,
      "候": 459,
      "倡": 460,
      "値": 461,
      "倦": 462,
      "值": 463,
      "假": 464,
      "偏": 465,
      "做": 466,
      "停": 467,
      "偶": 468,
      "偿": 469,
      "備": 470,
      "储": 471,
      "傪": 472,
      "傻": 473,
      "像": 474,
      "儒": 475,
      "儿": 476,
      "允": 477,
      "元": 478,
      "充": 479,
      "先": 480,
      "光": 481,
      "免": 482,
      "入": 483,
      "內": 484,
      "全": 485,
      "兩": 486,
      "八": 487,
      "公": 488,
      "六": 489,
      "兮": 490,
      "共": 491,
      "关": 492,
      "兴": 493,
      "其": 494,
      "典": 495,
      "兽": 496,
      "内": 497,
      "円": 498,
      "冈": 499,
      "册": 500,
      "再": 501,
      "写": 502,
      "军": 503,
      "农": 504,
      "决": 505,
      "冻": 506,
      "准": 507,
      "几": 508,
      "出": 509,
      "击": 510,
      "函": 511,
      "分": 512,
      "切": 513,
      "划": 514,
      "列": 515,
      "则": 516,
      "创": 517,
      "初": 518,
      "判": 519,
      "別": 520,
      "利": 521,
      "别": 522,
      "到": 523,
      "制": 524,
      "刷": 525,
      "刻": 526,
      "則": 527,
      "前": 528,
      "剩": 529,
      "創": 530,
      "力": 531,
      "劝": 532,
      "办": 533,
      "功": 534,
      "加": 535,
      "务": 536,
      "动": 537,
      "劳": 538,
      "動": 539,
      "募": 540,
      "勢": 541,
      "包": 542,
      "化": 543,
      "匪": 544,
      "匹": 545,
      "区": 546,
      "十": 547,
      "千": 548,
      "半": 549,
      "协": 550,
      "卑": 551,
      "卒": 552,
      "協": 553,
      "单": 554,
      "南": 555,
      "博": 556,
      "占": 557,
      "卫": 558,
      "危": 559,
      "即": 560,
      "却": 561,
      "卷": 562,
      "历": 563,
      "厌": 564,
      "厚": 565,
      "原": 566,
      "去": 567,
      "县": 568,
      "参": 569,
      "又": 570,
      "友": 571,
      "双": 572,
      "反": 573,
      "发": 574,
      "叔": 575,
      "取": 576,
      "受": 577,
      "变": 578,
      "口": 579,
      "古": 580,
      "句": 581,
      "另": 582,
      "只": 583,
      "叫": 584,
      "可": 585,
      "台": 586,
      "叱": 587,
      "史": 588,
      "叶": 589,
      "号": 590,
      "司": 591,
      "各": 592,
      "合": 593,
      "同": 594,
      "名": 595,
      "后": 596,
      "吐": 597,
      "向": 598,
      "吗": 599,
      "君": 600,
      "吞": 601,
      "否": 602,
      "吧": 603,
      "含": 604,
      "听": 605,
      "吹": 606,
      "吾": 607,
      "告": 608,
      "呢": 609,
      "周": 610,
      "味": 611,
      "呼": 612,
      "命": 613,
      "和": 614,
      "咤": 615,
      "咪": 616,
      "咮": 617,
      "咸": 618,
      "哀": 619,
      "品": 620,
      "哄": 621,
      "哉": 622,
      "响": 623,
      "哪": 624,
      "哲": 625,
      "唐": 626,
      "唯": 627,
      "唱": 628,
      "商": 629,
      "啊": 630,
      "問": 631,
      "善": 632,
      "喊": 633,
      "喜": 634,
      "單": 635,
      "営": 636,
      "喻": 637,
      "嘉": 638,
      "器": 639,
      "噪": 640,
      "囚": 641,
      "四": 642,
      "回": 643,
      "因": 644,
      "团": 645,
      "固": 646,
      "国": 647,
      "图": 648,
      "囿": 649,
      "土": 650,
      "圣": 651,
      "在": 652,
      "地": 653,
      "场": 654,
      "圾": 655,
      "坏": 656,
      "块": 657,
      "坛": 658,
      "垃": 659,
      "型": 660,
      "城": 661,
      "域": 662,
      "基": 663,
      "堂": 664,
      "堪": 665,
      "報": 666,
      "場": 667,
      "堵": 668,
      "塑": 669,
      "塔": 670,
      "境": 671,
      "墙": 672,
      "墨": 673,
      "士": 674,
      "壬": 675,
      "壮": 676,
      "声": 677,
      "売": 678,
      "处": 679,
      "备": 680,
      "変": 681,
      "复": 682,
      "夕": 683,
      "外": 684,
      "多": 685,
      "够": 686,
      "夠": 687,
      "大": 688,
      "天": 689,
      "太": 690,
      "夫": 691,
      "失": 692,
      "头": 693,
      "奇": 694,
      "套": 695,
      "女": 696,
      "好": 697,
      "如": 698,
      "妙": 699,
      "始": 700,
      "姓": 701,
      "姿": 702,
      "威": 703,
      "娈": 704,
      "婉": 705,
      "媾": 706,
      "子": 707,
      "孔": 708,
      "字": 709,
      "存": 710,
      "孟": 711,
      "季": 712,
      "学": 713,
      "它": 714,
      "守": 715,
      "安": 716,
      "完": 717,
      "宏": 718,
      "官": 719,
      "定": 720,
      "宝": 721,
      "实": 722,
      "审": 723,
      "客": 724,
      "室": 725,
      "宫": 726,
      "害": 727,
      "宴": 728,
      "家": 729,
      "容": 730,
      "宽": 731,
      "宿": 732,
      "寇": 733,
      "富": 734,
      "寒": 735,
      "察": 736,
      "實": 737,
      "对": 738,
      "寻": 739,
      "导": 740,
      "寿": 741,
      "封": 742,
      "射": 743,
      "将": 744,
      "專": 745,
      "尊": 746,
      "對": 747,
      "導": 748,
      "小": 749,
      "少": 750,
      "尔": 751,
      "尘": 752,
      "尝": 753,
      "就": 754,
      "尺": 755,
      "尽": 756,
      "尾": 757,
      "局": 758,
      "层": 759,
      "居": 760,
      "屋": 761,
      "展": 762,
      "層": 763,
      "山": 764,
      "岁": 765,
      "岂": 766,
      "峨": 767,
      "崩": 768,
      "嵌": 769,
      "巍": 770,
      "工": 771,
      "巧": 772,
      "差": 773,
      "己": 774,
      "已": 775,
      "巴": 776,
      "市": 777,
      "布": 778,
      "帆": 779,
      "师": 780,
      "帝": 781,
      "带": 782,
      "帮": 783,
      "帶": 784,
      "帷": 785,
      "常": 786,
      "幄": 787,
      "幕": 788,
      "干": 789,
      "平": 790,
      "年": 791,
      "并": 792,
      "幸": 793,
      "幽": 794,
      "广": 795,
      "庄": 796,
      "序": 797,
      "应": 798,
      "底": 799,
      "府": 800,
      "度": 801,
      "座": 802,
      "庭": 803,
      "庶": 804,
      "延": 805,
      "廷": 806,
      "建": 807,
      "开": 808,
      "异": 809,
      "弃": 810,
      "弄": 811,
      "式": 812,
      "弑": 813,
      "引": 814,
      "弟": 815,
      "张": 816,
      "弱": 817,
      "強": 818,
      "强": 819,
      "彌": 820,
      "归": 821,
      "当": 822,
      "形": 823,
      "彩": 824,
      "彼": 825,
      "往": 826,
      "征": 827,
      "径": 828,
      "待": 829,
      "很": 830,
      "律": 831,
      "後": 832,
      "徒": 833,
      "得": 834,
      "從": 835,
      "御": 836,
      "復": 837,
      "微": 838,
      "德": 839,
      "心": 840,
      "必": 841,
      "忍": 842,
      "志": 843,
      "忘": 844,
      "応": 845,
      "快": 846,
      "念": 847,
      "怀": 848,
      "态": 849,
      "怎": 850,
      "怒": 851,
      "思": 852,
      "性": 853,
      "总": 854,
      "息": 855,
      "恰": 856,
      "恶": 857,
      "悖": 858,
      "您": 859,
      "情": 860,
      "惊": 861,
      "惩": 862,
      "想": 863,
      "惹": 864,
      "愁": 865,
      "意": 866,
      "愚": 867,
      "感": 868,
      "愣": 869,
      "愿": 870,
      "態": 871,
      "慢": 872,
      "慣": 873,
      "慧": 874,
      "慰": 875,
      "懂": 876,
      "戈": 877,
      "成": 878,
      "我": 879,
      "或": 880,
      "战": 881,
      "截": 882,
      "户": 883,
      "房": 884,
      "所": 885,
      "手": 886,
      "才": 887,
      "打": 888,
      "扩": 889,
      "扫": 890,
      "扬": 891,
      "扰": 892,
      "扶": 893,
      "批": 894,
      "找": 895,
      "承": 896,
      "技": 897,
      "把": 898,
      "投": 899,
      "抖": 900,
      "抚": 901,
      "护": 902,
      "报": 903,
      "抽": 904,
      "拆": 905,
      "拉": 906,
      "拍": 907,
      "拒": 908,
      "招": 909,
      "拜": 910,
      "拠": 911,
      "择": 912,
      "括": 913,
      "拳": 914,
      "持": 915,
      "指": 916,
      "按": 917,
      "振": 918,
      "捉": 919,
      "捕": 920,
      "损": 921,
      "换": 922,
      "捨": 923,
      "据": 924,
      "授": 925,
      "掉": 926,
      "掌": 927,
      "排": 928,
      "探": 929,
      "接": 930,
      "控": 931,
      "推": 932,
      "描": 933,
      "提": 934,
      "換": 935,
      "握": 936,
      "揭": 937,
      "搜": 938,
      "搬": 939,
      "摆": 940,
      "摇": 941,
      "撑": 942,
      "撞": 943,
      "撤": 944,
      "播": 945,
      "擇": 946,
      "操": 947,
      "擬": 948,
      "支": 949,
      "收": 950,
      "改": 951,
      "攻": 952,
      "放": 953,
      "故": 954,
      "效": 955,
      "敌": 956,
      "敗": 957,
      "教": 958,
      "敢": 959,
      "敬": 960,
      "数": 961,
      "整": 962,
      "敵": 963,
      "文": 964,
      "斋": 965,
      "斗": 966,
      "料": 967,
      "断": 968,
      "斯": 969,
      "新": 970,
      "斷": 971,
      "方": 972,
      "於": 973,
      "施": 974,
      "旁": 975,
      "旃": 976,
      "旅": 977,
      "族": 978,
      "无": 979,
      "日": 980,
      "旧": 981,
      "旨": 982,
      "早": 983,
      "时": 984,
      "明": 985,
      "昏": 986,
      "易": 987,
      "星": 988,
      "映": 989,
      "昭": 990,
      "是": 991,
      "显": 992,
      "時": 993,
      "普": 994,
      "景": 995,
      "智": 996,
      "暗": 997,
      "暴": 998,
      "曰": 999,
      "曲": 1000,
      "更": 1001,
      "曹": 1002,
      "曾": 1003,
      "替": 1004,
      "最": 1005,
      "會": 1006,
      "有": 1007,
      "服": 1008,
      "望": 1009,
      "朝": 1010,
      "期": 1011,
      "未": 1012,
      "本": 1013,
      "术": 1014,
      "机": 1015,
      "朽": 1016,
      "杀": 1017,
      "权": 1018,
      "杆": 1019,
      "杉": 1020,
      "杏": 1021,
      "材": 1022,
      "村": 1023,
      "条": 1024,
      "来": 1025,
      "杯": 1026,
      "東": 1027,
      "板": 1028,
      "极": 1029,
      "构": 1030,
      "析": 1031,
      "林": 1032,
      "果": 1033,
      "架": 1034,
      "柏": 1035,
      "柔": 1036,
      "柞": 1037,
      "查": 1038,
      "柴": 1039,
      "标": 1040,
      "栈": 1041,
      "栏": 1042,
      "树": 1043,
      "校": 1044,
      "样": 1045,
      "核": 1046,
      "根": 1047,
      "格": 1048,
      "框": 1049,
      "案": 1050,
      "桑": 1051,
      "梁": 1052,
      "检": 1053,
      "楚": 1054,
      "楯": 1055,
      "極": 1056,
      "概": 1057,
      "構": 1058,
      "槛": 1059,
      "標": 1060,
      "模": 1061,
      "樣": 1062,
      "横": 1063,
      "機": 1064,
      "次": 1065,
      "欢": 1066,
      "欲": 1067,
      "歇": 1068,
      "歌": 1069,
      "歓": 1070,
      "止": 1071,
      "正": 1072,
      "此": 1073,
      "步": 1074,
      "武": 1075,
      "歧": 1076,
      "死": 1077,
      "残": 1078,
      "段": 1079,
      "殿": 1080,
      "毋": 1081,
      "母": 1082,
      "每": 1083,
      "比": 1084,
      "民": 1085,
      "气": 1086,
      "氣": 1087,
      "求": 1088,
      "汉": 1089,
      "汝": 1090,
      "決": 1091,
      "汽": 1092,
      "沉": 1093,
      "沒": 1094,
      "沙": 1095,
      "沛": 1096,
      "没": 1097,
      "沧": 1098,
      "河": 1099,
      "油": 1100,
      "治": 1101,
      "沾": 1102,
      "泄": 1103,
      "法": 1104,
      "注": 1105,
      "泰": 1106,
      "洁": 1107,
      "洗": 1108,
      "洛": 1109,
      "活": 1110,
      "派": 1111,
      "流": 1112,
      "测": 1113,
      "浑": 1114,
      "浓": 1115,
      "浮": 1116,
      "海": 1117,
      "消": 1118,
      "涯": 1119,
      "淀": 1120,
      "淋": 1121,
      "淡": 1122,
      "淫": 1123,
      "深": 1124,
      "淳": 1125,
      "混": 1126,
      "清": 1127,
      "済": 1128,
      "渊": 1129,
      "渡": 1130,
      "渴": 1131,
      "游": 1132,
      "湑": 1133,
      "湿": 1134,
      "源": 1135,
      "準": 1136,
      "溯": 1137,
      "滋": 1138,
      "滑": 1139,
      "满": 1140,
      "滤": 1141,
      "漂": 1142,
      "漆": 1143,
      "漏": 1144,
      "演": 1145,
      "漫": 1146,
      "潮": 1147,
      "濡": 1148,
      "火": 1149,
      "灭": 1150,
      "灯": 1151,
      "炫": 1152,
      "点": 1153,
      "為": 1154,
      "烂": 1155,
      "烈": 1156,
      "焉": 1157,
      "無": 1158,
      "然": 1159,
      "煌": 1160,
      "照": 1161,
      "燕": 1162,
      "營": 1163,
      "爬": 1164,
      "爱": 1165,
      "片": 1166,
      "牌": 1167,
      "牡": 1168,
      "物": 1169,
      "特": 1170,
      "状": 1171,
      "犹": 1172,
      "狀": 1173,
      "独": 1174,
      "猎": 1175,
      "獨": 1176,
      "率": 1177,
      "王": 1178,
      "玩": 1179,
      "环": 1180,
      "现": 1181,
      "現": 1182,
      "球": 1183,
      "理": 1184,
      "琴": 1185,
      "環": 1186,
      "瓶": 1187,
      "甚": 1188,
      "生": 1189,
      "產": 1190,
      "用": 1191,
      "田": 1192,
      "由": 1193,
      "画": 1194,
      "界": 1195,
      "留": 1196,
      "番": 1197,
      "當": 1198,
      "疙": 1199,
      "疼": 1200,
      "疾": 1201,
      "病": 1202,
      "瘩": 1203,
      "発": 1204,
      "登": 1205,
      "發": 1206,
      "百": 1207,
      "的": 1208,
      "皆": 1209,
      "皇": 1210,
      "皮": 1211,
      "益": 1212,
      "盖": 1213,
      "盛": 1214,
      "盟": 1215,
      "目": 1216,
      "直": 1217,
      "相": 1218,
      "盾": 1219,
      "看": 1220,
      "真": 1221,
      "着": 1222,
      "矛": 1223,
      "矣": 1224,
      "知": 1225,
      "短": 1226,
      "矮": 1227,
      "矰": 1228,
      "码": 1229,
      "破": 1230,
      "础": 1231,
      "硕": 1232,
      "硬": 1233,
      "确": 1234,
      "碍": 1235,
      "碎": 1236,
      "確": 1237,
      "礎": 1238,
      "示": 1239,
      "礼": 1240,
      "社": 1241,
      "祀": 1242,
      "祋": 1243,
      "神": 1244,
      "祭": 1245,
      "祸": 1246,
      "禁": 1247,
      "福": 1248,
      "离": 1249,
      "禽": 1250,
      "私": 1251,
      "种": 1252,
      "科": 1253,
      "秒": 1254,
      "秦": 1255,
      "秩": 1256,
      "积": 1257,
      "称": 1258,
      "移": 1259,
      "程": 1260,
      "稍": 1261,
      "種": 1262,
      "稽": 1263,
      "穩": 1264,
      "空": 1265,
      "穿": 1266,
      "突": 1267,
      "窃": 1268,
      "立": 1269,
      "竖": 1270,
      "站": 1271,
      "竞": 1272,
      "端": 1273,
      "竹": 1274,
      "笑": 1275,
      "笔": 1276,
      "第": 1277,
      "等": 1278,
      "答": 1279,
      "策": 1280,
      "筹": 1281,
      "签": 1282,
      "简": 1283,
      "算": 1284,
      "管": 1285,
      "箭": 1286,
      "篇": 1287,
      "築": 1288,
      "籍": 1289,
      "类": 1290,
      "粹": 1291,
      "精": 1292,
      "糊": 1293,
      "系": 1294,
      "約": 1295,
      "級": 1296,
      "索": 1297,
      "累": 1298,
      "組": 1299,
      "経": 1300,
      "結": 1301,
      "給": 1302,
      "統": 1303,
      "經": 1304,
      "継": 1305,
      "続": 1306,
      "緣": 1307,
      "縛": 1308,
      "繁": 1309,
      "繞": 1310,
      "繼": 1311,
      "續": 1312,
      "红": 1313,
      "级": 1314,
      "纪": 1315,
      "纯": 1316,
      "纵": 1317,
      "纶": 1318,
      "纷": 1319,
      "线": 1320,
      "组": 1321,
      "细": 1322,
      "终": 1323,
      "经": 1324,
      "结": 1325,
      "给": 1326,
      "绝": 1327,
      "统": 1328,
      "继": 1329,
      "续": 1330,
      "维": 1331,
      "编": 1332,
      "缘": 1333,
      "缛": 1334,
      "缩": 1335,
      "缺": 1336,
      "网": 1337,
      "罔": 1338,
      "罕": 1339,
      "罚": 1340,
      "置": 1341,
      "美": 1342,
      "群": 1343,
      "義": 1344,
      "習": 1345,
      "翼": 1346,
      "耀": 1347,
      "老": 1348,
      "考": 1349,
      "者": 1350,
      "耆": 1351,
      "而": 1352,
      "耳": 1353,
      "聊": 1354,
      "联": 1355,
      "聚": 1356,
      "聪": 1357,
      "股": 1358,
      "肯": 1359,
      "育": 1360,
      "肴": 1361,
      "背": 1362,
      "胡": 1363,
      "胸": 1364,
      "能": 1365,
      "脑": 1366,
      "脚": 1367,
      "脸": 1368,
      "臆": 1369,
      "臣": 1370,
      "自": 1371,
      "至": 1372,
      "致": 1373,
      "與": 1374,
      "舍": 1375,
      "舝": 1376,
      "舞": 1377,
      "良": 1378,
      "色": 1379,
      "艺": 1380,
      "节": 1381,
      "芯": 1382,
      "花": 1383,
      "芾": 1384,
      "苏": 1385,
      "苑": 1386,
      "苗": 1387,
      "苛": 1388,
      "若": 1389,
      "苦": 1390,
      "英": 1391,
      "范": 1392,
      "草": 1393,
      "荒": 1394,
      "荟": 1395,
      "荡": 1396,
      "荫": 1397,
      "落": 1398,
      "著": 1399,
      "葬": 1400,
      "蓬": 1401,
      "蔚": 1402,
      "蕉": 1403,
      "蕹": 1404,
      "薪": 1405,
      "藏": 1406,
      "藤": 1407,
      "虎": 1408,
      "處": 1409,
      "虚": 1410,
      "號": 1411,
      "虽": 1412,
      "蛮": 1413,
      "蜕": 1414,
      "蝴": 1415,
      "蝶": 1416,
      "血": 1417,
      "行": 1418,
      "补": 1419,
      "表": 1420,
      "衰": 1421,
      "袋": 1422,
      "被": 1423,
      "裂": 1424,
      "装": 1425,
      "補": 1426,
      "裡": 1427,
      "西": 1428,
      "要": 1429,
      "覆": 1430,
      "見": 1431,
      "規": 1432,
      "観": 1433,
      "覺": 1434,
      "觀": 1435,
      "见": 1436,
      "观": 1437,
      "规": 1438,
      "视": 1439,
      "觉": 1440,
      "觏": 1441,
      "角": 1442,
      "解": 1443,
      "觥": 1444,
      "触": 1445,
      "言": 1446,
      "計": 1447,
      "討": 1448,
      "記": 1449,
      "設": 1450,
      "許": 1451,
      "訴": 1452,
      "証": 1453,
      "試": 1454,
      "話": 1455,
      "誉": 1456,
      "認": 1457,
      "語": 1458,
      "誤": 1459,
      "說": 1460,
      "説": 1461,
      "誰": 1462,
      "課": 1463,
      "調": 1464,
      "論": 1465,
      "謝": 1466,
      "識": 1467,
      "警": 1468,
      "議": 1469,
      "變": 1470,
      "讓": 1471,
      "计": 1472,
      "认": 1473,
      "让": 1474,
      "训": 1475,
      "议": 1476,
      "记": 1477,
      "讲": 1478,
      "许": 1479,
      "论": 1480,
      "讽": 1481,
      "设": 1482,
      "访": 1483,
      "证": 1484,
      "评": 1485,
      "识": 1486,
      "诉": 1487,
      "诊": 1488,
      "词": 1489,
      "诗": 1490,
      "话": 1491,
      "诞": 1492,
      "该": 1493,
      "语": 1494,
      "诲": 1495,
      "说": 1496,
      "请": 1497,
      "诺": 1498,
      "读": 1499,
      "课": 1500,
      "谁": 1501,
      "调": 1502,
      "谈": 1503,
      "谋": 1504,
      "谏": 1505,
      "谓": 1506,
      "谢": 1507,
      "谬": 1508,
      "谱": 1509,
      "谷": 1510,
      "豆": 1511,
      "象": 1512,
      "貌": 1513,
      "負": 1514,
      "費": 1515,
      "資": 1516,
      "質": 1517,
      "负": 1518,
      "财": 1519,
      "货": 1520,
      "质": 1521,
      "贯": 1522,
      "贱": 1523,
      "贵": 1524,
      "费": 1525,
      "贾": 1526,
      "资": 1527,
      "赋": 1528,
      "赞": 1529,
      "赠": 1530,
      "赤": 1531,
      "走": 1532,
      "起": 1533,
      "越": 1534,
      "趟": 1535,
      "趣": 1536,
      "足": 1537,
      "跑": 1538,
      "跟": 1539,
      "跨": 1540,
      "路": 1541,
      "跳": 1542,
      "践": 1543,
      "身": 1544,
      "較": 1545,
      "輸": 1546,
      "车": 1547,
      "轨": 1548,
      "转": 1549,
      "轮": 1550,
      "软": 1551,
      "轰": 1552,
      "轻": 1553,
      "轼": 1554,
      "载": 1555,
      "辆": 1556,
      "辈": 1557,
      "辉": 1558,
      "辍": 1559,
      "辑": 1560,
      "输": 1561,
      "辔": 1562,
      "辞": 1563,
      "辩": 1564,
      "辰": 1565,
      "边": 1566,
      "辽": 1567,
      "达": 1568,
      "迁": 1569,
      "过": 1570,
      "迎": 1571,
      "运": 1572,
      "近": 1573,
      "还": 1574,
      "这": 1575,
      "进": 1576,
      "远": 1577,
      "连": 1578,
      "述": 1579,
      "追": 1580,
      "退": 1581,
      "送": 1582,
      "适": 1583,
      "选": 1584,
      "透": 1585,
      "递": 1586,
      "逗": 1587,
      "這": 1588,
      "通": 1589,
      "逝": 1590,
      "造": 1591,
      "連": 1592,
      "週": 1593,
      "逻": 1594,
      "遂": 1595,
      "遇": 1596,
      "運": 1597,
      "遍": 1598,
      "過": 1599,
      "道": 1600,
      "達": 1601,
      "遗": 1602,
      "遮": 1603,
      "選": 1604,
      "避": 1605,
      "還": 1606,
      "邊": 1607,
      "邑": 1608,
      "那": 1609,
      "邦": 1610,
      "邪": 1611,
      "邮": 1612,
      "郎": 1613,
      "部": 1614,
      "都": 1615,
      "配": 1616,
      "酒": 1617,
      "酬": 1618,
      "酷": 1619,
      "醒": 1620,
      "采": 1621,
      "里": 1622,
      "重": 1623,
      "野": 1624,
      "量": 1625,
      "金": 1626,
      "錯": 1627,
      "鍵": 1628,
      "钓": 1629,
      "钟": 1630,
      "链": 1631,
      "锁": 1632,
      "锋": 1633,
      "错": 1634,
      "键": 1635,
      "長": 1636,
      "长": 1637,
      "開": 1638,
      "間": 1639,
      "關": 1640,
      "门": 1641,
      "问": 1642,
      "间": 1643,
      "闻": 1644,
      "阅": 1645,
      "阜": 1646,
      "阱": 1647,
      "防": 1648,
      "阳": 1649,
      "阴": 1650,
      "阶": 1651,
      "阻": 1652,
      "阿": 1653,
      "附": 1654,
      "际": 1655,
      "陈": 1656,
      "降": 1657,
      "限": 1658,
      "陕": 1659,
      "陛": 1660,
      "陟": 1661,
      "陣": 1662,
      "险": 1663,
      "陷": 1664,
      "随": 1665,
      "障": 1666,
      "隮": 1667,
      "隱": 1668,
      "难": 1669,
      "雅": 1670,
      "集": 1671,
      "雍": 1672,
      "離": 1673,
      "雨": 1674,
      "需": 1675,
      "震": 1676,
      "露": 1677,
      "青": 1678,
      "静": 1679,
      "靜": 1680,
      "非": 1681,
      "靠": 1682,
      "面": 1683,
      "革": 1684,
      "韩": 1685,
      "音": 1686,
      "頸": 1687,
      "頻": 1688,
      "顆": 1689,
      "題": 1690,
      "類": 1691,
      "顯": 1692,
      "顶": 1693,
      "顷": 1694,
      "顾": 1695,
      "颂": 1696,
      "预": 1697,
      "领": 1698,
      "颈": 1699,
      "频": 1700,
      "颗": 1701,
      "题": 1702,
      "颠": 1703,
      "風": 1704,
      "风": 1705,
      "飘": 1706,
      "飞": 1707,
      "食": 1708,
      "饥": 1709,
      "饮": 1710,
      "馆": 1711,
      "騑": 1712,
      "驅": 1713,
      "驗": 1714,
      "马": 1715,
      "驰": 1716,
      "驶": 1717,
      "驾": 1718,
      "骄": 1719,
      "骋": 1720,
      "验": 1721,
      "骤": 1722,
      "骨": 1723,
      "體": 1724,
      "高": 1725,
      "髡": 1726,
      "鱼": 1727,
      "鲁": 1728,
      "鲜": 1729,
      "鷮": 1730,
      "鸟": 1731,
      "鸡": 1732,
      "鹈": 1733,
      "鹿": 1734,
      "麋": 1735,
      "黄": 1736,
      "默": 1737,
      "點": 1738,
      "齐": 1739,
      "龙": 1740,
      "️": 1741,
      "！": 1742,
      "（": 1743,
      "）": 1744,
      "，": 1745,
      "：": 1746,
      "；": 1747,
      "？": 1748,
      "�": 1749,
      "🌿": 1750,
      "🎤": 1751,
      "🎵": 1752,
      "💳": 1753,
      "📋": 1754,
      "📌": 1755,
      "📚": 1756,
      "📷": 1757,
      "🔊": 1758,
      "🔗": 1759,
      "🔧": 1760,
      "🖖": 1761,
      "🛡": 1762,
      "🛤": 1763,
      "🛰": 1764,
      "🤝": 1765,
      "🤣": 1766,
      "🦋": 1767,
      "🦞": 1768,
      "th": 1769,
      "in": 1770,
      "re": 1771,
      "the": 1772,
      "on": 1773,
      "at": 1774,
      "en": 1775,
      "er": 1776,
      "an": 1777,
      "st": 1778,
      "or": 1779,
      "al": 1780,
      "is": 1781,
      "it": 1782,
      "ing": 1783,
      "ion": 1784,
      "es": 1785,
      "ed": 1786,
      "ic": 1787,
      "ar": 1788,
      "ro": 1789,
      "to": 1790,
      "ou": 1791,
      "ent": 1792,
      "ct": 1793,
      "of": 1794,
      "le": 1795,
      "as": 1796,
      "he": 1797,
      "de": 1798,
      "se": 1799,
      "and": 1800,
      "ation": 1801,
      "co": 1802,
      "il": 1803,
      "ch": 1804,
      "me": 1805,
      "ce": 1806,
      "ra": 1807,
      "lo": 1808,
      "ve": 1809,
      "ly": 1810,
      "if": 1811,
      "no": 1812,
      "for": 1813,
      "ig": 1814,
      "The": 1815,
      "mo": 1816,
      "pro": 1817,
      "be": 1818,
      "con": 1819,
      "ut": 1820,
      "ab": 1821,
      "ver": 1822,
      "ag": 1823,
      "that": 1824,
      "mp": 1825,
      "ity": 1826,
      "un": 1827,
      "su": 1828,
      "ex": 1829,
      "id": 1830,
      "ap": 1831,
      "ol": 1832,
      "int": 1833,
      "not": 1834,
      "we": 1835,
      "ate": 1836,
      "ad": 1837,
      "ment": 1838,
      "res": 1839,
      "ur": 1840,
      "im": 1841,
      "ac": 1842,
      "tr": 1843,
      "qu": 1844,
      "are": 1845,
      "ist": 1846,
      "you": 1847,
      "sp": 1848,
      "et": 1849,
      "ust": 1850,
      "act": 1851,
      "ul": 1852,
      "te": 1853,
      "sh": 1854,
      "ay": 1855,
      "wh": 1856,
      "ure": 1857,
      "ter": 1858,
      "ow": 1859,
      "del": 1860,
      "ive": 1861,
      "ess": 1862,
      "per": 1863,
      "ith": 1864,
      "ne": 1865,
      "ma": 1866,
      "igh": 1867,
      "iv": 1868,
      "ical": 1869,
      "str": 1870,
      "with": 1871,
      "model": 1872,
      "can": 1873,
      "po": 1874,
      "rom": 1875,
      "pl": 1876,
      "ect": 1877,
      "from": 1878,
      "iz": 1879,
      "but": 1880,
      "ir": 1881,
      "ge": 1882,
      "ec": 1883,
      "us": 1884,
      "do": 1885,
      "ste": 1886,
      "ign": 1887,
      "out": 1888,
      "wor": 1889,
      "comp": 1890,
      "ction": 1891,
      "Th": 1892,
      "ine": 1893,
      "ility": 1894,
      "ren": 1895,
      "ding": 1896,
      "ts": 1897,
      "li": 1898,
      "by": 1899,
      "tra": 1900,
      "ti": 1901,
      "op": 1902,
      "ke": 1903,
      "agent": 1904,
      "sy": 1905,
      "man": 1906,
      "au": 1907,
      "one": 1908,
      "ific": 1909,
      "end": 1910,
      "ri": 1911,
      "able": 1912,
      "red": 1913,
      "ence": 1914,
      "fa": 1915,
      "fe": 1916,
      "cl": 1917,
      "com": 1918,
      "cal": 1919,
      "If": 1920,
      "ld": 1921,
      "oun": 1922,
      "ther": 1923,
      "der": 1924,
      "stru": 1925,
      "**": 1926,
      "ans": 1927,
      "ard": 1928,
      "our": 1929,
      "just": 1930,
      "ck": 1931,
      "ability": 1932,
      "ain": 1933,
      "ill": 1934,
      "par": 1935,
      "ev": 1936,
      "am": 1937,
      "work": 1938,
      "ph": 1939,
      "ant": 1940,
      "ial": 1941,
      "ind": 1942,
      "this": 1943,
      "It": 1944,
      "stem": 1945,
      "sign": 1946,
      "ip": 1947,
      "age": 1948,
      "20": 1949,
      "low": 1950,
      "chan": 1951,
      "system": 1952,
      "bet": 1953,
      "cont": 1954,
      "form": 1955,
      "whe": 1956,
      "ass": 1957,
      "cy": 1958,
      "ble": 1959,
      "cor": 1960,
      "ll": 1961,
      "ual": 1962,
      "pre": 1963,
      "ens": 1964,
      "ces": 1965,
      "ated": 1966,
      "ers": 1967,
      "This": 1968,
      "ame": 1969,
      "bo": 1970,
      "ary": 1971,
      "tt": 1972,
      "ies": 1973,
      "arch": 1974,
      "ight": 1975,
      "In": 1976,
      "spec": 1977,
      "ack": 1978,
      "che": 1979,
      "all": 1980,
      "vi": 1981,
      "ition": 1982,
      "struct": 1983,
      "pr": 1984,
      "um": 1985,
      "dat": 1986,
      "log": 1987,
      "est": 1988,
      "fi": 1989,
      "its": 1990,
      "so": 1991,
      "gra": 1992,
      "ha": 1993,
      "ext": 1994,
      "inter": 1995,
      "ser": 1996,
      "imp": 1997,
      "dep": 1998,
      "ach": 1999,
      "requ": 2000,
      "ance": 2001,
      "bu": 2002,
      "des": 2003,
      "di": 2004,
      "ations": 2005,
      "ff": 2006,
      "tion": 2007,
      "mar": 2008,
      "up": 2009,
      "read": 2010,
      "val": 2011,
      "dis": 2012,
      "does": 2013,
      "ates": 2014,
      "rent": 2015,
      "dist": 2016,
      "ween": 2017,
      "between": 2018,
      "ps": 2019,
      "where": 2020,
      "Wh": 2021,
      "fail": 2022,
      "cess": 2023,
      "du": 2024,
      "ob": 2025,
      "ss": 2026,
      "gen": 2027,
      "ound": 2028,
      "ory": 2029,
      "cre": 2030,
      "high": 2031,
      "trans": 2032,
      "ise": 2033,
      "than": 2034,
      "mat": 2035,
      "cap": 2036,
      "ta": 2037,
      "cur": 2038,
      "##": 2039,
      "ould": 2040,
      "ase": 2041,
      "state": 2042,
      "ong": 2043,
      "into": 2044,
      "reg": 2045,
      "real": 2046,
      "specific": 2047,
      "tic": 2048,
      "shif": 2049,
      "has": 2050,
      "fra": 2051,
      "how": 2052,
      "data": 2053,
      "time": 2054,
      "way": 2055,
      "gh": 2056,
      "fo": 2057,
      "ys": 2058,
      "own": 2059,
      "ort": 2060,
      "ency": 2061,
      "fun": 2062,
      "ty": 2063,
      "gu": 2064,
      "very": 2065,
      "over": 2066,
      "om": 2067,
      "202": 2068,
      "dif": 2069,
      "ural": 2070,
      "ject": 2071,
      "was": 2072,
      "sel": 2073,
      "sion": 2074,
      "ous": 2075,
      "ution": 2076,
      "test": 2077,
      "dy": 2078,
      "ice": 2079,
      "ause": 2080,
      "fl": 2081,
      "pres": 2082,
      "ors": 2083,
      "ot": 2084,
      "ue": 2085,
      "only": 2086,
      "prov": 2087,
      "ich": 2088,
      "htt": 2089,
      "sing": 2090,
      "//": 2091,
      "https": 2092,
      "stra": 2093,
      "://": 2094,
      "ak": 2095,
      "mark": 2096,
      "line": 2097,
      "ization": 2098,
      "We": 2099,
      "ating": 2100,
      "fin": 2101,
      "depend": 2102,
      "edding": 2103,
      "ifi": 2104,
      "serv": 2105,
      "put": 2106,
      "ast": 2107,
      "mis": 2108,
      "need": 2109,
      "min": 2110,
      "ources": 2111,
      "more": 2112,
      "ok": 2113,
      "what": 2114,
      "sol": 2115,
      "dec": 2116,
      "run": 2117,
      "ning": 2118,
      "requi": 2119,
      "same": 2120,
      "blem": 2121,
      "pe": 2122,
      "gr": 2123,
      "problem": 2124,
      "self": 2125,
      "00": 2126,
      "exp": 2127,
      "ree": 2128,
      "cause": 2129,
      "ari": 2130,
      "under": 2131,
      "corre": 2132,
      "sur": 2133,
      "thing": 2134,
      "check": 2135,
      "actual": 2136,
      "have": 2137,
      "eff": 2138,
      "rit": 2139,
      "ident": 2140,
      "point": 2141,
      "signal": 2142,
      "tim": 2143,
      "mon": 2144,
      "get": 2145,
      "which": 2146,
      "ting": 2147,
      "scal": 2148,
      "because": 2149,
      "av": 2150,
      "ics": 2151,
      "ile": 2152,
      "gener": 2153,
      "these": 2154,
      "when": 2155,
      "ism": 2156,
      "ide": 2157,
      "Sources": 2158,
      "mechan": 2159,
      "abs": 2160,
      "now": 2161,
      ").": 2162,
      "You": 2163,
      "they": 2164,
      "bl": 2165,
      "inte": 2166,
      "diffe": 2167,
      "eng": 2168,
      "search": 2169,
      "buil": 2170,
      "org": 2171,
      "br": 2172,
      "ask": 2173,
      "ification": 2174,
      "your": 2175,
      "sub": 2176,
      "like": 2177,
      "od": 2178,
      "meas": 2179,
      "bas": 2180,
      "will": 2181,
      "ry": 2182,
      "ative": 2183,
      "ized": 2184,
      "tool": 2185,
      "pa": 2186,
      "about": 2187,
      "models": 2188,
      "ris": 2189,
      "ross": 2190,
      "lay": 2191,
      "old": 2192,
      "ish": 2193,
      "tw": 2194,
      "produ": 2195,
      "coun": 2196,
      "constra": 2197,
      "ness": 2198,
      "bound": 2199,
      "comple": 2200,
      "vari": 2201,
      "cost": 2202,
      "valid": 2203,
      "metr": 2204,
      "main": 2205,
      "dr": 2206,
      "cent": 2207,
      "rou": 2208,
      "tern": 2209,
      "becom": 2210,
      "tre": 2211,
      "structure": 2212,
      "set": 2213,
      "ace": 2214,
      "rough": 2215,
      "mov": 2216,
      "tur": 2217,
      "ward": 2218,
      "ify": 2219,
      "ision": 2220,
      "sa": 2221,
      "structural": 2222,
      "port": 2223,
      "That": 2224,
      "isn": 2225,
      "err": 2226,
      "oper": 2227,
      "back": 2228,
      "rather": 2229,
      "comm": 2230,
      "risk": 2231,
      "vers": 2232,
      "ribut": 2233,
      "ator": 2234,
      "ments": 2235,
      "fore": 2236,
      "rence": 2237,
      "wedding": 2238,
      "pos": 2239,
      "failure": 2240,
      "vel": 2241,
      "2026": 2242,
      "aim": 2243,
      "ically": 2244,
      "AI": 2245,
      "new": 2246,
      "ict": 2247,
      "art": 2248,
      "fir": 2249,
      "ational": 2250,
      "gest": 2251,
      "col": 2252,
      "ature": 2253,
      "app": 2254,
      "temp": 2255,
      "ures": 2256,
      "appro": 2257,
      "non": 2258,
      "el": 2259,
      "distribut": 2260,
      "When": 2261,
      "mechanism": 2262,
      "ress": 2263,
      "move": 2264,
      "gro": 2265,
      "function": 2266,
      "market": 2267,
      "through": 2268,
      "becomes": 2269,
      "ten": 2270,
      "phys": 2271,
      "stand": 2272,
      "lat": 2273,
      "clo": 2274,
      "ason": 2275,
      "cond": 2276,
      "then": 2277,
      "ential": 2278,
      "shift": 2279,
      "without": 2280,
      "ep": 2281,
      "layer": 2282,
      "ful": 2283,
      "ite": 2284,
      "look": 2285,
      "istic": 2286,
      "go": 2287,
      "claim": 2288,
      "ced": 2289,
      "itself": 2290,
      "local": 2291,
      "who": 2292,
      "agents": 2293,
      "sc": 2294,
      "every": 2295,
      "noise": 2296,
      "cle": 2297,
      "plan": 2298,
      "long": 2299,
      "wind": 2300,
      "xiv": 2301,
      "cannot": 2302,
      "different": 2303,
      "net": 2304,
      "sug": 2305,
      "must": 2306,
      "optim": 2307,
      "suggest": 2308,
      "based": 2309,
      "nam": 2310,
      "atch": 2311,
      "process": 2312,
      "arxiv": 2313,
      "comput": 2314,
      "constraint": 2315,
      "fix": 2316,
      "research": 2317,
      "stat": 2318,
      "actly": 2319,
      "ient": 2320,
      "flow": 2321,
      "mul": 2322,
      "vol": 2323,
      "exist": 2324,
      "design": 2325,
      "gap": 2326,
      "hand": 2327,
      "eld": 2328,
      "contro": 2329,
      "rely": 2330,
      "use": 2331,
      "observ": 2332,
      "sul": 2333,
      "pol": 2334,
      "erg": 2335,
      "pass": 2336,
      "hu": 2337,
      "rece": 2338,
      "pu": 2339,
      "still": 2340,
      "For": 2341,
      "ible": 2342,
      "actually": 2343,
      "effect": 2344,
      "ize": 2345,
      "cer": 2346,
      "reason": 2347,
      "frame": 2348,
      "measure": 2349,
      "10": 2350,
      "os": 2351,
      "hard": 2352,
      "pred": 2353,
      "velo": 2354,
      "trust": 2355,
      "la": 2356,
      "action": 2357,
      "remain": 2358,
      "sum": 2359,
      "resul": 2360,
      "itect": 2361,
      "any": 2362,
      "distribution": 2363,
      "exec": 2364,
      "und": 2365,
      "doesn": 2366,
      "imple": 2367,
      "sure": 2368,
      "single": 2369,
      "eval": 2370,
      "provid": 2371,
      "again": 2372,
      "error": 2373,
      "ger": 2374,
      "architect": 2375,
      "off": 2376,
      "integr": 2377,
      "two": 2378,
      "ew": 2379,
      "ally": 2380,
      "auth": 2381,
      "lation": 2382,
      "prec": 2383,
      "human": 2384,
      "les": 2385,
      "across": 2386,
      "path": 2387,
      "em": 2388,
      "mem": 2389,
      "ted": 2390,
      "most": 2391,
      "stu": 2392,
      "engine": 2393,
      "ose": 2394,
      "level": 2395,
      "da": 2396,
      "sequ": 2397,
      "window": 2398,
      "vent": 2399,
      "verifi": 2400,
      "load": 2401,
      "ared": 2402,
      "ives": 2403,
      "know": 2404,
      "less": 2405,
      "side": 2406,
      "loop": 2407,
      "lan": 2408,
      "oupl": 2409,
      "face": 2410,
      "against": 2411,
      "shifts": 2412,
      "ib": 2413,
      "code": 2414,
      "hold": 2415,
      "context": 2416,
      "see": 2417,
      "tri": 2418,
      "estion": 2419,
      "transition": 2420,
      "field": 2421,
      "resp": 2422,
      "fact": 2423,
      "--": 2424,
      "coll": 2425,
      "down": 2426,
      "anal": 2427,
      "ear": 2428,
      "aper": 2429,
      "should": 2430,
      "Re": 2431,
      "receip": 2432,
      "But": 2433,
      "v1": 2434,
      "current": 2435,
      "quant": 2436,
      "framework": 2437,
      "led": 2438,
      "sist": 2439,
      "cu": 2440,
      "add": 2441,
      "uring": 2442,
      "scale": 2443,
      "other": 2444,
      "before": 2445,
      "Xiv": 2446,
      "arXiv": 2447,
      "ination": 2448,
      "pat": 2449,
      "independ": 2450,
      "space": 2451,
      "sim": 2452,
      "ities": 2453,
      "whether": 2454,
      "ho": 2455,
      "graph": 2456,
      "dire": 2457,
      "bre": 2458,
      "train": 2459,
      "multi": 2460,
      "vir": 2461,
      "toward": 2462,
      "mak": 2463,
      "cus": 2464,
      "ital": 2465,
      "question": 2466,
      "lim": 2467,
      "writ": 2468,
      "lect": 2469,
      "verification": 2470,
      "reli": 2471,
      "They": 2472,
      "treat": 2473,
      "An": 2474,
      "peri": 2475,
      "turn": 2476,
      "respon": 2477,
      "Ex": 2478,
      "mass": 2479,
      "att": 2480,
      "logic": 2481,
      "leg": 2482,
      "lock": 2483,
      "Mo": 2484,
      "ded": 2485,
      "),": 2486,
      "event": 2487,
      "ware": 2488,
      "would": 2489,
      "some": 2490,
      "ges": 2491,
      "change": 2492,
      "spect": 2493,
      "syn": 2494,
      "present": 2495,
      "ink": 2496,
      "pattern": 2497,
      "ference": 2498,
      "ource": 2499,
      "cep": 2500,
      "control": 2501,
      "ber": 2502,
      "show": 2503,
      "chain": 2504,
      "cing": 2505,
      "cri": 2506,
      "sco": 2507,
      "tok": 2508,
      "reasoning": 2509,
      "rop": 2510,
      "next": 2511,
      "their": 2512,
      "being": 2513,
      "bal": 2514,
      "first": 2515,
      "termin": 2516,
      "vis": 2517,
      "paper": 2518,
      "itive": 2519,
      "fil": 2520,
      "network": 2521,
      "sche": 2522,
      "approach": 2523,
      "ular": 2524,
      "them": 2525,
      "recor": 2526,
      "correct": 2527,
      "study": 2528,
      "require": 2529,
      "suggests": 2530,
      "break": 2531,
      "iction": 2532,
      ".\"": 2533,
      "right": 2534,
      "ero": 2535,
      "stead": 2536,
      "ref": 2537,
      "while": 2538,
      "stre": 2539,
      "tract": 2540,
      "viron": 2541,
      "both": 2542,
      "count": 2543,
      "output": 2544,
      "equ": 2545,
      "ling": 2546,
      "ters": 2547,
      "prim": 2548,
      "allow": 2549,
      "receipt": 2550,
      "exactly": 2551,
      "resol": 2552,
      "tech": 2553,
      "using": 2554,
      "io": 2555,
      "rate": 2556,
      "dete": 2557,
      "lying": 2558,
      "environ": 2559,
      "sto": 2560,
      "manage": 2561,
      "promp": 2562,
      "mental": 2563,
      "logy": 2564,
      "flu": 2565,
      "parame": 2566,
      "class": 2567,
      "conf": 2568,
      "wa": 2569,
      "ship": 2570,
      "sequence": 2571,
      "idence": 2572,
      "ca": 2573,
      "here": 2574,
      "clu": 2575,
      "dynam": 2576,
      "post": 2577,
      "plic": 2578,
      "To": 2579,
      "stream": 2580,
      "incre": 2581,
      "60": 2582,
      "ension": 2583,
      "sup": 2584,
      "physical": 2585,
      "memory": 2586,
      "cho": 2587,
      "ift": 2588,
      "part": 2589,
      "30": 2590,
      "formation": 2591,
      "ines": 2592,
      "publ": 2593,
      "ran": 2594,
      "ering": 2595,
      "den": 2596,
      "map": 2597,
      "reach": 2598,
      "ner": 2599,
      "plat": 2600,
      "often": 2601,
      "verg": 2602,
      "num": 2603,
      "beha": 2604,
      "redu": 2605,
      "better": 2606,
      "complex": 2607,
      "Co": 2608,
      "platform": 2609,
      "verify": 2610,
      "key": 2611,
      "ds": 2612,
      "prob": 2613,
      "25": 2614,
      "force": 2615,
      "ped": 2616,
      "row": 2617,
      "ron": 2618,
      "iven": 2619,
      "ms": 2620,
      "ian": 2621,
      "systems": 2622,
      "stop": 2623,
      "descri": 2624,
      "Con": 2625,
      "ven": 2626,
      "ergy": 2627,
      "car": 2628,
      "lar": 2629,
      "So": 2630,
      "execution": 2631,
      "task": 2632,
      "value": 2633,
      "med": 2634,
      "view": 2635,
      "my": 2636,
      "funda": 2637,
      "ateg": 2638,
      "meth": 2639,
      "tru": 2640,
      "ights": 2641,
      "mission": 2642,
      "By": 2643,
      "ulation": 2644,
      "inst": 2645,
      "training": 2646,
      "distin": 2647,
      "match": 2648,
      "those": 2649,
      "liqu": 2650,
      "don": 2651,
      "proof": 2652,
      "ays": 2653,
      "ough": 2654,
      "proper": 2655,
      "predict": 2656,
      "entially": 2657,
      "LM": 2658,
      "len": 2659,
      "xim": 2660,
      "price": 2661,
      "ral": 2662,
      "remains": 2663,
      "behavi": 2664,
      "her": 2665,
      "ru": 2666,
      "direct": 2667,
      "standard": 2668,
      "liquid": 2669,
      "boundary": 2670,
      "frequ": 2671,
      "oc": 2672,
      "version": 2673,
      "mal": 2674,
      "sed": 2675,
      "tar": 2676,
      "**:": 2677,
      "polic": 2678,
      "ready": 2679,
      "input": 2680,
      "itor": 2681,
      "focus": 2682,
      "mean": 2683,
      "collap": 2684,
      "energy": 2685,
      "cial": 2686,
      "fol": 2687,
      "wit": 2688,
      "call": 2689,
      "12": 2690,
      "could": 2691,
      "order": 2692,
      "deriv": 2693,
      "metric": 2694,
      "langu": 2695,
      "effic": 2696,
      "never": 2697,
      "moving": 2698,
      "lear": 2699,
      "second": 2700,
      "ben": 2701,
      "wr": 2702,
      "try": 2703,
      "used": 2704,
      "af": 2705,
      "rodu": 2706,
      "weight": 2707,
      "oral": 2708,
      "19": 2709,
      "pay": 2710,
      "Ag": 2711,
      "ves": 2712,
      "AP": 2713,
      "wrong": 2714,
      "schema": 2715,
      "abil": 2716,
      "there": 2717,
      "eck": 2718,
      "rele": 2719,
      "ases": 2720,
      "sens": 2721,
      "text": 2722,
      "auto": 2723,
      "architecture": 2724,
      "contin": 2725,
      "seman": 2726,
      "lection": 2727,
      "ively": 2728,
      "tail": 2729,
      "defin": 2730,
      "crit": 2731,
      "logical": 2732,
      "implement": 2733,
      "prompt": 2734,
      "ult": 2735,
      "come": 2736,
      "determin": 2737,
      "mach": 2738,
      "ttlen": 2739,
      "ttleneck": 2740,
      "ord": 2741,
      "enti": 2742,
      "maint": 2743,
      "intern": 2744,
      "vergence": 2745,
      "struction": 2746,
      "LLM": 2747,
      "amp": 2748,
      "bottleneck": 2749,
      "object": 2750,
      "surface": 2751,
      "def": 2752,
      "introdu": 2753,
      "constraints": 2754,
      "policy": 2755,
      "each": 2756,
      "commit": 2757,
      "bin": 2758,
      "develo": 2759,
      "loy": 2760,
      "hardware": 2761,
      "prevent": 2762,
      "metry": 2763,
      "ses": 2764,
      "ia": 2765,
      "rest": 2766,
      "nel": 2767,
      "drift": 2768,
      "lic": 2769,
      "longer": 2770,
      "build": 2771,
      "world": 2772,
      "flo": 2773,
      "mic": 2774,
      "evalu": 2775,
      "anch": 2776,
      "sett": 2777,
      "bit": 2778,
      "already": 2779,
      "tax": 2780,
      "capt": 2781,
      "aud": 2782,
      "requires": 2783,
      "aren": 2784,
      "within": 2785,
      "ysis": 2786,
      "limit": 2787,
      "brid": 2788,
      "ef": 2789,
      "als": 2790,
      "assu": 2791,
      "answ": 2792,
      "coupl": 2793,
      "semantic": 2794,
      "RA": 2795,
      "even": 2796,
      "ified": 2797,
      "author": 2798,
      "means": 2799,
      "pra": 2800,
      "mit": 2801,
      "head": 2802,
      "stability": 2803,
      "What": 2804,
      "linear": 2805,
      "shared": 2806,
      "method": 2807,
      "tal": 2808,
      "may": 2809,
      "feed": 2810,
      "source": 2811,
      "ality": 2812,
      "independent": 2813,
      "did": 2814,
      "24": 2815,
      "hy": 2816,
      "consist": 2817,
      "pri": 2818,
      "manif": 2819,
      "target": 2820,
      "ices": 2821,
      "changes": 2822,
      "ensity": 2823,
      "were": 2824,
      "decision": 2825,
      "building": 2826,
      "consequence": 2827,
      "base": 2828,
      "underlying": 2829,
      "vit": 2830,
      "moves": 2831,
      "liquidity": 2832,
      "frequency": 2833,
      "sil": 2834,
      "block": 2835,
      "file": 2836,
      "gram": 2837,
      "latency": 2838,
      "step": 2839,
      "continu": 2840,
      "separ": 2841,
      "land": 2842,
      "ute": 2843,
      "uc": 2844,
      "ctor": 2845,
      "via": 2846,
      "astic": 2847,
      "08": 2848,
      "ime": 2849,
      "mod": 2850,
      "essentially": 2851,
      "ivity": 2852,
      "make": 2853,
      "ark": 2854,
      "fixed": 2855,
      "por": 2856,
      "provides": 2857,
      "language": 2858,
      "hash": 2859,
      "maintain": 2860,
      "prove": 2861,
      "son": 2862,
      "ages": 2863,
      "token": 2864,
      "ifact": 2865,
      "during": 2866,
      "necess": 2867,
      "makes": 2868,
      "analysis": 2869,
      "environment": 2870,
      "techn": 2871,
      "result": 2872,
      "inclu": 2873,
      "pract": 2874,
      "precision": 2875,
      "15": 2876,
      "hist": 2877,
      "retri": 2878,
      "ions": 2879,
      "raw": 2880,
      "ail": 2881,
      "uch": 2882,
      "track": 2883,
      "itional": 2884,
      "gin": 2885,
      "deploy": 2886,
      "partic": 2887,
      "ging": 2888,
      "live": 2889,
      "might": 2890,
      "represent": 2891,
      "Ho": 2892,
      "air": 2893,
      "cross": 2894,
      "idual": 2895,
      "truth": 2896,
      "ft": 2897,
      "thres": 2898,
      "three": 2899,
      "aging": 2900,
      "mption": 2901,
      "cert": 2902,
      "audit": 2903,
      "pip": 2904,
      "let": 2905,
      "grow": 2906,
      "hone": 2907,
      "sm": 2908,
      "capability": 2909,
      "day": 2910,
      "ache": 2911,
      "been": 2912,
      "why": 2913,
      "formal": 2914,
      "artifact": 2915,
      "til": 2916,
      "information": 2917,
      "zero": 2918,
      "indust": 2919,
      "monitor": 2920,
      "tools": 2921,
      "ju": 2922,
      "fet": 2923,
      "sof": 2924,
      "coord": 2925,
      "ower": 2926,
      "lit": 2927,
      "static": 2928,
      "fundamental": 2929,
      "threshold": 2930,
      "place": 2931,
      "mag": 2932,
      "ax": 2933,
      "rat": 2934,
      "proto": 2935,
      "ended": 2936,
      "account": 2937,
      "mand": 2938,
      "char": 2939,
      "contract": 2940,
      "izing": 2941,
      "identity": 2942,
      "machine": 2943,
      "ash": 2944,
      "compute": 2945,
      "suc": 2946,
      "evidence": 2947,
      "260": 2948,
      "Agent": 2949,
      "volat": 2950,
      "honest": 2951,
      "bi": 2952,
      "cover": 2953,
      "witness": 2954,
      "ple": 2955,
      "ration": 2956,
      "ense": 2957,
      "weights": 2958,
      "type": 2959,
      "address": 2960,
      "11": 2961,
      "simp": 2962,
      "chmark": 2963,
      "needs": 2964,
      "required": 2965,
      "primary": 2966,
      "tical": 2967,
      "mode": 2968,
      "found": 2969,
      "ese": 2970,
      "loss": 2971,
      "trig": 2972,
      "edge": 2973,
      "shap": 2974,
      "management": 2975,
      "critical": 2976,
      "response": 2977,
      "Ch": 2978,
      "workflow": 2979,
      "capture": 2980,
      "report": 2981,
      "ony": 2982,
      "signific": 2983,
      "systemic": 2984,
      "creates": 2985,
      "Un": 2986,
      "free": 2987,
      "war": 2988,
      "themat": 2989,
      "trade": 2990,
      "after": 2991,
      "vend": 2992,
      "dig": 2993,
      "ground": 2994,
      "return": 2995,
      "lobal": 2996,
      "ix": 2997,
      "ick": 2998,
      "conom": 2999,
      "infra": 3000,
      "term": 3001,
      "happ": 3002,
      "geo": 3003,
      "API": 3004,
      "secur": 3005,
      "modeling": 3006,
      "power": 3007,
      "enough": 3008,
      "bro": 3009,
      "cred": 3010,
      "also": 3011,
      "small": 3012,
      "attest": 3013,
      "hall": 3014,
      "experi": 3015,
      "variance": 3016,
      "statist": 3017,
      "year": 3018,
      "matter": 3019,
      "Wedding": 3020,
      "ake": 3021,
      "true": 3022,
      "lu": 3023,
      "project": 3024,
      "samp": 3025,
      "massive": 3026,
      "property": 3027,
      "cache": 3028,
      "too": 3029,
      "chastic": 3030,
      "signed": 3031,
      "propos": 3032,
      "complete": 3033,
      "chall": 3034,
      "significant": 3035,
      "og": 3036,
      "ily": 3037,
      "acity": 3038,
      "mathemat": 3039,
      "effectively": 3040,
      "On": 3041,
      "intent": 3042,
      "away": 3043,
      "trad": 3044,
      "ving": 3045,
      "clean": 3046,
      "record": 3047,
      "05": 3048,
      "sk": 3049,
      "merely": 3050,
      "floor": 3051,
      "spe": 3052,
      "lack": 3053,
      "ww": 3054,
      "aring": 3055,
      "finding": 3056,
      "benchmark": 3057,
      "halluc": 3058,
      "forman": 3059,
      "open": 3060,
      "security": 3061,
      "parameter": 3062,
      "protocol": 3063,
      "06": 3064,
      "evol": 3065,
      "gment": 3066,
      "ffic": 3067,
      "write": 3068,
      "stochastic": 3069,
      "something": 3070,
      "number": 3071,
      "forces": 3072,
      "agree": 3073,
      "compos": 3074,
      "distinction": 3075,
      ".**": 3076,
      "St": 3077,
      "vide": 3078,
      "cept": 3079,
      "volatility": 3080,
      "regime": 3081,
      "formance": 3082,
      "ang": 3083,
      "conne": 3084,
      "well": 3085,
      "rel": 3086,
      "fails": 3087,
      "estim": 3088,
      "looking": 3089,
      "oid": 3090,
      "reality": 3091,
      "generation": 3092,
      "known": 3093,
      "De": 3094,
      "follow": 3095,
      "internal": 3096,
      "pen": 3097,
      "behavior": 3098,
      "simple": 3099,
      "uses": 3100,
      "fac": 3101,
      "expect": 3102,
      "ned": 3103,
      "onent": 3104,
      "answer": 3105,
      "keep": 3106,
      "ternal": 3107,
      "wever": 3108,
      "attack": 3109,
      "success": 3110,
      "inc": 3111,
      "ants": 3112,
      "print": 3113,
      "correlation": 3114,
      "describ": 3115,
      "econom": 3116,
      "attemp": 3117,
      "sus": 3118,
      "reading": 3119,
      "dim": 3120,
      "usion": 3121,
      "validation": 3122,
      "physics": 3123,
      "condition": 3124,
      "resolution": 3125,
      "diff": 3126,
      "driven": 3127,
      "engineering": 3128,
      "How": 3129,
      "phase": 3130,
      "running": 3131,
      ",\"": 3132,
      "fr": 3133,
      "har": 3134,
      "ming": 3135,
      "bur": 3136,
      "handle": 3137,
      "want": 3138,
      "aver": 3139,
      "atures": 3140,
      "loc": 3141,
      "apping": 3142,
      "large": 3143,
      "18": 3144,
      "Pro": 3145,
      "case": 3146,
      "ved": 3147,
      "star": 3148,
      "lement": 3149,
      "thread": 3150,
      "inference": 3151,
      "density": 3152,
      "mosp": 3153,
      "performance": 3154,
      "built": 3155,
      "infrastructure": 3156,
      "autom": 3157,
      "deterministic": 3158,
      "assumption": 3159,
      "solve": 3160,
      "global": 3161,
      "signature": 3162,
      "While": 3163,
      "jo": 3164,
      "cohe": 3165,
      "acy": 3166,
      "solution": 3167,
      "closed": 3168,
      "researchers": 3169,
      "sets": 3170,
      "grid": 3171,
      "quantization": 3172,
      "pressure": 3173,
      "party": 3174,
      "capacity": 3175,
      "operator": 3176,
      "Exactly": 3177,
      "ious": 3178,
      "ore": 3179,
      "moment": 3180,
      "surv": 3181,
      "publish": 3182,
      "nar": 3183,
      "const": 3184,
      "As": 3185,
      "En": 3186,
      "approxim": 3187,
      "find": 3188,
      "probe": 3189,
      "existing": 3190,
      "07": 3191,
      "ied": 3192,
      "retrieval": 3193,
      "stain": 3194,
      "tell": 3195,
      "product": 3196,
      "shows": 3197,
      "medi": 3198,
      "care": 3199,
      "ie": 3200,
      "strateg": 3201,
      "ways": 3202,
      "ibility": 3203,
      "relation": 3204,
      "commun": 3205,
      "ention": 3206,
      "feedback": 3207,
      "emp": 3208,
      "review": 3209,
      "ets": 3210,
      "precise": 3211,
      "Most": 3212,
      "However": 3213,
      "onom": 3214,
      "safet": 3215,
      "16": 3216,
      "verified": 3217,
      "technical": 3218,
      "safety": 3219,
      "ged": 3220,
      "smo": 3221,
      "09": 3222,
      "14": 3223,
      "atmosp": 3224,
      "asing": 3225,
      "tware": 3226,
      "ensive": 3227,
      "prior": 3228,
      "ingu": 3229,
      "17": 3230,
      "ST": 3231,
      "bug": 3232,
      "ater": 3233,
      "external": 3234,
      "downstream": 3235,
      "No": 3236,
      "utility": 3237,
      "box": 3238,
      "typ": 3239,
      "industry": 3240,
      "access": 3241,
      "instead": 3242,
      "temporal": 3243,
      "fer": 3244,
      "person": 3245,
      "grade": 3246,
      "interaction": 3247,
      "optimization": 3248,
      "plicit": 3249,
      "$\\": 3250,
      "):": 3251,
      "dimension": 3252,
      "covery": 3253,
      "ched": 3254,
      "que": 3255,
      "active": 3256,
      "ined": 3257,
      "friction": 3258,
      "dget": 3259,
      "inject": 3260,
      "production": 3261,
      "cons": 3262,
      "rule": 3263,
      "03": 3264,
      "ues": 3265,
      "assum": 3266,
      "start": 3267,
      "Instead": 3268,
      "runtime": 3269,
      "measurement": 3270,
      "planning": 3271,
      "atory": 3272,
      "explicit": 3273,
      "mathematical": 3274,
      "ither": 3275,
      "light": 3276,
      "correl": 3277,
      "independence": 3278,
      "izes": 3279,
      "turb": 3280,
      "inguish": 3281,
      "Col": 3282,
      "cast": 3283,
      "align": 3284,
      "itu": 3285,
      "pipe": 3286,
      "heric": 3287,
      "social": 3288,
      "gre": 3289,
      "argu": 3290,
      "vul": 3291,
      "channel": 3292,
      "crete": 3293,
      "software": 3294,
      "persist": 3295,
      "patterns": 3296,
      "simply": 3297,
      "cry": 3298,
      "minim": 3299,
      "dynamic": 3300,
      "collapse": 3301,
      "think": 3302,
      "program": 3303,
      "play": 3304,
      "bias": 3305,
      "sustain": 3306,
      "lead": 3307,
      "igin": 3308,
      "decoupl": 3309,
      "king": 3310,
      "anchor": 3311,
      "origin": 3312,
      "component": 3313,
      "designed": 3314,
      "iency": 3315,
      "iling": 3316,
      "higher": 3317,
      "filter": 3318,
      "isol": 3319,
      "disc": 3320,
      "erature": 3321,
      "uni": 3322,
      "understand": 3323,
      "gate": 3324,
      "docu": 3325,
      "results": 3326,
      "latent": 3327,
      "sis": 3328,
      "clust": 3329,
      "pric": 3330,
      "round": 3331,
      "budget": 3332,
      "explo": 3333,
      "ier": 3334,
      "stack": 3335,
      "made": 3336,
      "worth": 3337,
      "full": 3338,
      "public": 3339,
      "learning": 3340,
      "ond": 3341,
      "decl": 3342,
      "ately": 3343,
      "goal": 3344,
      "provide": 3345,
      "tran": 3346,
      "authors": 3347,
      "100": 3348,
      "inde": 3349,
      "nothing": 3350,
      "synthe": 3351,
      "fect": 3352,
      "gn": 3353,
      "instru": 3354,
      "ators": 3355,
      "perform": 3356,
      "asy": 3357,
      "racy": 3358,
      "core": 3359,
      "vest": 3360,
      "points": 3361,
      "detection": 3362,
      "implementation": 3363,
      "sat": 3364,
      "vs": 3365,
      "issu": 3366,
      "treating": 3367,
      "config": 3368,
      "nor": 3369,
      "works": 3370,
      "likely": 3371,
      "gor": 3372,
      "statistical": 3373,
      "ks": 3374,
      "v2": 3375,
      "priv": 3376,
      "general": 3377,
      "choice": 3378,
      "trying": 3379,
      "enge": 3380,
      "integration": 3381,
      "transp": 3382,
      "13": 3383,
      "detect": 3384,
      "city": 3385,
      "enance": 3386,
      "demand": 3387,
      "pipeline": 3388,
      "datas": 3389,
      "complexity": 3390,
      "challenge": 3391,
      "ler": 3392,
      "mess": 3393,
      "ones": 3394,
      "ings": 3395,
      "topo": 3396,
      "charact": 3397,
      "vendor": 3398,
      "link": 3399,
      "content": 3400,
      "body": 3401,
      "With": 3402,
      "lies": 3403,
      "pack": 3404,
      "taint": 3405,
      "exists": 3406,
      "meaning": 3407,
      "fit": 3408,
      "impact": 3409,
      "tren": 3410,
      "cogn": 3411,
      "vulner": 3412,
      "tribut": 3413,
      "efficient": 3414,
      "bridge": 3415,
      "ume": 3416,
      "xy": 3417,
      "ceed": 3418,
      "bea": 3419,
      "ury": 3420,
      "scaling": 3421,
      "period": 3422,
      "ik": 3423,
      "pul": 3424,
      "wall": 3425,
      "selection": 3426,
      "ropy": 3427,
      "release": 3428,
      "joint": 3429,
      "much": 3430,
      "such": 3431,
      "accu": 3432,
      "score": 3433,
      "mb": 3434,
      "ibr": 3435,
      "avail": 3436,
      "gorith": 3437,
      "depth": 3438,
      "operational": 3439,
      "certaint": 3440,
      "micro": 3441,
      "settlement": 3442,
      "once": 3443,
      "feature": 3444,
      "observed": 3445,
      "04": 3446,
      "guest": 3447,
      "push": 3448,
      "shape": 3449,
      "radi": 3450,
      "convergence": 3451,
      "2025": 3452,
      "decay": 3453,
      "analy": 3454,
      "wave": 3455,
      "raft": 3456,
      "ata": 3457,
      "domain": 3458,
      "traditional": 3459,
      "Mark": 3460,
      "select": 3461,
      "perfect": 3462,
      "requirement": 3463,
      "trigger": 3464,
      "drop": 3465,
      "mir": 3466,
      "recon": 3467,
      "another": 3468,
      "structured": 3469,
      "abilities": 3470,
      "digital": 3471,
      "accuracy": 3472,
      "oud": 3473,
      "uration": 3474,
      "agentic": 3475,
      "ric": 3476,
      "consum": 3477,
      "making": 3478,
      "had": 3479,
      "ption": 3480,
      "rig": 3481,
      "algorith": 3482,
      "book": 3483,
      "fal": 3484,
      "mig": 3485,
      "pot": 3486,
      "silent": 3487,
      "mapping": 3488,
      "une": 3489,
      "implic": 3490,
      "breaks": 3491,
      "allows": 3492,
      "probability": 3493,
      "gover": 3494,
      "rates": 3495,
      "aries": 3496,
      "appl": 3497,
      "law": 3498,
      "character": 3499,
      "wid": 3500,
      "ante": 3501,
      "stable": 3502,
      "alone": 3503,
      "advers": 3504,
      "dest": 3505,
      "verse": 3506,
      "fast": 3507,
      "false": 3508,
      "lif": 3509,
      "name": 3510,
      "confir": 3511,
      "user": 3512,
      "interpre": 3513,
      "monstr": 3514,
      "jud": 3515,
      "tial": 3516,
      "band": 3517,
      "spat": 3518,
      "RS": 3519,
      "bar": 3520,
      "math": 3521,
      "ledge": 3522,
      "simul": 3523,
      "aw": 3524,
      "pt": 3525,
      "theore": 3526,
      "compet": 3527,
      "traject": 3528,
      "guar": 3529,
      "relationship": 3530,
      "ply": 3531,
      "controll": 3532,
      "integrity": 3533,
      "constant": 3534,
      "adap": 3535,
      "ression": 3536,
      "capital": 3537,
      "growth": 3538,
      "margin": 3539,
      "distinguish": 3540,
      "consistent": 3541,
      "ratio": 3542,
      "composition": 3543,
      "Your": 3544,
      "lish": 3545,
      "special": 3546,
      "coordination": 3547,
      "entire": 3548,
      "evaluation": 3549,
      "catch": 3550,
      "hit": 3551,
      "sess": 3552,
      "invari": 3553,
      "ensure": 3554,
      "demonstr": 3555,
      "bypass": 3556,
      "platforms": 3557,
      "delta": 3558,
      "regul": 3559,
      "verifier": 3560,
      "necessary": 3561,
      "develop": 3562,
      "beacon": 3563,
      "ensus": 3564,
      "observation": 3565,
      "speed": 3566,
      "rid": 3567,
      "calc": 3568,
      "pho": 3569,
      "whole": 3570,
      "baseline": 3571,
      "evolution": 3572,
      "certainty": 3573,
      "total": 3574,
      "quality": 3575,
      "fficient": 3576,
      "document": 3577,
      "mirr": 3578,
      "guarante": 3579,
      "GP": 3580,
      "fall": 3581,
      "ilar": 3582,
      "agg": 3583,
      "AR": 3584,
      "ban": 3585,
      "init": 3586,
      "tokens": 3587,
      "dynamics": 3588,
      "ID": 3589,
      "mes": 3590,
      "root": 3591,
      "ties": 3592,
      "Watch": 3593,
      "indic": 3594,
      "draw": 3595,
      "invest": 3596,
      "entropy": 3597,
      "deleg": 3598,
      "llig": 3599,
      "manifest": 3600,
      "spatial": 3601,
      "calibr": 3602,
      "intellig": 3603,
      "heav": 3604,
      "wal": 3605,
      "ins": 3606,
      "vector": 3607,
      "forcing": 3608,
      "parameters": 3609,
      "hop": 3610,
      "ale": 3611,
      "RAM": 3612,
      "aut": 3613,
      "vant": 3614,
      "exact": 3615,
      "efficiency": 3616,
      "continuous": 3617,
      "deployment": 3618,
      "Se": 3619,
      "become": 3620,
      "region": 3621,
      "service": 3622,
      "IS": 3623,
      "pto": 3624,
      "iness": 3625,
      "gets": 3626,
      "atmospheric": 3627,
      "pose": 3628,
      "counter": 3629,
      "tracking": 3630,
      "Sp": 3631,
      "dict": 3632,
      "fut": 3633,
      "Do": 3634,
      "list": 3635,
      "rap": 3636,
      "ules": 3637,
      "indu": 3638,
      "divergence": 3639,
      "including": 3640,
      "fron": 3641,
      "expensive": 3642,
      "manifold": 3643,
      "categ": 3644,
      "vo": 3645,
      "web": 3646,
      "cycle": 3647,
      "expected": 3648,
      "Sy": 3649,
      "similar": 3650,
      "pricing": 3651,
      "ES": 3652,
      "dri": 3653,
      "convers": 3654,
      "neg": 3655,
      "coupling": 3656,
      "attestation": 3657,
      "date": 3658,
      "verifiable": 3659,
      "support": 3660,
      "02": 3661,
      "uine": 3662,
      "top": 3663,
      "concent": 3664,
      "produce": 3665,
      "cir": 3666,
      "itation": 3667,
      "rob": 3668,
      "signals": 3669,
      "avoid": 3670,
      "missing": 3671,
      "rup": 3672,
      "she": 3673,
      "option": 3674,
      "transform": 3675,
      "computational": 3676,
      "hol": 3677,
      "exam": 3678,
      "ival": 3679,
      "instrument": 3680,
      "gas": 3681,
      "proxy": 3682,
      "resh": 3683,
      "tier": 3684,
      "needed": 3685,
      "events": 3686,
      "visible": 3687,
      "carry": 3688,
      "At": 3689,
      "rand": 3690,
      "rec": 3691,
      "met": 3692,
      "server": 3693,
      "index": 3694,
      "indiv": 3695,
      "volume": 3696,
      "ners": 3697,
      "around": 3698,
      "ifically": 3699,
      "igate": 3700,
      "genuine": 3701,
      "variable": 3702,
      "forecast": 3703,
      "labe": 3704,
      "directly": 3705,
      "connect": 3706,
      "vulnerability": 3707,
      "sched": 3708,
      "alth": 3709,
      "Tr": 3710,
      "either": 3711,
      "plac": 3712,
      "position": 3713,
      "agreement": 3714,
      "mi": 3715,
      "mut": 3716,
      "mask": 3717,
      "sufficient": 3718,
      "depends": 3719,
      "US": 3720,
      "cust": 3721,
      "instruction": 3722,
      "asset": 3723,
      "igno": 3724,
      "treats": 3725,
      "histor": 3726,
      "reve": 3727,
      "atic": 3728,
      "ifies": 3729,
      "tun": 3730,
      "ceiling": 3731,
      "illion": 3732,
      "preser": 3733,
      "temperature": 3734,
      "attention": 3735,
      "requirements": 3736,
      "range": 3737,
      "One": 3738,
      "dro": 3739,
      "hal": 3740,
      "ables": 3741,
      "board": 3742,
      "datab": 3743,
      "velocity": 3744,
      "xury": 3745,
      "abor": 3746,
      "These": 3747,
      "50": 3748,
      "ek": 3749,
      "eous": 3750,
      "profile": 3751,
      "history": 3752,
      "individual": 3753,
      "says": 3754,
      "errors": 3755,
      "?\"": 3756,
      "New": 3757,
      "ON": 3758,
      "ery": 3759,
      "deep": 3760,
      "checks": 3761,
      "developer": 3762,
      "separate": 3763,
      "pp": 3764,
      "past": 3765,
      "patch": 3766,
      "super": 3767,
      "testing": 3768,
      "runs": 3769,
      "short": 3770,
      "poss": 3771,
      "scales": 3772,
      "defined": 3773,
      "ever": 3774,
      "tension": 3775,
      "moved": 3776,
      "migration": 3777,
      "pure": 3778,
      "interest": 3779,
      "validate": 3780,
      "introduces": 3781,
      "Colony": 3782,
      "oph": 3783,
      "ries": 3784,
      "features": 3785,
      "pair": 3786,
      "useful": 3787,
      "measured": 3788,
      "execut": 3789,
      "narrow": 3790,
      "intelligence": 3791,
      "yond": 3792,
      "gradi": 3793,
      "provenance": 3794,
      "safe": 3795,
      "direction": 3796,
      "relies": 3797,
      "gradient": 3798,
      "31": 3799,
      "atural": 3800,
      "stic": 3801,
      "assets": 3802,
      "near": 3803,
      "proves": 3804,
      "distinct": 3805,
      "autonom": 3806,
      "tation": 3807,
      "invit": 3808,
      "orb": 3809,
      "take": 3810,
      "late": 3811,
      "lower": 3812,
      "contain": 3813,
      "interface": 3814,
      "topology": 3815,
      "lag": 3816,
      "susp": 3817,
      "assumes": 3818,
      "crypto": 3819,
      "ased": 3820,
      "curs": 3821,
      "consistency": 3822,
      "consensus": 3823,
      "gain": 3824,
      "chron": 3825,
      "rable": 3826,
      "request": 3827,
      "group": 3828,
      "fully": 3829,
      "broad": 3830,
      "90": 3831,
      "lines": 3832,
      "leak": 3833,
      "transfer": 3834,
      "costs": 3835,
      "ker": 3836,
      "size": 3837,
      "years": 3838,
      "ER": 3839,
      "ire": 3840,
      "nu": 3841,
      "close": 3842,
      "abstra": 3843,
      "fault": 3844,
      "smoo": 3845,
      "future": 3846,
      "AT": 3847,
      "Au": 3848,
      "common": 3849,
      "cycl": 3850,
      "surve": 3851,
      "coherence": 3852,
      "cat": 3853,
      "mor": 3854,
      "regist": 3855,
      "limits": 3856,
      "hallucin": 3857,
      "Without": 3858,
      "Po": 3859,
      "imate": 3860,
      "AS": 3861,
      "ns": 3862,
      "reads": 3863,
      "constrained": 3864,
      "times": 3865,
      "stor": 3866,
      "residual": 3867,
      "happens": 3868,
      "VP": 3869,
      "natural": 3870,
      "era": 3871,
      "forced": 3872,
      "applic": 3873,
      "And": 3874,
      "reduction": 3875,
      "eco": 3876,
      "lands": 3877,
      "hid": 3878,
      "chestr": 3879,
      "###": 3880,
      "Comp": 3881,
      "initial": 3882,
      "reward": 3883,
      "good": 3884,
      "particip": 3885,
      "VRAM": 3886,
      "say": 3887,
      "ening": 3888,
      "flag": 3889,
      "dependent": 3890,
      "measuring": 3891,
      "ET": 3892,
      "Sh": 3893,
      "portun": 3894,
      "database": 3895,
      "bus": 3896,
      "claims": 3897,
      "robust": 3898,
      "Ar": 3899,
      "share": 3900,
      "central": 3901,
      "green": 3902,
      "mid": 3903,
      "bot": 3904,
      "vious": 3905,
      "derived": 3906,
      "Tra": 3907,
      "uncertainty": 3908,
      "looks": 3909,
      "random": 3910,
      "ience": 3911,
      "average": 3912,
      "delegation": 3913,
      "usu": 3914,
      "compil": 3915,
      "cheap": 3916,
      "reader": 3917,
      "disjoint": 3918,
      "correction": 3919,
      "organ": 3920,
      "ike": 3921,
      "kit": 3922,
      "lex": 3923,
      "appe": 3924,
      "scri": 3925,
      "balance": 3926,
      "entirely": 3927,
      "define": 3928,
      "applied": 3929,
      "four": 3930,
      "ived": 3931,
      "distance": 3932,
      "dependency": 3933,
      "difference": 3934,
      "distributed": 3935,
      "holds": 3936,
      "itude": 3937,
      "Market": 3938,
      "specialized": 3939,
      "ited": 3940,
      "herent": 3941,
      "shar": 3942,
      "many": 3943,
      "communic": 3944,
      "ze": 3945,
      "acc": 3946,
      "knowledge": 3947,
      "inputs": 3948,
      "returns": 3949,
      "\":": 3950,
      "site": 3951,
      "inherent": 3952,
      "maps": 3953,
      "www": 3954,
      "RL": 3955,
      "conver": 3956,
      "ifier": 3957,
      "always": 3958,
      "exceed": 3959,
      "matters": 3960,
      "turns": 3961,
      "KV": 3962,
      "mentally": 3963,
      "etary": 3964,
      "framing": 3965,
      "relative": 3966,
      "ogen": 3967,
      "ina": 3968,
      "prop": 3969,
      "ull": 3970,
      "domin": 3971,
      "2024": 3972,
      "states": 3973,
      "orchestr": 3974,
      "weak": 3975,
      "sho": 3976,
      "managing": 3977,
      "cape": 3978,
      "ken": 3979,
      "amb": 3980,
      "allor": 3981,
      "differen": 3982,
      "ports": 3983,
      "geometry": 3984,
      "aus": 3985,
      "mer": 3986,
      "thermal": 3987,
      "specifically": 3988,
      "Mallor": 3989,
      "OS": 3990,
      "sw": 3991,
      "pha": 3992,
      "transient": 3993,
      "mist": 3994,
      "ird": 3995,
      "diag": 3996,
      "identify": 3997,
      "theoretical": 3998,
      "heavy": 3999,
      "Al": 4000,
      "Code": 4001,
      "23": 4002,
      "iet": 4003,
      "arding": 4004,
      "until": 4005,
      "skill": 4006,
      "ave": 4007,
      "beyond": 4008,
      "resource": 4009,
      "clear": 4010,
      "emerg": 4011,
      "injection": 4012,
      "decoupling": 4013,
      "calcul": 4014,
      "ey": 4015,
      "rief": 4016,
      "clock": 4017,
      "van": 4018,
      "seen": 4019,
      "maxim": 4020,
      "word": 4021,
      "allowed": 4022,
      "monitoring": 4023,
      "consumer": 4024,
      "craft": 4025,
      "istics": 4026,
      "outside": 4027,
      "overhead": 4028,
      "expans": 4029,
      "sensit": 4030,
      "workflows": 4031,
      "original": 4032,
      "Lo": 4033,
      "ably": 4034,
      "substr": 4035,
      "fundamentally": 4036,
      "describing": 4037,
      "conversation": 4038,
      "Le": 4039,
      "cies": 4040,
      "stamp": 4041,
      "ison": 4042,
      "worded": 4043,
      "factor": 4044,
      "mirror": 4045,
      "Mallorca": 4046,
      "ech": 4047,
      "strict": 4048,
      "resolve": 4049,
      "automated": 4050,
      "suspended": 4051,
      "reference": 4052,
      "entry": 4053,
      "increase": 4054,
      "tasks": 4055,
      "mediate": 4056,
      "Go": 4057,
      "sound": 4058,
      "tle": 4059,
      "yet": 4060,
      "req": 4061,
      "reed": 4062,
      "emb": 4063,
      "predictable": 4064,
      "transport": 4065,
      "trajectory": 4066,
      "pus": 4067,
      "tes": 4068,
      "inside": 4069,
      "etic": 4070,
      "coverage": 4071,
      "hallucination": 4072,
      "kitun": 4073,
      "fine": 4074,
      "sn": 4075,
      "ub": 4076,
      "files": 4077,
      "careless": 4078,
      "dimensional": 4079,
      "potential": 4080,
      "elect": 4081,
      "stops": 4082,
      "prediction": 4083,
      "host": 4084,
      "someone": 4085,
      "practical": 4086,
      "hel": 4087,
      "accept": 4088,
      "trace": 4089,
      "payload": 4090,
      "conditions": 4091,
      "Bo": 4092,
      "aff": 4093,
      "last": 4094,
      "arbit": 4095,
      "degra": 4096,
      "expl": 4097,
      "asser": 4098,
      "confidence": 4099,
      "increasing": 4100,
      "kind": 4101,
      "held": 4102,
      "subst": 4103,
      "multiple": 4104,
      "mbol": 4105,
      "viol": 4106,
      "metrics": 4107,
      "couples": 4108,
      "strategy": 4109,
      "ierarch": 4110,
      "CP": 4111,
      "ai": 4112,
      "tested": 4113,
      "black": 4114,
      "graphic": 4115,
      "coordin": 4116,
      "magn": 4117,
      "historical": 4118,
      "*.": 4119,
      "Be": 4120,
      "fresh": 4121,
      "lives": 4122,
      "onto": 4123,
      "ilib": 4124,
      "imin": 4125,
      "cloud": 4126,
      "ders": 4127,
      "mechanical": 4128,
      "absence": 4129,
      "blind": 4130,
      "architectural": 4131,
      "methods": 4132,
      "ilibri": 4133,
      "commitment": 4134,
      "authority": 4135,
      "precisely": 4136,
      "negative": 4137,
      "Gu": 4138,
      "cut": 4139,
      "gal": 4140,
      "pur": 4141,
      "ica": 4142,
      "heur": 4143,
      "sensitivity": 4144,
      "substrate": 4145,
      "bad": 4146,
      "wo": 4147,
      "anger": 4148,
      "detail": 4149,
      "modes": 4150,
      "implies": 4151,
      "incident": 4152,
      "EE": 4153,
      "game": 4154,
      "wise": 4155,
      "enforce": 4156,
      "rain": 4157,
      "solar": 4158,
      "resulting": 4159,
      "economic": 4160,
      "kernel": 4161,
      "ilibrium": 4162,
      "ML": 4163,
      "Rese": 4164,
      "ping": 4165,
      "ctu": 4166,
      "strong": 4167,
      "ually": 4168,
      "optimal": 4169,
      "simulation": 4170,
      "expansion": 4171,
      "Research": 4172,
      "CV": 4173,
      "py": 4174,
      "ories": 4175,
      "alpha": 4176,
      "rout": 4177,
      "moder": 4178,
      "construction": 4179,
      "percent": 4180,
      "observations": 4181,
      "effects": 4182,
      "objective": 4183,
      "binary": 4184,
      "didn": 4185,
      "credit": 4186,
      "aggreg": 4187,
      "usually": 4188,
      "propag": 4189,
      "arr": 4190,
      "liability": 4191,
      "translation": 4192,
      "flight": 4193,
      "collapses": 4194,
      "credential": 4195,
      "available": 4196,
      "nology": 4197,
      "spectral": 4198,
      "venue": 4199,
      "RSVP": 4200,
      "custom": 4201,
      "theory": 4202,
      "ablish": 4203,
      "location": 4204,
      "month": 4205,
      "colum": 4206,
      "bon": 4207,
      "stays": 4208,
      "exper": 4209,
      "driver": 4210,
      "iter": 4211,
      "corpor": 4212,
      "discus": 4213,
      "synchron": 4214,
      "satis": 4215,
      "cli": 4216,
      "gg": 4217,
      "conve": 4218,
      "delity": 4219,
      "trap": 4220,
      "trading": 4221,
      "ends": 4222,
      "Inte": 4223,
      "frameworks": 4224,
      "burden": 4225,
      "normal": 4226,
      "invariant": 4227,
      "ipl": 4228,
      "pick": 4229,
      "atter": 4230,
      "resid": 4231,
      "split": 4232,
      "00Z": 4233,
      "increases": 4234,
      "cluster": 4235,
      "rules": 4236,
      "sty": 4237,
      "corpus": 4238,
      "establish": 4239,
      "miss": 4240,
      "equilibrium": 4241,
      "predictive": 4242,
      "types": 4243,
      "correlated": 4244,
      "turbul": 4245,
      "session": 4246,
      "guarantee": 4247,
      "schedul": 4248,
      "hour": 4249,
      "hierarch": 4250,
      "pin": 4251,
      "watch": 4252,
      "ences": 4253,
      "iting": 4254,
      "leav": 4255,
      "compar": 4256,
      "anyone": 4257,
      "label": 4258,
      "RE": 4259,
      "fort": 4260,
      "examp": 4261,
      "improve": 4262,
      "discrete": 4263,
      "solved": 4264,
      "properties": 4265,
      "sample": 4266,
      "..": 4267,
      "fals": 4268,
      "recent": 4269,
      "encies": 4270,
      "erial": 4271,
      "fidelity": 4272,
      "subject": 4273,
      "flux": 4274,
      "fluctu": 4275,
      "addresses": 4276,
      "development": 4277,
      ":**": 4278,
      "Plan": 4279,
      "emission": 4280,
      "mus": 4281,
      "nav": 4282,
      "seed": 4283,
      "versal": 4284,
      "functions": 4285,
      "seeing": 4286,
      "supply": 4287,
      "mitted": 4288,
      "jump": 4289,
      "photo": 4290,
      "brief": 4291,
      "yi": 4292,
      "ouple": 4293,
      "tele": 4294,
      "deli": 4295,
      "pop": 4296,
      "collection": 4297,
      "relevant": 4298,
      "artic": 4299,
      "lie": 4300,
      "traction": 4301,
      "calibration": 4302,
      "mium": 4303,
      "Two": 4304,
      "ske": 4305,
      "week": 4306,
      "000": 4307,
      "portfol": 4308,
      "correctness": 4309,
      "appear": 4310,
      "CO": 4311,
      "IN": 4312,
      "nature": 4313,
      "sit": 4314,
      "win": 4315,
      "alle": 4316,
      "serve": 4317,
      "weddings": 4318,
      "processing": 4319,
      "outputs": 4320,
      "luxury": 4321,
      "category": 4322,
      "22": 4323,
      "tight": 4324,
      "third": 4325,
      "provided": 4326,
      "ledger": 4327,
      "published": 4328,
      "width": 4329,
      "\",": 4330,
      "sent": 4331,
      "ending": 4332,
      "ances": 4333,
      "seat": 4334,
      "fam": 4335,
      "structures": 4336,
      "shifting": 4337,
      "govern": 4338,
      "01": 4339,
      "Me": 4340,
      "Ver": 4341,
      "stell": 4342,
      "update": 4343,
      "tests": 4344,
      "abilistic": 4345,
      "*,": 4346,
      "eps": 4347,
      "recovery": 4348,
      "timestamp": 4349,
      "predic": 4350,
      "currently": 4351,
      "matching": 4352,
      "bers": 4353,
      "cases": 4354,
      "job": 4355,
      "mary": 4356,
      "slow": 4357,
      "reject": 4358,
      "ancy": 4359,
      "deb": 4360,
      "create": 4361,
      "finan": 4362,
      "transitions": 4363,
      "representation": 4364,
      "certain": 4365,
      "Cl": 4366,
      "fro": 4367,
      "tom": 4368,
      "wered": 4369,
      "accoun": 4370,
      "iving": 4371,
      "previous": 4372,
      "ffer": 4373,
      "behavioral": 4374,
      "dataset": 4375,
      "destination": 4376,
      "May": 4377,
      "Op": 4378,
      "aa": 4379,
      "cell": 4380,
      "endpoint": 4381,
      "dates": 4382,
      "extre": 4383,
      "reliable": 4384,
      "Model": 4385,
      "happen": 4386,
      "alignment": 4387,
      "He": 4388,
      "dle": 4389,
      "rier": 4390,
      "probabilistic": 4391,
      "limited": 4392,
      "attempt": 4393,
      "Q4": 4394,
      "stale": 4395,
      "devi": 4396,
      "adjust": 4397,
      "feren": 4398,
      "generate": 4399,
      "21": 4400,
      "replace": 4401,
      "expo": 4402,
      "urther": 4403,
      "discovery": 4404,
      "failed": 4405,
      "services": 4406,
      "generated": 4407,
      "localized": 4408,
      "processes": 4409,
      "architectures": 4410,
      "assume": 4411,
      "axis": 4412,
      "communication": 4413,
      "Every": 4414,
      "Is": 4415,
      "June": 4416,
      "ath": 4417,
      "bor": 4418,
      "five": 4419,
      "kill": 4420,
      "ons": 4421,
      "node": 4422,
      "symbol": 4423,
      "boundaries": 4424,
      "closure": 4425,
      "ception": 4426,
      "committed": 4427,
      "broken": 4428,
      "storage": 4429,
      "77": 4430,
      "spread": 4431,
      "spike": 4432,
      "clusion": 4433,
      "identified": 4434,
      "becoming": 4435,
      "planners": 4436,
      "numer": 4437,
      "binding": 4438,
      "configuration": 4439,
      "faster": 4440,
      "ather": 4441,
      "touch": 4442,
      "ray": 4443,
      "iveness": 4444,
      "derivation": 4445,
      "allel": 4446,
      "cr": 4447,
      "dies": 4448,
      "ctive": 4449,
      "coding": 4450,
      "selves": 4451,
      "timing": 4452,
      "practice": 4453,
      "synthetic": 4454,
      "adversary": 4455,
      "capabilities": 4456,
      "payment": 4457,
      "faces": 4458,
      "usal": 4459,
      "compress": 4460,
      "layers": 4461,
      "whose": 4462,
      "netic": 4463,
      "definition": 4464,
      "99": 4465,
      "sand": 4466,
      "ret": 4467,
      "attribut": 4468,
      "dead": 4469,
      "concept": 4470,
      "accep": 4471,
      "few": 4472,
      "failures": 4473,
      "integrated": 4474,
      "lingu": 4475,
      "lukitun": 4476,
      "connection": 4477,
      "cycles": 4478,
      "orchestration": 4479,
      "client": 4480,
      "labor": 4481,
      "series": 4482,
      "achi": 4483,
      "reliability": 4484,
      "carries": 4485,
      "understanding": 4486,
      "35": 4487,
      "roll": 4488,
      "suite": 4489,
      "acts": 4490,
      "putation": 4491,
      "implication": 4492,
      "half": 4493,
      "AN": 4494,
      "Air": 4495,
      "Fin": 4496,
      "Sol": 4497,
      "na": 4498,
      "sid": 4499,
      "itution": 4500,
      "confl": 4501,
      "manual": 4502,
      "regard": 4503,
      "finite": 4504,
      "written": 4505,
      "larger": 4506,
      "sensor": 4507,
      "private": 4508,
      "regulatory": 4509,
      "telemetry": 4510,
      "hor": 4511,
      "compro": 4512,
      "systematic": 4513,
      "umb": 4514,
      "secondary": 4515,
      "Eng": 4516,
      "modern": 4517,
      "aneous": 4518,
      "stress": 4519,
      "mot": 4520,
      "adata": 4521,
      "doing": 4522,
      "tics": 4523,
      "akes": 4524,
      "ength": 4525,
      "environments": 4526,
      "coherent": 4527,
      "cognitive": 4528,
      "adapt": 4529,
      "JS": 4530,
      "water": 4531,
      "prote": 4532,
      "bearing": 4533,
      "standing": 4534,
      "status": 4535,
      "receipts": 4536,
      "aircraft": 4537,
      "autonomous": 4538,
      "K_": 4539,
      "lens": 4540,
      "neural": 4541,
      "princ": 4542,
      "material": 4543,
      "final": 4544,
      "flows": 4545,
      "sampling": 4546,
      "attempts": 4547,
      "issue": 4548,
      "metadata": 4549,
      "hidden": 4550,
      "null": 4551,
      "vac": 4552,
      "inspect": 4553,
      "motion": 4554,
      "uli": 4555,
      "parallel": 4556,
      "else": 4557,
      "satisf": 4558,
      "regardless": 4559,
      "Bec": 4560,
      "bid": 4561,
      "though": 4562,
      "room": 4563,
      "assist": 4564,
      "optimizing": 4565,
      "quantized": 4566,
      "calls": 4567,
      "Because": 4568,
      "ered": 4569,
      "ost": 4570,
      "invol": 4571,
      "default": 4572,
      "coefficient": 4573,
      "below": 4574,
      "imes": 4575,
      "regarding": 4576,
      "press": 4577,
      "scen": 4578,
      "Q4_": 4579,
      "Ad": 4580,
      "Lu": 4581,
      "hind": 4582,
      "influ": 4583,
      "feel": 4584,
      "treated": 4585,
      "everything": 4586,
      "themselves": 4587,
      "achiev": 4588,
      "K_M": 4589,
      "Q4_K_M": 4590,
      "forward": 4591,
      "quiet": 4592,
      "import": 4593,
      "guard": 4594,
      "submitted": 4595,
      "produces": 4596,
      "bounded": 4597,
      "optimize": 4598,
      "3090": 4599,
      "zen": 4600,
      "}$": 4601,
      "arial": 4602,
      "least": 4603,
      "bytes": 4604,
      "rix": 4605,
      "named": 4606,
      "fluid": 4607,
      "algorithm": 4608,
      "stellar": 4609,
      "Ben": 4610,
      "cad": 4611,
      "voc": 4612,
      "orm": 4613,
      "shot": 4614,
      "compression": 4615,
      "absorb": 4616,
      "distributions": 4617,
      "induced": 4618,
      "ade": 4619,
      "far": 4620,
      "sip": 4621,
      "along": 4622,
      "nobody": 4623,
      "ount": 4624,
      "assess": 4625,
      "decid": 4626,
      "produced": 4627,
      "operating": 4628,
      "vention": 4629,
      "fields": 4630,
      "respond": 4631,
      "introduce": 4632,
      "magnitude": 4633,
      "95": 4634,
      "dark": 4635,
      "hib": 4636,
      "soph": 4637,
      "urable": 4638,
      "ori": 4639,
      "today": 4640,
      "ild": 4641,
      "unding": 4642,
      "actic": 4643,
      "string": 4644,
      "mismatch": 4645,
      "things": 4646,
      "trained": 4647,
      "ularity": 4648,
      "ensem": 4649,
      "vacu": 4650,
      "sophistic": 4651,
      "fill": 4652,
      "mise": 4653,
      "reat": 4654,
      "behind": 4655,
      "notes": 4656,
      "neut": 4657,
      "transaction": 4658,
      "syntax": 4659,
      "argument": 4660,
      "message": 4661,
      "27": 4662,
      "TC": 4663,
      "incent": 4664,
      "left": 4665,
      "cean": 4666,
      "igation": 4667,
      "libr": 4668,
      "presence": 4669,
      "scores": 4670,
      "ogle": 4671,
      "asym": 4672,
      "abstraction": 4673,
      "application": 4674,
      "40": 4675,
      "inform": 4676,
      "best": 4677,
      "agement": 4678,
      "news": 4679,
      "penal": 4680,
      "attacker": 4681,
      "empir": 4682,
      "declared": 4683,
      "column": 4684,
      "26": 4685,
      "ED": 4686,
      "ince": 4687,
      "reports": 4688,
      "lost": 4689,
      "unit": 4690,
      "comes": 4691,
      "generator": 4692,
      "handles": 4693,
      "trusted": 4694,
      "spective": 4695,
      "judgment": 4696,
      "48": 4697,
      "Did": 4698,
      "Prec": 4699,
      "ufact": 4700,
      "wide": 4701,
      "station": 4702,
      "peak": 4703,
      "writing": 4704,
      "survives": 4705,
      "datasets": 4706,
      "package": 4707,
      "Does": 4708,
      "expert": 4709,
      "hits": 4710,
      "ove": 4711,
      "icious": 4712,
      "fork": 4713,
      "manag": 4714,
      "posit": 4715,
      "visual": 4716,
      "records": 4717,
      "waste": 4718,
      "rapid": 4719,
      "extreme": 4720,
      "Wor": 4721,
      "retry": 4722,
      "reputation": 4723,
      "rot": 4724,
      "compared": 4725,
      "climate": 4726,
      "antic": 4727,
      "divers": 4728,
      "flat": 4729,
      "community": 4730,
      "diagno": 4731,
      "contribut": 4732,
      "iza": 4733,
      "highly": 4734,
      "checking": 4735,
      "Until": 4736,
      "proposal": 4737,
      "solutions": 4738,
      "approximately": 4739,
      "rigid": 4740,
      "portfolio": 4741,
      "exposure": 4742,
      "Fe": 4743,
      "Not": 4744,
      "SS": 4745,
      "gam": 4746,
      "hed": 4747,
      "odo": 4748,
      "spend": 4749,
      "activity": 4750,
      "working": 4751,
      "matrix": 4752,
      "flaw": 4753,
      "relying": 4754,
      "artifacts": 4755,
      "simulations": 4756,
      "residue": 4757,
      "Dig": 4758,
      "FT": 4759,
      "From": 4760,
      "replac": 4761,
      "stay": 4762,
      "chat": 4763,
      "keeps": 4764,
      "interval": 4765,
      "dissip": 4766,
      "foot": 4767,
      "names": 4768,
      "refine": 4769,
      "reduce": 4770,
      "benchmarks": 4771,
      "linguistic": 4772,
      "AL": 4773,
      "identifies": 4774,
      "variables": 4775,
      "survey": 4776,
      "example": 4777,
      "gers": 4778,
      "envelo": 4779,
      "lip": 4780,
      "manufact": 4781,
      "comb": 4782,
      "asking": 4783,
      "scope": 4784,
      "bank": 4785,
      "29": 4786,
      "role": 4787,
      "concrete": 4788,
      "query": 4789,
      "terms": 4790,
      "combin": 4791,
      "frag": 4792,
      "witch": 4793,
      "minimum": 4794,
      "trends": 4795,
      "Trans": 4796,
      "explain": 4797,
      "musica": 4798,
      "SN": 4799,
      "cure": 4800,
      "celer": 4801,
      "travel": 4802,
      "premium": 4803,
      "updates": 4804,
      "structurally": 4805,
      "primitive": 4806,
      "vendors": 4807,
      "sustainable": 4808,
      "trend": 4809,
      "GPU": 4810,
      "exceeds": 4811,
      "My": 4812,
      "mac": 4813,
      "prog": 4814,
      "tied": 4815,
      "passed": 4816,
      "diffic": 4817,
      "numerical": 4818,
      "Ju": 4819,
      "format": 4820,
      "positive": 4821,
      "sensitive": 4822,
      "answers": 4823,
      "front": 4824,
      "circ": 4825,
      "PC": 4826,
      "ired": 4827,
      "scan": 4828,
      "cos": 4829,
      "proced": 4830,
      "ople": 4831,
      "preference": 4832,
      "collect": 4833,
      "emit": 4834,
      "RAG": 4835,
      "particular": 4836,
      "experience": 4837,
      "approximation": 4838,
      "components": 4839,
      "discipl": 4840,
      "vacuum": 4841,
      "Digital": 4842,
      "dual": 4843,
      "ton": 4844,
      "tual": 4845,
      "nodes": 4846,
      "matic": 4847,
      "guess": 4848,
      "mistake": 4849,
      "EN": 4850,
      "Key": 4851,
      "NO": 4852,
      "Net": 4853,
      "sl": 4854,
      "attract": 4855,
      "nov": 4856,
      "unch": 4857,
      "Which": 4858,
      "astro": 4859,
      "providing": 4860,
      "description": 4861,
      "harness": 4862,
      "financial": 4863,
      "scenari": 4864,
      "CM": 4865,
      "GB": 4866,
      "Tech": 4867,
      "rative": 4868,
      "meter": 4869,
      "exchange": 4870,
      "perturb": 4871,
      "curve": 4872,
      "fragment": 4873,
      "checked": 4874,
      "measurable": 4875,
      "perfectly": 4876,
      "genuinely": 4877,
      "shock": 4878,
      "aware": 4879,
      "slo": 4880,
      "iner": 4881,
      "There": 4882,
      "boot": 4883,
      "early": 4884,
      "reflect": 4885,
      "sharp": 4886,
      "sophisticated": 4887,
      "Bu": 4888,
      "ior": 4889,
      "vin": 4890,
      "infl": 4891,
      "ann": 4892,
      "valu": 4893,
      "checkpoint": 4894,
      "rigor": 4895,
      "concentration": 4896,
      "tuning": 4897,
      "DM": 4898,
      "sources": 4899,
      "contest": 4900,
      "verdict": 4901,
      "shad": 4902,
      "corrup": 4903,
      "fraction": 4904,
      "computation": 4905,
      "networks": 4906,
      "reached": 4907,
      "assumptions": 4908,
      "ignores": 4909,
      "dra": 4910,
      "hedge": 4911,
      "mix": 4912,
      "uro": 4913,
      "enter": 4914,
      "ands": 4915,
      "accur": 4916,
      "team": 4917,
      "tells": 4918,
      "sustainability": 4919,
      "confirm": 4920,
      "compiler": 4921,
      "Integr": 4922,
      "Mi": 4923,
      "gl": 4924,
      "meet": 4925,
      "spent": 4926,
      "basin": 4927,
      "later": 4928,
      "existence": 4929,
      "technology": 4930,
      "digest": 4931,
      "proposed": 4932,
      "frozen": 4933,
      "ensemble": 4934,
      "empirical": 4935,
      "macro": 4936,
      "Open": 4937,
      "jor": 4938,
      "archive": 4939,
      "buy": 4940,
      "continuity": 4941,
      "explicitly": 4942,
      "CVE": 4943,
      "98": 4944,
      "Qu": 4945,
      "switch": 4946,
      "ently": 4947,
      "intended": 4948,
      "perman": 4949,
      "outcome": 4950,
      "liance": 4951,
      "values": 4952,
      "specification": 4953,
      "throughput": 4954,
      "loads": 4955,
      "----": 4956,
      "Cont": 4957,
      "magnetic": 4958,
      "lacks": 4959,
      "automation": 4960,
      "ogenous": 4961,
      "LI": 4962,
      "dust": 4963,
      "sense": 4964,
      "remo": 4965,
      "adding": 4966,
      "oney": 4967,
      "partial": 4968,
      "ismic": 4969,
      "summary": 4970,
      "partition": 4971,
      "methodo": 4972,
      "derivable": 4973,
      "independently": 4974,
      "2606": 4975,
      "typically": 4976,
      "Ear": 4977,
      "ocean": 4978,
      "rum": 4979,
      "wealth": 4980,
      "mechanics": 4981,
      "functional": 4982,
      "markets": 4983,
      "reveals": 4984,
      "accum": 4985,
      "snap": 4986,
      "Res": 4987,
      "_needed": 4988,
      "``": 4989,
      "eper": 4990,
      "expos": 4991,
      "spot": 4992,
      "plumb": 4993,
      "strugg": 4994,
      "changed": 4995,
      "gran": 4996,
      "background": 4997,
      "human_needed": 4998,
      "institution": 4999,
      "business": 5000,
      "population": 5001,
      "plumbing": 5002,
      "230": 5003,
      "Cur": 5004,
      "Even": 5005,
      "cand": 5006,
      "ele": 5007,
      "begin": 5008,
      "construct": 5009,
      "intensity": 5010,
      "reser": 5011,
      "prevents": 5012,
      "universal": 5013,
      "heuristic": 5014,
      "exogenous": 5015,
      "decouple": 5016,
      "scalar": 5017,
      "paths": 5018,
      "grammar": 5019,
      "soft": 5020,
      "28": 5021,
      "EC": 5022,
      "Ne": 5023,
      "bul": 5024,
      "won": 5025,
      "recogn": 5026,
      "ener": 5027,
      "ises": 5028,
      "igu": 5029,
      "major": 5030,
      "parad": 5031,
      "proving": 5032,
      "risks": 5033,
      "elimin": 5034,
      "legal": 5035,
      "learned": 5036,
      "adversarial": 5037,
      "interpret": 5038,
      "System": 5039,
      "smooth": 5040,
      "portunity": 5041,
      "sandbox": 5042,
      "envelope": 5043,
      "Mul": 5044,
      "PO": 5045,
      "Py": 5046,
      "billion": 5047,
      "inher": 5048,
      "stage": 5049,
      "prices": 5050,
      "gue": 5051,
      "proved": 5052,
      "effective": 5053,
      "windows": 5054,
      "warning": 5055,
      "landscape": 5056,
      "crash": 5057,
      "].": 5058,
      "onic": 5059,
      "immediate": 5060,
      "logs": 5061,
      "buffer": 5062,
      "checkable": 5063,
      "measures": 5064,
      "provider": 5065,
      "describe": 5066,
      "carbon": 5067,
      "reported": 5068,
      "smaller": 5069,
      "availability": 5070,
      "thesis": 5071,
      "sever": 5072,
      "propose": 5073,
      "mention": 5074,
      "perspective": 5075,
      "operation": 5076,
      "anchors": 5077,
      "significantly": 5078,
      "reveal": 5079,
      "fluctuations": 5080,
      "Precise": 5081,
      "Ob": 5082,
      "hou": 5083,
      "erc": 5084,
      "anti": 5085,
      "izer": 5086,
      "comment": 5087,
      "malicious": 5088,
      "hybrid": 5089,
      "separation": 5090,
      "itative": 5091,
      "200": 5092,
      "transmission": 5093,
      "drive": 5094,
      "commend": 5095,
      "firm": 5096,
      "decoupled": 5097,
      "controller": 5098,
      "drops": 5099,
      "possible": 5100,
      "invitation": 5101,
      ".,": 5102,
      "Com": 5103,
      "`,": 5104,
      "cation": 5105,
      "debug": 5106,
      "secre": 5107,
      "above": 5108,
      "regular": 5109,
      "2023": 5110,
      "bounds": 5111,
      "maintaining": 5112,
      "challeng": 5113,
      "News": 5114,
      "July": 5115,
      "shadow": 5116,
      "37": 5117,
      "IC": 5118,
      "danger": 5119,
      "further": 5120,
      "kin": 5121,
      "ov": 5122,
      "pan": 5123,
      "eta": 5124,
      "people": 5125,
      "warm": 5126,
      "silently": 5127,
      "footprint": 5128,
      "80": 5129,
      "IT": 5130,
      "cas": 5131,
      "lights": 5132,
      "oss": 5133,
      "race": 5134,
      "iform": 5135,
      "sures": 5136,
      "delay": 5137,
      "validator": 5138,
      "said": 5139,
      "elines": 5140,
      "targets": 5141,
      "harder": 5142,
      "synthesis": 5143,
      "governance": 5144,
      "Precisely": 5145,
      "AC": 5146,
      "Same": 5147,
      "concer": 5148,
      "dependence": 5149,
      "identical": 5150,
      "thentic": 5151,
      "ultaneous": 5152,
      "isolation": 5153,
      "family": 5154,
      "Sust": 5155,
      "tree": 5156,
      "arily": 5157,
      "plus": 5158,
      "due": 5159,
      "basis": 5160,
      "completion": 5161,
      "summar": 5162,
      "showed": 5163,
      "correctly": 5164,
      "orders": 5165,
      "estimate": 5166,
      "comparison": 5167,
      "library": 5168,
      "Sustain": 5169,
      "arse": 5170,
      "entity": 5171,
      "ils": 5172,
      "ram": 5173,
      "trip": 5174,
      "pool": 5175,
      "reng": 5176,
      "hole": 5177,
      "pipelines": 5178,
      "barrier": 5179,
      "wallet": 5180,
      "yield": 5181,
      "skew": 5182,
      "mim": 5183,
      "vision": 5184,
      "acceler": 5185,
      "riend": 5186,
      "commod": 5187,
      "ghost": 5188,
      "pace": 5189,
      "colony": 5190,
      "include": 5191,
      "ieve": 5192,
      "exploit": 5193,
      "mutable": 5194,
      "turbulence": 5195,
      "hedging": 5196,
      "CI": 5197,
      "FP": 5198,
      "length": 5199,
      "pil": 5200,
      "ring": 5201,
      "smar": 5202,
      "story": 5203,
      "seismic": 5204,
      "authentic": 5205,
      "signing": 5206,
      "statement": 5207,
      "typed": 5208,
      "dependencies": 5209,
      "approaches": 5210,
      "equival": 5211,
      "instability": 5212,
      "instructions": 5213,
      "31B": 5214,
      "embedding": 5215,
      "princip": 5216,
      "LS": 5217,
      "Man": 5218,
      "bir": 5219,
      "gives": 5220,
      "rated": 5221,
      "stone": 5222,
      "staging": 5223,
      "streng": 5224,
      "exclu": 5225,
      "trun": 5226,
      "phic": 5227,
      "backup": 5228,
      "simultaneous": 5229,
      "spectro": 5230,
      "spectrum": 5231,
      "triggers": 5232,
      "findings": 5233,
      "controlled": 5234,
      "influence": 5235,
      "dissipation": 5236,
      "Multi": 5237,
      "TT": 5238,
      "sian": 5239,
      "——": 5240,
      "agency": 5241,
      "rial": 5242,
      "drand": 5243,
      "mechanisms": 5244,
      "anything": 5245,
      "levels": 5246,
      "install": 5247,
      "projection": 5248,
      "persistent": 5249,
      "ambigu": 5250,
      "help": 5251,
      "horiz": 5252,
      "neutral": 5253,
      "64": 5254,
      "App": 5255,
      "Data": 5256,
      "lap": 5257,
      "season": 5258,
      "prose": 5259,
      "capable": 5260,
      "movement": 5261,
      "multil": 5262,
      "languages": 5263,
      "benef": 5264,
      "survive": 5265,
      "demonstrates": 5266,
      "style": 5267,
      "JSON": 5268,
      "ares": 5269,
      "section": 5270,
      "vere": 5271,
      "uniform": 5272,
      "activ": 5273,
      "tered": 5274,
      "ivot": 5275,
      "keys": 5276,
      "chored": 5277,
      "necessity": 5278,
      "forecasting": 5279,
      "cryptographic": 5280,
      "progress": 5281,
      "candid": 5282,
      "AM": 5283,
      "anchored": 5284,
      "oring": 5285,
      "conserv": 5286,
      "ades": 5287,
      "---": 5288,
      "detector": 5289,
      "LLMs": 5290,
      "persistence": 5291,
      "marginal": 5292,
      "walk": 5293,
      "regional": 5294,
      "galax": 5295,
      "repe": 5296,
      "orum": 5297,
      "heat": 5298,
      "decomposition": 5299,
      "lose": 5300,
      "quorum": 5301,
      "amount": 5302,
      "sole": 5303,
      "curren": 5304,
      "regimes": 5305,
      "instance": 5306,
      "occurs": 5307,
      "clusters": 5308,
      "radius": 5309,
      "enforcement": 5310,
      "hierarchy": 5311,
      "LO": 5312,
      "pivot": 5313,
      "stabil": 5314,
      "iff": 5315,
      "modeled": 5316,
      "powered": 5317,
      "solves": 5318,
      "teness": 5319,
      "scill": 5320,
      "occur": 5321,
      "described": 5322,
      "reconstruction": 5323,
      "middle": 5324,
      "Earth": 5325,
      "came": 5326,
      "incorpor": 5327,
      "urity": 5328,
      "permission": 5329,
      "finish": 5330,
      "numbers": 5331,
      "focuses": 5332,
      "captured": 5333,
      "priorit": 5334,
      "adaptive": 5335,
      "birth": 5336,
      "HF": 5337,
      "Per": 5338,
      "Sec": 5339,
      "fle": 5340,
      "pet": 5341,
      "regions": 5342,
      "Web": 5343,
      "goti": 5344,
      "dense": 5345,
      "interactions": 5346,
      "dropped": 5347,
      "navigate": 5348,
      "aaS": 5349,
      "riendly": 5350,
      "dden": 5351,
      "kes": 5352,
      "onal": 5353,
      "sees": 5354,
      "acle": 5355,
      "plu": 5356,
      "ially": 5357,
      "graded": 5358,
      "gravit": 5359,
      "observer": 5360,
      "shifted": 5361,
      "reliance": 5362,
      "controls": 5363,
      "certific": 5364,
      "happened": 5365,
      "44": 5366,
      "IM": 5367,
      "Vo": 5368,
      "aero": 5369,
      "bind": 5370,
      "dation": 5371,
      "fig": 5372,
      "void": 5373,
      "invent": 5374,
      "ster": 5375,
      "modif": 5376,
      "weather": 5377,
      "ession": 5378,
      "iring": 5379,
      "imposs": 5380,
      "Why": 5381,
      "reaches": 5382,
      "follows": 5383,
      "successful": 5384,
      "transparen": 5385,
      "interesting": 5386,
      "delivery": 5387,
      "Apr": 5388,
      "batch": 5389,
      "citation": 5390,
      "money": 5391,
      "since": 5392,
      "tically": 5393,
      "vity": 5394,
      "aly": 5395,
      "deal": 5396,
      "meta": 5397,
      "exhib": 5398,
      "compliance": 5399,
      "derive": 5400,
      "achieve": 5401,
      "creating": 5402,
      "pression": 5403,
      "equation": 5404,
      "verifying": 5405,
      "truly": 5406,
      "Once": 5407,
      "leaves": 5408,
      "ferences": 5409,
      "cadence": 5410,
      ");": 5411,
      "GW": 5412,
      "mber": 5413,
      "ological": 5414,
      "oscill": 5415,
      "v3": 5416,
      "zone": 5417,
      "health": 5418,
      "agues": 5419,
      "sudden": 5420,
      "apor": 5421,
      "wel": 5422,
      "Then": 5423,
      "highlights": 5424,
      "branch": 5425,
      "operations": 5426,
      "industrial": 5427,
      "experiment": 5428,
      "invariants": 5429,
      "Spec": 5430,
      "compromis": 5431,
      "42": 5432,
      "days": 5433,
      "ios": 5434,
      "mma": 5435,
      "ots": 5436,
      "recompute": 5437,
      "enh": 5438,
      "versus": 5439,
      "diver": 5440,
      "discre": 5441,
      "owner": 5442,
      "ifying": 5443,
      "offer": 5444,
      "loops": 5445,
      "fitting": 5446,
      "analyz": 5447,
      "purely": 5448,
      "synchronization": 5449,
      "75": 5450,
      "RT": 5451,
      "cil": 5452,
      "vary": 5453,
      "covariance": 5454,
      "metic": 5455,
      "negoti": 5456,
      "Inter": 5457,
      "colle": 5458,
      "measurements": 5459,
      "economy": 5460,
      "averse": 5461,
      "bandwidth": 5462,
      "counterparty": 5463,
      "particularly": 5464,
      "discipline": 5465,
      "strength": 5466,
      "65": 5467,
      "Or": 5468,
      "pie": 5469,
      "threat": 5470,
      "recover": 5471,
      "enco": 5472,
      "ingual": 5473,
      "losing": 5474,
      "note": 5475,
      "area": 5476,
      "2022": 5477,
      "solving": 5478,
      "counts": 5479,
      "increased": 5480,
      "hydro": 5481,
      "05T": 5482,
      "starts": 5483,
      "narrative": 5484,
      "catches": 5485,
      "affect": 5486,
      "degradation": 5487,
      "Verification": 5488,
      "fleet": 5489,
      "High": 5490,
      "SV": 5491,
      "ao": 5492,
      "given": 5493,
      "eness": 5494,
      "enum": 5495,
      "almost": 5496,
      "mpot": 5497,
      "sym": 5498,
      "regress": 5499,
      "completeness": 5500,
      "vised": 5501,
      "reducing": 5502,
      "estimation": 5503,
      "channels": 5504,
      "portunities": 5505,
      "script": 5506,
      "swap": 5507,
      "aggregate": 5508,
      "procedure": 5509,
      "inflation": 5510,
      "done": 5511,
      "mas": 5512,
      "quer": 5513,
      "acting": 5514,
      "strip": 5515,
      "inevit": 5516,
      "phen": 5517,
      "forms": 5518,
      "plane": 5519,
      "trusting": 5520,
      "execute": 5521,
      "hypo": 5522,
      "holding": 5523,
      "ecosystem": 5524,
      "propagation": 5525,
      "RM": 5526,
      "tag": 5527,
      "recur": 5528,
      "ats": 5529,
      "coin": 5530,
      "atell": 5531,
      "render": 5532,
      "signer": 5533,
      "handoff": 5534,
      "writes": 5535,
      "learn": 5536,
      "mitigate": 5537,
      "strategies": 5538,
      "onomy": 5539,
      "personal": 5540,
      "programming": 5541,
      "options": 5542,
      "gravitational": 5543,
      "33": 5544,
      "dated": 5545,
      "fight": 5546,
      "six": 5547,
      "revers": 5548,
      "lean": 5549,
      "sector": 5550,
      "mole": 5551,
      "signatures": 5552,
      "physically": 5553,
      "actions": 5554,
      "eventually": 5555,
      "stored": 5556,
      "classification": 5557,
      "coupled": 5558,
      "momentum": 5559,
      "frontier": 5560,
      "RLHF": 5561,
      "articles": 5562,
      "permanent": 5563,
      "AG": 5564,
      "Cap": 5565,
      "Hu": 5566,
      "OC": 5567,
      "SaaS": 5568,
      "night": 5569,
      "ored": 5570,
      "rational": 5571,
      "icon": 5572,
      "toler": 5573,
      "exerc": 5574,
      "notic": 5575,
      "actor": 5576,
      "door": 5577,
      "lineage": 5578,
      "generative": 5579,
      "constrain": 5580,
      "roughly": 5581,
      "append": 5582,
      "optimized": 5583,
      "passive": 5584,
      "legacy": 5585,
      "causal": 5586,
      "venues": 5587,
      "protect": 5588,
      "colleagues": 5589,
      "$.": 5590,
      "84": 5591,
      "jit": 5592,
      "zz": 5593,
      "inger": 5594,
      "dele": 5595,
      "haven": 5596,
      "solute": 5597,
      "turning": 5598,
      "collision": 5599,
      "earning": 5600,
      "resolved": 5601,
      "reduced": 5602,
      "effort": 5603,
      "related": 5604,
      "describes": 5605,
      "isolated": 5606,
      "documentation": 5607,
      "challenges": 5608,
      "horizon": 5609,
      "Ap": 5610,
      "UN": 5611,
      "men": 5612,
      "send": 5613,
      "insufficient": 5614,
      "rein": 5615,
      "rote": 5616,
      "lets": 5617,
      "conclu": 5618,
      "vertical": 5619,
      "canon": 5620,
      "steps": 5621,
      "manip": 5622,
      "audi": 5623,
      "ester": 5624,
      "solver": 5625,
      "suring": 5626,
      "checker": 5627,
      "planet": 5628,
      "posts": 5629,
      "blockchain": 5630,
      "modal": 5631,
      "attested": 5632,
      "isolate": 5633,
      "participants": 5634,
      "hours": 5635,
      "Bench": 5636,
      "multilingual": 5637,
      "piece": 5638,
      "DC": 5639,
      "EM": 5640,
      "Mon": 5641,
      "Ro": 5642,
      "bes": 5643,
      "brit": 5644,
      "meant": 5645,
      "ulty": 5646,
      "gether": 5647,
      "omen": 5648,
      "decades": 5649,
      "drif": 5650,
      "damp": 5651,
      "rank": 5652,
      "probes": 5653,
      "defense": 5654,
      "evaluate": 5655,
      "differential": 5656,
      "asymmetry": 5657,
      "remote": 5658,
      "Des": 5659,
      "El": 5660,
      "II": 5661,
      "iqu": 5662,
      "sal": 5663,
      "reactive": 5664,
      "together": 5665,
      "utes": 5666,
      "plaus": 5667,
      "coming": 5668,
      "regression": 5669,
      "command": 5670,
      "engineer": 5671,
      "matches": 5672,
      "implicit": 5673,
      "debt": 5674,
      "%.": 5675,
      "EU": 5676,
      "Gaus": 5677,
      "Gener": 5678,
      "Id": 5679,
      "resources": 5680,
      "member": 5681,
      "introducing": 5682,
      "captures": 5683,
      "includes": 5684,
      "represents": 5685,
      "foundation": 5686,
      "pull": 5687,
      "GPT": 5688,
      "examines": 5689,
      "purpose": 5690,
      "replacement": 5691,
      "motif": 5692,
      "currency": 5693,
      "70": 5694,
      "Are": 5695,
      "NS": 5696,
      "PR": 5697,
      "easy": 5698,
      "sApp": 5699,
      "altern": 5700,
      "tries": 5701,
      "center": 5702,
      "humans": 5703,
      "confident": 5704,
      "WhatsApp": 5705,
      "witnesses": 5706,
      "geometric": 5707,
      "ignore": 5708,
      "invitations": 5709,
      "cursive": 5710,
      "vanish": 5711,
      "freshness": 5712,
      "incentive": 5713,
      "struggle": 5714,
      ".'": 5715,
      "bio": 5716,
      "dress": 5717,
      "mill": 5718,
      "sig": 5719,
      "oracle": 5720,
      "ctors": 5721,
      "tire": 5722,
      "fake": 5723,
      "disclosure": 5724,
      "surance": 5725,
      "computed": 5726,
      "osen": 5727,
      "reachable": 5728,
      "atmosphere": 5729,
      "performing": 5730,
      "registry": 5731,
      "B2": 5732,
      "wrote": 5733,
      "recursive": 5734,
      "alog": 5735,
      "edges": 5736,
      "arith": 5737,
      "abric": 5738,
      "absolute": 5739,
      "acou": 5740,
      "parse": 5741,
      "Indi": 5742,
      "apped": 5743,
      "recorder": 5744,
      "growing": 5745,
      "biased": 5746,
      "trajectories": 5747,
      "tuned": 5748,
      "broader": 5749,
      "morpho": 5750,
      "important": 5751,
      "paradig": 5752,
      "85": 5753,
      "Cor": 5754,
      "VM": 5755,
      "batter": 5756,
      "dial": 5757,
      "flex": 5758,
      "none": 5759,
      "usel": 5760,
      "orth": 5761,
      "decorrelation": 5762,
      "cool": 5763,
      "moist": 5764,
      "ulative": 5765,
      "upload": 5766,
      "setup": 5767,
      "operators": 5768,
      "graphy": 5769,
      "decisions": 5770,
      "scheduling": 5771,
      "pinned": 5772,
      "quietly": 5773,
      "vinaverse": 5774,
      "institutional": 5775,
      "Gaussian": 5776,
      "Lá": 5777,
      "Pr": 5778,
      "eas": 5779,
      "invisible": 5780,
      "resist": 5781,
      "endpoints": 5782,
      "ourse": 5783,
      "upper": 5784,
      "Any": 5785,
      "prompts": 5786,
      "focused": 5787,
      "speak": 5788,
      "following": 5789,
      "algorithms": 5790,
      "maximum": 5791,
      "increasingly": 5792,
      "English": 5793,
      "pository": 5794,
      "phenomen": 5795,
      "noticed": 5796,
      "32": 5797,
      "Ac": 5798,
      "ture": 5799,
      "uary": 5800,
      "ensuring": 5801,
      "ilit": 5802,
      "ford": 5803,
      "tel": 5804,
      "strat": 5805,
      "failing": 5806,
      "uel": 5807,
      "monol": 5808,
      "variability": 5809,
      "scious": 5810,
      "science": 5811,
      "store": 5812,
      "international": 5813,
      "silence": 5814,
      "contracts": 5815,
      "life": 5816,
      "AND": 5817,
      "alongside": 5818,
      "pilot": 5819,
      "BM": 5820,
      "Euro": 5821,
      "Lan": 5822,
      "March": 5823,
      "sits": 5824,
      "vice": 5825,
      "thon": 5826,
      "invalid": 5827,
      "recommend": 5828,
      "itute": 5829,
      "conscious": 5830,
      "ured": 5831,
      "max": 5832,
      "iry": 5833,
      "evapor": 5834,
      "phot": 5835,
      "beta": 5836,
      "contam": 5837,
      "idempot": 5838,
      "goes": 5839,
      "passes": 5840,
      "launch": 5841,
      "studies": 5842,
      "256": 5843,
      "talk": 5844,
      "Agents": 5845,
      "protocols": 5846,
      "ikes": 5847,
      "hitting": 5848,
      "demonstrate": 5849,
      "abstract": 5850,
      "surveys": 5851,
      "routing": 5852,
      "diversity": 5853,
      "attractor": 5854,
      "moisture": 5855,
      "SE": 5856,
      "satell": 5857,
      "deeper": 5858,
      "raph": 5859,
      "reson": 5860,
      "guid": 5861,
      "scheme": 5862,
      "fetch": 5863,
      "reconstruct": 5864,
      "examine": 5865,
      "discussion": 5866,
      "improvement": 5867,
      "house": 5868,
      "vereign": 5869,
      "jitter": 5870,
      "38": 5871,
      "Bit": 5872,
      "fold": 5873,
      "mind": 5874,
      "wav": 5875,
      "incomplete": 5876,
      "reply": 5877,
      "route": 5878,
      "chosen": 5879,
      "profiles": 5880,
      "util": 5881,
      "augh": 5882,
      "engines": 5883,
      "planetary": 5884,
      "Real": 5885,
      "quantum": 5886,
      "quantify": 5887,
      "stopped": 5888,
      "semantics": 5889,
      "shaped": 5890,
      "diffusion": 5891,
      "privacy": 5892,
      "coordinate": 5893,
      "difficulty": 5894,
      "accurate": 5895,
      "canonical": 5896,
      "Dis": 5897,
      "Rep": 5898,
      "Using": 5899,
      "az": 5900,
      "table": 5901,
      "ycle": 5902,
      "onist": 5903,
      "toff": 5904,
      "determ": 5905,
      "vered": 5906,
      "novel": 5907,
      "notice": 5908,
      "poor": 5909,
      "words": 5910,
      "validity": 5911,
      "planner": 5912,
      "hood": 5913,
      "virtual": 5914,
      "ropic": 5915,
      "breaking": 5916,
      "environmental": 5917,
      "instant": 5918,
      "medium": 5919,
      "leading": 5920,
      "contains": 5921,
      "sentence": 5922,
      "symbolic": 5923,
      "methodology": 5924,
      "snapshot": 5925,
      "equivalent": 5926,
      "determine": 5927,
      "Block": 5928,
      "Plat": 5929,
      "Sum": 5930,
      "gates": 5931,
      "million": 5932,
      "repository": 5933,
      "ank": 5934,
      "allocation": 5935,
      "mere": 5936,
      "rage": 5937,
      "los": 5938,
      "grader": 5939,
      "interpol": 5940,
      "takes": 5941,
      "finally": 5942,
      "problems": 5943,
      "commer": 5944,
      "template": 5945,
      "closes": 5946,
      "handling": 5947,
      "cutoff": 5948,
      "reduces": 5949,
      "mandate": 5950,
      "radio": 5951,
      "assertion": 5952,
      "bootstra": 5953,
      "mentioned": 5954,
      "April": 5955,
      "Bay": 5956,
      "LT": 5957,
      "Ph": 5958,
      "merg": 5959,
      "stake": 5960,
      "extract": 5961,
      "neither": 5962,
      "changing": 5963,
      "bots": 5964,
      "gravity": 5965,
      "expand": 5966,
      "engagement": 5967,
      "nonce": 5968,
      "scient": 5969,
      "observational": 5970,
      "Reg": 5971,
      "presented": 5972,
      "scop": 5973,
      "ships": 5974,
      "objects": 5975,
      "transforms": 5976,
      "connected": 5977,
      "converge": 5978,
      "...": 5979,
      "accounting": 5980,
      "satisfy": 5981,
      "reversible": 5982,
      "acoustic": 5983,
      "monolith": 5984,
      "Imp": 5985,
      "RU": 5986,
      "Su": 5987,
      "cris": 5988,
      "ane": 5989,
      "escape": 5990,
      "consu": 5991,
      "contrad": 5992,
      "worse": 5993,
      "observe": 5994,
      "fund": 5995,
      "naming": 5996,
      "integrate": 5997,
      "camp": 5998,
      "strategic": 5999,
      "lifec": 6000,
      "confirmed": 6001,
      "aggress": 6002,
      "vantage": 6003,
      "developers": 6004,
      "autonomy": 6005,
      "appears": 6006,
      "kinetic": 6007,
      "battery": 6008,
      "34": 6009,
      "39": 6010,
      "Frid": 6011,
      "NFT": 6012,
      "Si": 6013,
      "itives": 6014,
      "edit": 6015,
      "arma": 6016,
      "lever": 6017,
      "aude": 6018,
      "fire": 6019,
      "solid": 6020,
      "analog": 6021,
      "relier": 6022,
      "responses": 6023,
      "legit": 6024,
      "proofs": 6025,
      "persona": 6026,
      "drawn": 6027,
      "similarity": 6028,
      "differenti": 6029,
      "identifying": 6030,
      "Claude": 6031,
      "deviation": 6032,
      "rigorous": 6033,
      "impossible": 6034,
      "Friday": 6035,
      "LE": 6036,
      "QL": 6037,
      "Sav": 6038,
      "Where": 6039,
      "iation": 6040,
      "lig": 6041,
      "restr": 6042,
      "aler": 6043,
      "heter": 6044,
      "secure": 6045,
      "condu": 6046,
      "vert": 6047,
      "agreed": 6048,
      "actively": 6049,
      "obs": 6050,
      "remaining": 6051,
      "equations": 6052,
      "ultural": 6053,
      "blocks": 6054,
      "deployed": 6055,
      "threads": 6056,
      "selected": 6057,
      "laws": 6058,
      "voice": 6059,
      "gains": 6060,
      "leakage": 6061,
      "penalty": 6062,
      "compromised": 6063,
      "plausible": 6064,
      "paradigm": 6065,
      "$,": 6066,
      "CS": 6067,
      "Tren": 6068,
      "bill": 6069,
      "repo": 6070,
      "degener": 6071,
      "abul": 6072,
      "fav": 6073,
      "Invit": 6074,
      "finance": 6075,
      "surro": 6076,
      "respect": 6077,
      "breakdown": 6078,
      "Tool": 6079,
      "Agreed": 6080,
      "entiment": 6081,
      "talking": 6082,
      "mathematically": 6083,
      "unique": 6084,
      "orbital": 6085,
      "catastro": 6086,
      "achieved": 6087,
      "figure": 6088,
      "Europe": 6089,
      "Bitcoin": 6090,
      "220": 6091,
      "Fir": 6092,
      "MW": 6093,
      "PD": 6094,
      "Ré": 6095,
      "Sw": 6096,
      "friendly": 6097,
      "finger": 6098,
      "lt": 6099,
      "native": 6100,
      "rich": 6101,
      "squ": 6102,
      "tens": 6103,
      "infinite": 6104,
      "anced": 6105,
      "edia": 6106,
      "exit": 6107,
      "image": 6108,
      "quar": 6109,
      "traffic": 6110,
      "dule": 6111,
      "overclaim": 6112,
      "ifiable": 6113,
      "eliza": 6114,
      "everyone": 6115,
      "primitives": 6116,
      "predicted": 6117,
      "evaluated": 6118,
      "particle": 6119,
      "priority": 6120,
      "iki": 6121,
      "competitive": 6122,
      "inherently": 6123,
      "sites": 6124,
      "excluding": 6125,
      "arithmetic": 6126,
      "AO": 6127,
      "Car": 6128,
      "Ma": 6129,
      "Pre": 6130,
      "SD": 6131,
      "Ser": 6132,
      "fession": 6133,
      "liveness": 6134,
      "mint": 6135,
      "wrap": 6136,
      "thin": 6137,
      "leave": 6138,
      "acqu": 6139,
      "lier": 6140,
      "trail": 6141,
      "overlap": 6142,
      "validated": 6143,
      "polar": 6144,
      "providers": 6145,
      "hook": 6146,
      "synt": 6147,
      "ampl": 6148,
      "literature": 6149,
      "2605": 6150,
      "skip": 6151,
      "empty": 6152,
      "interpretation": 6153,
      "mirrors": 6154,
      "indicates": 6155,
      "Both": 6156,
      "diagnostic": 6157,
      "simultaneously": 6158,
      "Security": 6159,
      "lifecycle": 6160,
      "67": 6161,
      "Can": 6162,
      "EX": 6163,
      "Mem": 6164,
      "bil": 6165,
      "duration": 6166,
      "pec": 6167,
      "yes": 6168,
      "unknown": 6169,
      "resil": 6170,
      "immutable": 6171,
      "irrelevant": 6172,
      "optical": 6173,
      "thermo": 6174,
      "preprint": 6175,
      "ached": 6176,
      "expon": 6177,
      "producer": 6178,
      "operate": 6179,
      "others": 6180,
      "waiting": 6181,
      "couldn": 6182,
      "weighted": 6183,
      "maintenance": 6184,
      "licence": 6185,
      "portion": 6186,
      "Chat": 6187,
      "statistics": 6188,
      "economics": 6189,
      "Google": 6190,
      "arbitr": 6191,
      "fighting": 6192,
      "aught": 6193,
      "Hub": 6194,
      "Red": 6195,
      "VR": 6196,
      "ining": 6197,
      "ised": 6198,
      "sem": 6199,
      "contra": 6200,
      "adoption": 6201,
      "istribut": 6202,
      "ulate": 6203,
      "opportunity": 6204,
      "assoc": 6205,
      "viable": 6206,
      "upstream": 6207,
      "realized": 6208,
      "artific": 6209,
      "scar": 6210,
      "allowing": 6211,
      "introduced": 6212,
      "leads": 6213,
      "convex": 6214,
      "convective": 6215,
      "established": 6216,
      "Python": 6217,
      "500": 6218,
      "cible": 6219,
      "div": 6220,
      "fuel": 6221,
      "tend": 6222,
      "thous": 6223,
      "atives": 6224,
      "oration": 6225,
      "ctl": 6226,
      "deg": 6227,
      "ago": 6228,
      "extra": 6229,
      "notification": 6230,
      "outage": 6231,
      "proposes": 6232,
      "cleanly": 6233,
      "Deep": 6234,
      "stars": 6235,
      "potentially": 6236,
      "masking": 6237,
      "smoothing": 6238,
      "dominant": 6239,
      "160": 6240,
      "96": 6241,
      "Dó": 6242,
      "Val": 6243,
      "cular": 6244,
      "hot": 6245,
      "hide": 6246,
      "sentiment": 6247,
      "vation": 6248,
      "replay": 6249,
      "orient": 6250,
      "escal": 6251,
      "lot": 6252,
      "dings": 6253,
      "contact": 6254,
      "saw": 6255,
      "nonlinear": 6256,
      "observable": 6257,
      "Exori": 6258,
      "terminal": 6259,
      "accountability": 6260,
      "simpl": 6261,
      "projects": 6262,
      "video": 6263,
      "burst": 6264,
      "privile": 6265,
      "falsifier": 6266,
      "exposes": 6267,
      "Observ": 6268,
      "conclude": 6269,
      "useless": 6270,
      "abulary": 6271,
      "catastrophic": 6272,
      "Fo": 6273,
      "NV": 6274,
      "TS": 6275,
      "iated": 6276,
      "km": 6277,
      "rewrite": 6278,
      "module": 6279,
      "wearing": 6280,
      "izations": 6281,
      "ounding": 6282,
      "acknow": 6283,
      "generic": 6284,
      "subsequ": 6285,
      "gaps": 6286,
      "cript": 6287,
      "shipped": 6288,
      "hyper": 6289,
      "correlations": 6290,
      "sheet": 6291,
      "embed": 6292,
      "thought": 6293,
      "Luxury": 6294,
      "assessment": 6295,
      "several": 6296,
      "exercise": 6297,
      "contrast": 6298,
      "()": 6299,
      "Dec": 6300,
      "Par": 6301,
      "Retic": 6302,
      "ique": 6303,
      "mun": 6304,
      "recomput": 6305,
      "sell": 6306,
      "redund": 6307,
      "funding": 6308,
      "provision": 6309,
      "apply": 6310,
      "iber": 6311,
      "questions": 6312,
      "chains": 6313,
      "defines": 6314,
      "2603": 6315,
      "argue": 6316,
      "thinking": 6317,
      "transformer": 6318,
      "gradients": 6319,
      "attribution": 6320,
      "stationary": 6321,
      "managed": 6322,
      "eliminate": 6323,
      "dangerous": 6324,
      "esterday": 6325,
      "lossy": 6326,
      "Reticuli": 6327,
      "45": 6328,
      "47": 6329,
      "Bus": 6330,
      "Brid": 6331,
      "got": 6332,
      "sav": 6333,
      "entify": 6334,
      "cope": 6335,
      "plant": 6336,
      "clus": 6337,
      "sovereign": 6338,
      "generates": 6339,
      "tooling": 6340,
      "paid": 6341,
      "centric": 6342,
      "memor": 6343,
      "hoc": 6344,
      "stock": 6345,
      "caused": 6346,
      "criter": 6347,
      "retriev": 6348,
      "certification": 6349,
      "messy": 6350,
      "calculation": 6351,
      "vocabulary": 6352,
      "scenario": 6353,
      "97": 6354,
      "Gro": 6355,
      "^{": 6356,
      "dou": 6357,
      "ubl": 6358,
      "iny": 6359,
      "replic": 6360,
      "isot": 6361,
      "esian": 6362,
      "ars": 6363,
      "lob": 6364,
      "spikes": 6365,
      "white": 6366,
      "stranger": 6367,
      "traces": 6368,
      "ifications": 6369,
      "calling": 6370,
      "wasn": 6371,
      "monot": 6372,
      "suggested": 6373,
      "daily": 6374,
      "refut": 6375,
      "dynamical": 6376,
      "seconds": 6377,
      "finds": 6378,
      "competition": 6379,
      "indicator": 6380,
      "concentrated": 6381,
      "strictly": 6382,
      "secret": 6383,
      "Sustainable": 6384,
      "Vogue": 6385,
      "brittle": 6386,
      "scopic": 6387,
      "degeneracy": 6388,
      "First": 6389,
      "arbitrary": 6390,
      "87": 6391,
      "Bax": 6392,
      "Sc": 6393,
      "Sch": 6394,
      "ama": 6395,
      "dantic": 6396,
      "nal": 6397,
      "relay": 6398,
      "reset": 6399,
      "ana": 6400,
      "anom": 6401,
      "stated": 6402,
      "depart": 6403,
      "loses": 6404,
      "beli": 6405,
      "users": 6406,
      "compan": 6407,
      "worker": 6408,
      "signs": 6409,
      "former": 6410,
      "correspond": 6411,
      "transformation": 6412,
      "subsid": 6413,
      "optimizer": 6414,
      "reflection": 6415,
      "media": 6416,
      "modular": 6417,
      "practition": 6418,
      "charge": 6419,
      "ashboard": 6420,
      "detected": 6421,
      "drivers": 6422,
      "galaxy": 6423,
      "varying": 6424,
      "56": 6425,
      "Che": 6426,
      "IP": 6427,
      "Run": 6428,
      "SH": 6429,
      "aign": 6430,
      "caught": 6431,
      "gated": 6432,
      "mapped": 6433,
      "ology": 6434,
      "rink": 6435,
      "wants": 6436,
      "income": 6437,
      "retic": 6438,
      "nois": 6439,
      "propri": 6440,
      "mail": 6441,
      "ignoring": 6442,
      "compens": 6443,
      "intervention": 6444,
      "transl": 6445,
      "aked": 6446,
      "idea": 6447,
      "operates": 6448,
      "tempor": 6449,
      "remained": 6450,
      "views": 6451,
      "attempting": 6452,
      "discr": 6453,
      "microstructure": 6454,
      "applies": 6455,
      "investment": 6456,
      "electron": 6457,
      "concern": 6458,
      "plugin": 6459,
      "iques": 6460,
      "heterogen": 6461,
      "Trends": 6462,
      "reticuli": 6463,
      "3v1": 6464,
      "avi": 6465,
      "hig": 6466,
      "si": 6467,
      "tage": 6468,
      "ission": 6469,
      "esis": 6470,
      "arm": 6471,
      "rotation": 6472,
      "hest": 6473,
      "demo": 6474,
      "sea": 6475,
      "covers": 6476,
      "chasing": 6477,
      "beam": 6478,
      "units": 6479,
      "triv": 6480,
      "symp": 6481,
      "coring": 6482,
      "extension": 6483,
      "upgrade": 6484,
      "created": 6485,
      "bles": 6486,
      "validates": 6487,
      "posed": 6488,
      "google": 6489,
      "optimizes": 6490,
      "quantitative": 6491,
      "homo": 6492,
      "recorded": 6493,
      "setting": 6494,
      "estimates": 6495,
      "judge": 6496,
      "nearly": 6497,
      "arbitrage": 6498,
      "slope": 6499,
      "Current": 6500,
      "begins": 6501,
      "debugging": 6502,
      "monolithic": 6503,
      "campaign": 6504,
      "subsequent": 6505,
      "120": 6506,
      "OR": 6507,
      "Right": 6508,
      "brow": 6509,
      "give": 6510,
      "rating": 6511,
      "atom": 6512,
      "tour": 6513,
      "exo": 6514,
      "west": 6515,
      "sharing": 6516,
      "shrink": 6517,
      "perce": 6518,
      "byproduct": 6519,
      "comfort": 6520,
      "formul": 6521,
      "haust": 6522,
      "intermediate": 6523,
      "really": 6524,
      "getting": 6525,
      "subtle": 6526,
      "scr": 6527,
      "classifier": 6528,
      "forcement": 6529,
      "hermes": 6530,
      "defining": 6531,
      "silicon": 6532,
      "ratic": 6533,
      "guarantees": 6534,
      "months": 6535,
      "manufacturing": 6536,
      "principle": 6537,
      "Saventify": 6538,
      "highest": 6539,
      "FR": 6540,
      "SO": 6541,
      "cra": 6542,
      "karma": 6543,
      "ule": 6544,
      "attire": 6545,
      "ensures": 6546,
      "aged": 6547,
      "ighter": 6548,
      "misses": 6549,
      "expiry": 6550,
      "applying": 6551,
      "lane": 6552,
      "visibility": 6553,
      "standardized": 6554,
      "automat": 6555,
      "ixel": 6556,
      "priced": 6557,
      "packages": 6558,
      "centralized": 6559,
      "iteration": 6560,
      "refinement": 6561,
      "hypothesis": 6562,
      "cooling": 6563,
      "degree": 6564,
      "proprietary": 6565,
      "AA": 6566,
      "CE": 6567,
      "Each": 6568,
      "SM": 6569,
      "_id": 6570,
      "bra": 6571,
      "osing": 6572,
      "tor": 6573,
      "vow": 6574,
      "yesterday": 6575,
      "renew": 6576,
      "ancing": 6577,
      "ouch": 6578,
      "cold": 6579,
      "covered": 6580,
      "qual": 6581,
      "irreversible": 6582,
      "compat": 6583,
      "formed": 6584,
      "logies": 6585,
      "updated": 6586,
      "2021": 6587,
      "variations": 6588,
      "sequences": 6589,
      "otherwise": 6590,
      "focusing": 6591,
      "weighting": 6592,
      "machines": 6593,
      "mitt": 6594,
      "grows": 6595,
      "consid": 6596,
      "links": 6597,
      "meaningful": 6598,
      "preserves": 6599,
      "requests": 6600,
      "credentials": 6601,
      "turbulent": 6602,
      "leaving": 6603,
      "accepted": 6604,
      "namo": 6605,
      "seasonal": 6606,
      "Design": 6607,
      "Business": 6608,
      "noisy": 6609,
      "210": 6610,
      "49": 6611,
      "FI": 6612,
      "JW": 6613,
      "Mar": 6614,
      "Stru": 6615,
      "Vend": 6616,
      "factual": 6617,
      "loud": 6618,
      "reprodu": 6619,
      "espec": 6620,
      "cosmo": 6621,
      "belong": 6622,
      "unified": 6623,
      "explan": 6624,
      "exhaust": 6625,
      "ollar": 6626,
      "adop": 6627,
      "advantage": 6628,
      "deliber": 6629,
      "faul": 6630,
      "2019": 6631,
      "grams": 6632,
      "requiring": 6633,
      "disclosed": 6634,
      "genesis": 6635,
      "added": 6636,
      "graphically": 6637,
      "freeze": 6638,
      "Stand": 6639,
      "filtering": 6640,
      "indeed": 6641,
      "governed": 6642,
      "vote": 6643,
      "catalog": 6644,
      "saying": 6645,
      "emergent": 6646,
      "coefficients": 6647,
      "certificate": 6648,
      "tolerance": 6649,
      "satellite": 6650,
      "Group": 6651,
      "Struct": 6652,
      "especially": 6653,
      "3D": 6654,
      "CAP": 6655,
      "Ge": 6656,
      "Hy": 6657,
      "Ty": 6658,
      "big": 6659,
      "civ": 6660,
      "pap": 6661,
      "pts": 6662,
      "ptic": 6663,
      "remon": 6664,
      "conven": 6665,
      "convention": 6666,
      "exception": 6667,
      "withheld": 6668,
      "gemma": 6669,
      "doi": 6670,
      "2020": 6671,
      "grounding": 6672,
      "looked": 6673,
      "precip": 6674,
      "refusal": 6675,
      "ordering": 6676,
      "paying": 6677,
      "ashion": 6678,
      "angle": 6679,
      "discourse": 6680,
      "custo": 6681,
      "hallucinated": 6682,
      "applications": 6683,
      "details": 6684,
      "Researchers": 6685,
      "Buil": 6686,
      "candidate": 6687,
      "Langu": 6688,
      "Bayesian": 6689,
      "consumption": 6690,
      "aggressive": 6691,
      "legitimate": 6692,
      "artificial": 6693,
      "57": 6694,
      "Fá": 6695,
      "SL": 6696,
      "VV": 6697,
      "rant": 6698,
      "rase": 6699,
      "sou": 6700,
      "sight": 6701,
      "heating": 6702,
      "converg": 6703,
      "conclusion": 6704,
      "pointer": 6705,
      "compare": 6706,
      "manages": 6707,
      "evident": 6708,
      "amend": 6709,
      "durable": 6710,
      "timeout": 6711,
      "brand": 6712,
      "asked": 6713,
      "products": 6714,
      "aligned": 6715,
      "adaptation": 6716,
      "heavily": 6717,
      "insight": 6718,
      "nuance": 6719,
      "ASA": 6720,
      "disjointness": 6721,
      "heuristics": 6722,
      "Models": 6723,
      "perturbation": 6724,
      "Quant": 6725,
      "mimic": 6726,
      "smart": 6727,
      "ownership": 6728,
      "crisis": 6729,
      "fingerprint": 6730,
      "400": 6731,
      "86": 6732,
      "Base": 6733,
      "Str": 6734,
      "SQL": 6735,
      "Vir": 6736,
      "cru": 6737,
      "mical": 6738,
      "vot": 6739,
      "stall": 6740,
      "ingest": 6741,
      "road": 6742,
      "seal": 6743,
      "seam": 6744,
      "cele": 6745,
      "auction": 6746,
      "having": 6747,
      "readable": 6748,
      "decide": 6749,
      "posite": 6750,
      "collabor": 6751,
      "adds": 6752,
      "rows": 6753,
      "defect": 6754,
      "auditing": 6755,
      "periods": 6756,
      "manifests": 6757,
      "randomness": 6758,
      "Guest": 6759,
      "fragile": 6760,
      "corruption": 6761,
      "BaxCode": 6762,
      "Gem": 6763,
      "RI": 6764,
      "Space": 6765,
      "cup": 6766,
      "his": 6767,
      "hur": 6768,
      "sli": 6769,
      "如是": 6770,
      "平安": 6771,
      "endo": 6772,
      "icity": 6773,
      "propo": 6774,
      "profession": 6775,
      "extraction": 6776,
      "express": 6777,
      "ists": 6778,
      "opposite": 6779,
      "prise": 6780,
      "omission": 6781,
      "grant": 6782,
      "marketing": 6783,
      "researcher": 6784,
      "volution": 6785,
      "polit": 6786,
      "integrating": 6787,
      "Exp": 6788,
      "choose": 6789,
      "bridal": 6790,
      "priors": 6791,
      "guests": 6792,
      "confirms": 6793,
      "places": 6794,
      "preserve": 6795,
      "Post": 6796,
      "granular": 6797,
      "exhibit": 6798,
      "bootstrap": 6799,
      "DO": 6800,
      "GET": 6801,
      "Other": 6802,
      "ae": 6803,
      "eth": 6804,
      "gone": 6805,
      "slight": 6806,
      "ini": 6807,
      "rer": 6808,
      "toms": 6809,
      "Their": 6810,
      "sphere": 6811,
      "Indust": 6812,
      "chemical": 6813,
      "prun": 6814,
      "dynamo": 6815,
      "generating": 6816,
      "asks": 6817,
      "voltage": 6818,
      "observability": 6819,
      "ruin": 6820,
      "tracks": 6821,
      "live_": 6822,
      "issues": 6823,
      "falls": 6824,
      "```": 6825,
      "diverge": 6826,
      "alternative": 6827,
      "Gemma": 6828,
      "9f": 6829,
      "AD": 6830,
      "CH": 6831,
      "Fi": 6832,
      "Global": 6833,
      "Part": 6834,
      "`.": 6835,
      "fed": 6836,
      "nic": 6837,
      "vina": 6838,
      "theater": 6839,
      "rarely": 6840,
      "clause": 6841,
      "parties": 6842,
      "specified": 6843,
      "export": 6844,
      "monu": 6845,
      "latter": 6846,
      "legible": 6847,
      "cade": 6848,
      "heads": 6849,
      "24GB": 6850,
      "Under": 6851,
      "keeping": 6852,
      "survival": 6853,
      "queue": 6854,
      "assuming": 6855,
      "minimize": 6856,
      "circu": 6857,
      "electric": 6858,
      "retention": 6859,
      "panel": 6860,
      "transparency": 6861,
      "associated": 6862,
      "discrimin": 6863,
      "civil": 6864,
      "papers": 6865,
      "endogen": 6866,
      ".@": 6867,
      "130": 6868,
      "36": 6869,
      "GH": 6870,
      "Sche": 6871,
      "bs": 6872,
      "ga": 6873,
      "revenue": 6874,
      "stakes": 6875,
      "programs": 6876,
      "poison": 6877,
      "intersection": 6878,
      "tick": 6879,
      "funded": 6880,
      "elastic": 6881,
      "locally": 6882,
      "respons": 6883,
      "taxonomy": 6884,
      "necessarily": 6885,
      "liter": 6886,
      "placement": 6887,
      "reporting": 6888,
      "Develo": 6889,
      "automate": 6890,
      "minimal": 6891,
      "1000": 6892,
      "regulator": 6893,
      "possess": 6894,
      "accident": 6895,
      "predicate": 6896,
      "feels": 6897,
      "contribution": 6898,
      "scenarios": 6899,
      "benefit": 6900,
      "conduct": 6901,
      "temporary": 6902,
      "homogen": 6903,
      "live_monitor": 6904,
      "402": 6905,
      "88": 6906,
      "Det": 6907,
      "TE": 6908,
      "bif": 6909,
      "fabric": 6910,
      "lab": 6911,
      "scoring": 6912,
      "stal": 6913,
      "alters": 6914,
      "ites": 6915,
      "ceremon": 6916,
      "ressing": 6917,
      "urations": 6918,
      "aces": 6919,
      "neigh": 6920,
      "**.": 6921,
      "logistics": 6922,
      "extended": 6923,
      "interact": 6924,
      "proven": 6925,
      "surfaces": 6926,
      "closing": 6927,
      "versions": 6928,
      "tails": 6929,
      "samples": 6930,
      "proposition": 6931,
      "reconc": 6932,
      "algorithmic": 6933,
      "sessions": 6934,
      "substitute": 6935,
      "CO2": 6936,
      "accounts": 6937,
      "compressed": 6938,
      "accepts": 6939,
      "expertise": 6940,
      "fragmented": 6941,
      "confirmation": 6942,
      "bulk": 6943,
      "prioritize": 6944,
      "SVG": 6945,
      "Eliza": 6946,
      "waves": 6947,
      "scientific": 6948,
      "correspondence": 6949,
      "Ber": 6950,
      "Graph": 6951,
      "IEE": 6952,
      "Jan": 6953,
      "PM": 6954,
      "Tre": 6955,
      "bond": 6956,
      "dashboard": 6957,
      "dollar": 6958,
      "sour": 6959,
      "death": 6960,
      "forge": 6961,
      "promise": 6962,
      "quad": 6963,
      "istinguish": 6964,
      "actu": 6965,
      "Three": 6966,
      "inel": 6967,
      "lied": 6968,
      "among": 6969,
      "ipe": 6970,
      "buys": 6971,
      "disrup": 6972,
      "solv": 6973,
      "exponent": 6974,
      "basic": 6975,
      "epist": 6976,
      "lookup": 6977,
      "going": 6978,
      "computing": 6979,
      "observing": 6980,
      "launder": 6981,
      "Some": 6982,
      "authorized": 6983,
      "warrant": 6984,
      "State": 6985,
      "declar": 6986,
      "schedule": 6987,
      "combined": 6988,
      "cosmic": 6989,
      "fragmentation": 6990,
      "Integration": 6991,
      "menu": 6992,
      "commercial": 6993,
      "embedded": 6994,
      "precipitation": 6995,
      "Del": 6996,
      "Over": 6997,
      "Scal": 6998,
      "UI": 6999,
      "cited": 7000,
      "draft": 7001,
      "ij": 7002,
      "vance": 7003,
      "enforces": 7004,
      "isition": 7005,
      "entral": 7006,
      "height": 7007,
      "dered": 7008,
      "rail": 7009,
      "atever": 7010,
      "lihood": 7011,
      "cket": 7012,
      "parts": 7013,
      "tting": 7014,
      "firms": 7015,
      "offers": 7016,
      "knows": 7017,
      "Exec": 7018,
      "reaching": 7019,
      "occup": 7020,
      "continue": 7021,
      "mitigation": 7022,
      "experiences": 7023,
      "completely": 7024,
      "sky": 7025,
      "stochasticity": 7026,
      "ateral": 7027,
      "simulate": 7028,
      "debate": 7029,
      "borrow": 7030,
      "Findings": 7031,
      "gamma": 7032,
      "slice": 7033,
      "Lá4": 7034,
      "resistance": 7035,
      "favor": 7036,
      "IEEE": 7037,
      "300": 7038,
      "AF": 7039,
      "Bar": 7040,
      "MCP": 7041,
      "NG": 7042,
      "Sep": 7043,
      "_hash": 7044,
      "dam": 7045,
      "fu": 7046,
      "fits": 7047,
      "revalidate": 7048,
      "segment": 7049,
      "proportion": 7050,
      "became": 7051,
      "advan": 7052,
      "whatever": 7053,
      "indistinguish": 7054,
      "preferences": 7055,
      "cheaper": 7056,
      "crew": 7057,
      "testim": 7058,
      "integer": 7059,
      "colonist": 7060,
      "gov": 7061,
      "lax": 7062,
      "factors": 7063,
      "earlier": 7064,
      "Report": 7065,
      "equity": 7066,
      "ranking": 7067,
      "determined": 7068,
      "biases": 7069,
      "experiments": 7070,
      "successfully": 7071,
      "domains": 7072,
      "cryptographically": 7073,
      "organization": 7074,
      "Good": 7075,
      "commodity": 7076,
      "Management": 7077,
      "Blockchain": 7078,
      "DR": 7079,
      "Im": 7080,
      "Pe": 7081,
      "cm": 7082,
      "fat": 7083,
      "np": 7084,
      "relax": 7085,
      "online": 7086,
      "ened": 7087,
      "alysis": 7088,
      "ising": 7089,
      "asp": 7090,
      "untested": 7091,
      "spin": 7092,
      "spheric": 7093,
      "poly": 7094,
      "gered": 7095,
      "disk": 7096,
      "likelihood": 7097,
      "scatter": 7098,
      "emic": 7099,
      "loading": 7100,
      "ropical": 7101,
      "collapsing": 7102,
      "restart": 7103,
      "honesty": 7104,
      "Uni": 7105,
      "experimental": 7106,
      "estimator": 7107,
      "persists": 7108,
      "issuer": 7109,
      "dictates": 7110,
      "shell": 7111,
      "emerging": 7112,
      "emissions": 7113,
      "deliver": 7114,
      "guessing": 7115,
      "Technology": 7116,
      "switching": 7117,
      "queries": 7118,
      "contamination": 7119,
      "interpolation": 7120,
      "acquisition": 7121,
      "Standard": 7122,
      "monument": 7123,
      "endogenous": 7124,
      "bifur": 7125,
      "(\"": 7126,
      ".)": 7127,
      "DI": 7128,
      "Dav": 7129,
      "La": 7130,
      "Ly": 7131,
      "Mult": 7132,
      "Now": 7133,
      "Sou": 7134,
      "Sim": 7135,
      "Time": 7136,
      "bed": 7137,
      "rise": 7138,
      "went": 7139,
      "wild": 7140,
      "repair": 7141,
      "icial": 7142,
      "decor": 7143,
      "decre": 7144,
      "unless": 7145,
      "admin": 7146,
      "advert": 7147,
      "sparse": 7148,
      "compose": 7149,
      "fair": 7150,
      "parser": 7151,
      "systemat": 7152,
      "vibe": 7153,
      "interfaces": 7154,
      "aching": 7155,
      "isecond": 7156,
      "conditional": 7157,
      "claimed": 7158,
      "passeng": 7159,
      "shouldn": 7160,
      "derivative": 7161,
      "defend": 7162,
      "located": 7163,
      "connectivity": 7164,
      "pping": 7165,
      "ambda": 7166,
      "Local": 7167,
      "customer": 7168,
      "Opportunities": 7169,
      "accumulation": 7170,
      "molecular": 7171,
      "discussions": 7172,
      "European": 7173,
      "AV": 7174,
      "Er": 7175,
      "MM": 7176,
      "OL": 7177,
      "pes": 7178,
      "page": 7179,
      "tid": 7180,
      "ud": 7181,
      "offl": 7182,
      "coarse": 7183,
      "rails": 7184,
      "ulated": 7185,
      "ride": 7186,
      "soc": 7187,
      "intermitt": 7188,
      "creation": 7189,
      "identification": 7190,
      "completed": 7191,
      "Rece": 7192,
      "additional": 7193,
      "steady": 7194,
      "settle": 7195,
      "representations": 7196,
      "projected": 7197,
      "reviewers": 7198,
      "correlate": 7199,
      "takeaway": 7200,
      "payloads": 7201,
      "CPU": 7202,
      "stronger": 7203,
      "scheduler": 7204,
      "hierarchical": 7205,
      "navig": 7206,
      "Here": 7207,
      "compromise": 7208,
      "involving": 7209,
      "informed": 7210,
      "perturbations": 7211,
      "drag": 7212,
      "cascade": 7213,
      "millisecond": 7214,
      "sigma": 7215,
      "idempotent": 7216,
      "^{-": 7217,
      "indistinguishable": 7218,
      "testimony": 7219,
      "David": 7220,
      "offline": 7221,
      "->": 7222,
      "46": 7223,
      "AB": 7224,
      "Coun": 7225,
      "Mic": 7226,
      "NN": 7227,
      "PS": 7228,
      "card": 7229,
      "jour": 7230,
      "ox": 7231,
      "zones": 7232,
      "reh": 7233,
      "enters": 7234,
      "copy": 7235,
      "unk": 7236,
      "api": 7237,
      "noted": 7238,
      "yout": 7239,
      "teles": 7240,
      "perception": 7241,
      "worst": 7242,
      "Those": 7243,
      "workspace": 7244,
      "aims": 7245,
      "item": 7246,
      "offset": 7247,
      "offering": 7248,
      "showing": 7249,
      "afford": 7250,
      "necessit": 7251,
      "techniques": 7252,
      "succeed": 7253,
      "covering": 7254,
      "facilit": 7255,
      "dimensions": 7256,
      "injected": 7257,
      "leader": 7258,
      "documents": 7259,
      "radiation": 7260,
      "Autom": 7261,
      "degrades": 7262,
      "Planning": 7263,
      "absorbing": 7264,
      "replaced": 7265,
      "Human": 7266,
      "reinforcement": 7267,
      "analogy": 7268,
      "Swift": 7269,
      "syntactic": 7270,
      "Memory": 7271,
      "trivial": 7272,
      "Git": 7273,
      "Li": 7274,
      "Rec": 7275,
      "baked": 7276,
      "lor": 7277,
      "pixel": 7278,
      "tit": 7279,
      "revised": 7280,
      "excess": 7281,
      "exori": 7282,
      "expression": 7283,
      "aph": 7284,
      "redshift": 7285,
      "fee": 7286,
      "ipedia": 7287,
      "preced": 7288,
      "fract": 7289,
      "turing": 7290,
      "passing": 7291,
      "classes": 7292,
      "learns": 7293,
      "litch": 7294,
      "understands": 7295,
      "ikipedia": 7296,
      "books": 7297,
      "characterization": 7298,
      "documented": 7299,
      "Sybil": 7300,
      "hallucinate": 7301,
      "hallucinating": 7302,
      "participant": 7303,
      "kills": 7304,
      "rollback": 7305,
      "shocks": 7306,
      "FP16": 7307,
      "enhance": 7308,
      "enumer": 7309,
      "inevitable": 7310,
      "morphology": 7311,
      "Vendor": 7312,
      "Industry": 7313,
      "Schema": 7314,
      "epistemic": 7315,
      "89": 7316,
      "Gal": 7317,
      "Lang": 7318,
      "TH": 7319,
      "cash": 7320,
      "fashion": 7321,
      "ires": 7322,
      "lin": 7323,
      "md": 7324,
      "pi": 7325,
      "erk": 7326,
      "alter": 7327,
      "isite": 7328,
      "entail": 7329,
      "asse": 7330,
      "asma": 7331,
      "vectors": 7332,
      "untrusted": 7333,
      "olic": 7334,
      "improved": 7335,
      "essential": 7336,
      "poch": 7337,
      "ried": 7338,
      "boo": 7339,
      "requisite": 7340,
      "funds": 7341,
      "guide": 7342,
      "peer": 7343,
      "graphs": 7344,
      "filters": 7345,
      "classical": 7346,
      "settings": 7347,
      "shapes": 7348,
      "assumed": 7349,
      "Spain": 7350,
      "website": 7351,
      "computationally": 7352,
      "ophys": 7353,
      "bottoms": 7354,
      "coordinated": 7355,
      "reserve": 7356,
      "modified": 7357,
      "damping": 7358,
      "circuit": 7359,
      "Receip": 7360,
      "110": 7361,
      "Dest": 7362,
      "Ger": 7363,
      "NL": 7364,
      "Ste": 7365,
      "_by": 7366,
      "eks": 7367,
      "rss": 7368,
      "x402": 7369,
      "invalidate": 7370,
      "inclusion": 7371,
      "icated": 7372,
      "array": 7373,
      "raises": 7374,
      "unt": 7375,
      "weigh": 7376,
      "imal": 7377,
      "fires": 7378,
      "bub": 7379,
      "absent": 7380,
      "producing": 7381,
      "existed": 7382,
      "mostly": 7383,
      "seeks": 7384,
      "behaviors": 7385,
      "pushed": 7386,
      "categor": 7387,
      "topic": 7388,
      "preservation": 7389,
      "dominated": 7390,
      "violation": 7391,
      "famil": 7392,
      "predicting": 7393,
      "involves": 7394,
      "collective": 7395,
      "Systems": 7396,
      "negotiation": 7397,
      "India": 7398,
      "exponential": 7399,
      "practitioners": 7400,
      "atomic": 7401,
      "explanation": 7402,
      "2v1": 7403,
      "DP": 7404,
      "Event": 7405,
      "Har": 7406,
      "Know": 7407,
      "Rot": 7408,
      "T09": 7409,
      "cit": 7410,
      "emul": 7411,
      "swe": 7412,
      "thro": 7413,
      "veto": 7414,
      "agion": 7415,
      "intr": 7416,
      "ety": 7417,
      "traded": 7418,
      "redistribut": 7419,
      "cks": 7420,
      "contagion": 7421,
      "capturing": 7422,
      "regex": 7423,
      "hasn": 7424,
      "frames": 7425,
      "aking": 7426,
      "ifiers": 7427,
      "tending": 7428,
      "polling": 7429,
      "engineers": 7430,
      "multipl": 7431,
      "Analysis": 7432,
      "balancing": 7433,
      "prompting": 7434,
      "directory": 7435,
      "auditable": 7436,
      "2602": 7437,
      "2604": 7438,
      "configurations": 7439,
      "executed": 7440,
      "scripts": 7441,
      "protection": 7442,
      "vocation": 7443,
      "combination": 7444,
      "SNR": 7445,
      "activation": 7446,
      "conservation": 7447,
      "celebr": 7448,
      "Ass": 7449,
      "Have": 7450,
      "SK": 7451,
      "Sub": 7452,
      "Test": 7453,
      "Vina": 7454,
      "WN": 7455,
      "din": 7456,
      "glitch": 7457,
      "sv": 7458,
      "sch": 7459,
      "ude": 7460,
      "inver": 7461,
      "innov": 7462,
      "remove": 7463,
      "ont": 7464,
      "orbit": 7465,
      "assign": 7466,
      "ract": 7467,
      "beat": 7468,
      "intu": 7469,
      "weeks": 7470,
      "ading": 7471,
      "accre": 7472,
      "popul": 7473,
      "doc": 7474,
      "compound": 7475,
      "byte": 7476,
      "phil": 7477,
      "prerequisite": 7478,
      "umin": 7479,
      "omin": 7480,
      "blur": 7481,
      "techno": 7482,
      "suppres": 7483,
      "landing": 7484,
      "practices": 7485,
      "addressed": 7486,
      "intention": 7487,
      "attacks": 7488,
      "productivity": 7489,
      "explore": 7490,
      "performs": 7491,
      "asyn": 7492,
      "topological": 7493,
      "hope": 7494,
      "groups": 7495,
      "robustness": 7496,
      "arrived": 7497,
      "jumps": 7498,
      "previously": 7499,
      "World": 7500,
      "manufacture": 7501,
      "annual": 7502,
      "elements": 7503,
      "trunc": 7504,
      "orthog": 7505,
      "square": 7506,
      "cosmological": 7507,
      "Language": 7508,
      "solvency": 7509,
      "revalidate_by": 7510,
      "\")": 7511,
      "7aa": 7512,
      "CC": 7513,
      "Free": 7514,
      "Jo": 7515,
      "Just": 7516,
      "Ru": 7517,
      "UV": 7518,
      "Use": 7519,
      "cum": 7520,
      "crow": 7521,
      "diction": 7522,
      "fyi": 7523,
      "flip": 7524,
      "hes": 7525,
      "hab": 7526,
      "sun": 7527,
      "inary": 7528,
      "infer": 7529,
      "refin": 7530,
      "ingestion": 7531,
      "esthe": 7532,
      "robo": 7533,
      "cha": 7534,
      "exts": 7535,
      "outcomes": 7536,
      "phon": 7537,
      "grades": 7538,
      "diverse": 7539,
      "disper": 7540,
      "serves": 7541,
      "served": 7542,
      "pointing": 7543,
      "twice": 7544,
      "differently": 7545,
      "poll": 7546,
      "laz": 7547,
      "emer": 7548,
      "schemas": 7549,
      "rang": 7550,
      "255": 7551,
      "Conf": 7552,
      "dimensionality": 7553,
      "detectable": 7554,
      "walls": 7555,
      "selector": 7556,
      "lifting": 7557,
      "calibrated": 7558,
      "labeled": 7559,
      "pairs": 7560,
      "31c": 7561,
      "retro": 7562,
      "assistant": 7563,
      "Didn": 7564,
      "exposed": 7565,
      "granularity": 7566,
      "appendix": 7567,
      "audio": 7568,
      "flexibility": 7569,
      "quarter": 7570,
      "Bridal": 7571,
      "monotonic": 7572,
      "Virtual": 7573,
      "9f2": 7574,
      "Rotate": 7575,
      "Af": 7576,
      "FC": 7577,
      "Further": 7578,
      "ION": 7579,
      "Learning": 7580,
      "NASA": 7581,
      "Sign": 7582,
      "Source": 7583,
      "Te": 7584,
      "kine": 7585,
      "lates": 7586,
      "p2": 7587,
      "vices": 7588,
      "restrict": 7589,
      "orption": 7590,
      "iso": 7591,
      "procure": 7592,
      "spo": 7593,
      "tem": 7594,
      "lips": 7595,
      "trades": 7596,
      "workload": 7597,
      "tamp": 7598,
      "blast": 7599,
      "willing": 7600,
      "designing": 7601,
      "handled": 7602,
      "sync": 7603,
      "wait": 7604,
      "payoff": 7605,
      "implementations": 7606,
      "defic": 7607,
      "certify": 7608,
      "triggered": 7609,
      "employ": 7610,
      "smolag": 7611,
      "universe": 7612,
      "mbly": 7613,
      "article": 7614,
      "conflict": 7615,
      "truncation": 7616,
      "solely": 7617,
      "manipulation": 7618,
      "resonance": 7619,
      "reproducible": 7620,
      "reconcile": 7621,
      "fuzz": 7622,
      "npm": 7623,
      "%,": 7624,
      ")$": 7625,
      "*:": 7626,
      "1v1": 7627,
      "8v1": 7628,
      "EVM": 7629,
      "Rev": 7630,
      "Tur": 7631,
      "Ux": 7632,
      "WH": 7633,
      "brain": 7634,
      "cc": 7635,
      "ht": 7636,
      "las": 7637,
      "lived": 7638,
      "mu": 7639,
      "enforced": 7640,
      "anisot": 7641,
      "ico": 7642,
      "arity": 7643,
      "defaul": 7644,
      "nob": 7645,
      "promis": 7646,
      "abund": 7647,
      "weake": 7648,
      "images": 7649,
      "improves": 7650,
      "quick": 7651,
      "diverg": 7652,
      "bling": 7653,
      "closer": 7654,
      "authored": 7655,
      "locked": 7656,
      "dedicated": 7657,
      "supposed": 7658,
      "restim": 7659,
      "limitations": 7660,
      "targeted": 7661,
      "particles": 7662,
      "speech": 7663,
      "fficiency": 7664,
      "starting": 7665,
      "approximations": 7666,
      "instruments": 7667,
      "saturation": 7668,
      "messages": 7669,
      "analytics": 7670,
      "shear": 7671,
      "True": 7672,
      "sufficiently": 7673,
      "Trad": 7674,
      "photograph": 7675,
      "achieves": 7676,
      "fragility": 7677,
      "difficult": 7678,
      "ambiguity": 7679,
      "recursion": 7680,
      "rationale": 7681,
      "phenomenon": 7682,
      "poorly": 7683,
      "munic": 7684,
      "Delta": 7685,
      "Destination": 7686,
      "svg": 7687,
      "weakest": 7688,
      "AU": 7689,
      "FS": 7690,
      "IV": 7691,
      "MP": 7692,
      "Sup": 7693,
      "Zh": 7694,
      "epoch": 7695,
      "iew": 7696,
      "rhy": 7697,
      "ene": 7698,
      "orts": 7699,
      "rol": 7700,
      "chose": 7701,
      "nostic": 7702,
      "urious": 7703,
      "spurious": 7704,
      "shi": 7705,
      "ops": 7706,
      "imply": 7707,
      "drives": 7708,
      "fixes": 7709,
      "receive": 7710,
      "sequential": 7711,
      "197": 7712,
      "warf": 7713,
      "tradeoff": 7714,
      "evolving": 7715,
      "ilingual": 7716,
      "performed": 7717,
      "residuals": 7718,
      "cuts": 7719,
      "informative": 7720,
      "flawed": 7721,
      "valuation": 7722,
      "inherits": 7723,
      "summaries": 7724,
      "acceleration": 7725,
      "inventory": 7726,
      "resilience": 7727,
      "recomputes": 7728,
      "refuted": 7729,
      "Furthermore": 7730,
      "69": 7731,
      "Black": 7732,
      "DNS": 7733,
      "Gree": 7734,
      "Non": 7735,
      "WP": 7736,
      "_grade": 7737,
      "emotion": 7738,
      "pancy": 7739,
      "scre": 7740,
      "tain": 7741,
      "semi": 7742,
      "unpredictable": 7743,
      "illusion": 7744,
      "vibes": 7745,
      "serial": 7746,
      "creep": 7747,
      "minutes": 7748,
      "searches": 7749,
      "suggestion": 7750,
      "knowing": 7751,
      "Retri": 7752,
      "presents": 7753,
      "missions": 7754,
      "standards": 7755,
      "policies": 7756,
      "witnessed": 7757,
      "declare": 7758,
      "pushes": 7759,
      "analyze": 7760,
      "characteristics": 7761,
      "relationships": 7762,
      "USDC": 7763,
      "register": 7764,
      "skills": 7765,
      "Planner": 7766,
      "sider": 7767,
      "ambiguous": 7768,
      "conservative": 7769,
      "symmetry": 7770,
      "rendering": 7771,
      "recommendations": 7772,
      "convexity": 7773,
      "entailment": 7774,
      "boolean": 7775,
      "accretion": 7776,
      "DE": 7777,
      "MT": 7778,
      "ZK": 7779,
      "lambda": 7780,
      "ml": 7781,
      "vouch": 7782,
      "inversion": 7783,
      "icts": 7784,
      "roles": 7785,
      "defe": 7786,
      "proxim": 7787,
      "conversion": 7788,
      "expose": 7789,
      "approved": 7790,
      "olt": 7791,
      "weap": 7792,
      "imm": 7793,
      "tric": 7794,
      "stron": 7795,
      "canary": 7796,
      "geophys": 7797,
      "**,": 7798,
      "2004": 7799,
      "cording": 7800,
      "pretending": 7801,
      "obvious": 7802,
      "specifications": 7803,
      "timeline": 7804,
      "builds": 7805,
      "versity": 7806,
      "forever": 7807,
      "approval": 7808,
      "breach": 7809,
      "classic": 7810,
      "poster": 7811,
      "choosing": 7812,
      "partner": 7813,
      "largest": 7814,
      "collapsed": 7815,
      "127": 7816,
      "amplit": 7817,
      "targeting": 7818,
      "modules": 7819,
      "2607": 7820,
      "honestly": 7821,
      "gmented": 7822,
      "facing": 7823,
      "exploitation": 7824,
      "pulse": 7825,
      "widening": 7826,
      "mutation": 7827,
      "interested": 7828,
      "predictions": 7829,
      "Optim": 7830,
      "Opportunity": 7831,
      "definitions": 7832,
      "materials": 7833,
      "Work": 7834,
      "regularization": 7835,
      "incorporate": 7836,
      "analyzed": 7837,
      "surrounding": 7838,
      "retrieved": 7839,
      "ublish": 7840,
      "comfortable": 7841,
      "Otherwise": 7842,
      "slightly": 7843,
      "systematically": 7844,
      "procurement": 7845,
      "94": 7846,
      "CT": 7847,
      "Yes": 7848,
      "bility": 7849,
      "cultural": 7850,
      "eleg": 7851,
      "echo": 7852,
      "jet": 7853,
      "incorrect": 7854,
      "ortion": 7855,
      "ents": 7856,
      "letting": 7857,
      "device": 7858,
      "profit": 7859,
      "verifies": 7860,
      "adj": 7861,
      "strings": 7862,
      "outure": 7863,
      "called": 7864,
      "soil": 7865,
      "interference": 7866,
      "curv": 7867,
      "needing": 7868,
      "expired": 7869,
      "absorption": 7870,
      "subset": 7871,
      "validating": 7872,
      "save": 7873,
      "templates": 7874,
      "home": 7875,
      "relied": 7876,
      "filtr": 7877,
      "suppression": 7878,
      "Hotel": 7879,
      "airframe": 7880,
      "tradition": 7881,
      "discard": 7882,
      "linked": 7883,
      "triggering": 7884,
      "demonstrated": 7885,
      "Span": 7886,
      "Ship": 7887,
      "helps": 7888,
      "aij": 7889,
      "labels": 7890,
      "Network": 7891,
      "awareness": 7892,
      "frozen_grade": 7893,
      "recognize": 7894,
      "repeat": 7895,
      "tensor": 7896,
      "belongs": 7897,
      "pruning": 7898,
      "ceremony": 7899,
      "Multilingual": 7900,
      "Receipt": 7901,
      "sweep": 7902,
      "6v1": 7903,
      "Di": 7904,
      "Sof": 7905,
      "WE": 7906,
      "aque": 7907,
      "gi": 7908,
      "encoding": 7909,
      "ange": 7910,
      "ionian": 7911,
      "leaf": 7912,
      "ilation": 7913,
      "ilities": 7914,
      "mp3": 7915,
      "unverified": 7916,
      "quas": 7917,
      "opin": 7918,
      "workloads": 7919,
      "haz": 7920,
      "upcoming": 7921,
      "disagreement": 7922,
      "decar": 7923,
      "laun": 7924,
      "streaming": 7925,
      "suppress": 7926,
      "choices": 7927,
      "implementing": 7928,
      "developed": 7929,
      "settled": 7930,
      "maintains": 7931,
      "volatile": 7932,
      "faced": 7933,
      "iee": 7934,
      "periodic": 7935,
      "bypasses": 7936,
      "Second": 7937,
      "ppage": 7938,
      "timestamped": 7939,
      "Engine": 7940,
      "replacing": 7941,
      "circulation": 7942,
      "accurately": 7943,
      "aerosol": 7944,
      "oscillation": 7945,
      "Specifically": 7946,
      "discrepancy": 7947,
      "General": 7948,
      "browser": 7949,
      "perceived": 7950,
      "Type": 7951,
      "slippage": 7952,
      "neighbor": 7953,
      "assembly": 7954,
      "intrins": 7955,
      ")`": 7956,
      "4v1": 7957,
      "A3": 7958,
      "Cal": 7959,
      "Ed": 7960,
      "Ga": 7961,
      "Her": 7962,
      "IR": 7963,
      "Ke": 7964,
      "OT": 7965,
      "Out": 7966,
      "Pred": 7967,
      "Pers": 7968,
      "Tay": 7969,
      "TEE": 7970,
      "cab": 7971,
      "fiction": 7972,
      "gith": 7973,
      "pays": 7974,
      "v4": 7975,
      "insurance": 7976,
      "rect": 7977,
      "degrade": 7978,
      "seven": 7979,
      "coal": 7980,
      "mete": 7981,
      "unde": 7982,
      "immedi": 7983,
      "trial": 7984,
      "shallow": 7985,
      "comparing": 7986,
      "tia": 7987,
      "feas": 7988,
      "claw": 7989,
      "speculative": 7990,
      "strain": 7991,
      "straight": 7992,
      "monit": 7993,
      "velength": 7994,
      "items": 7995,
      "whoever": 7996,
      "scaff": 7997,
      "cleared": 7998,
      "designs": 7999,
      "trustworth": 8000,
      "collateral": 8001,
      "Relying": 8002,
      "scoped": 8003,
      "refresh": 8004,
      "matched": 8005,
      "frequently": 8006,
      "limitation": 8007,
      "ratios": 8008,
      "angular": 8009,
      "relational": 8010,
      "followed": 8011,
      "lightweight": 8012,
      "consistently": 8013,
      "investigate": 8014,
      "ESS": 8015,
      "forecasts": 8016,
      "Trust": 8017,
      "executes": 8018,
      "calculus": 8019,
      "sounds": 8020,
      "weekly": 8021,
      "emitter": 8022,
      "inertia": 8023,
      "reflects": 8024,
      "announ": 8025,
      "spectroscopic": 8026,
      "easily": 8027,
      "wrapper": 8028,
      "aviation": 8029,
      "scrut": 8030,
      "renewable": 8031,
      "professional": 8032,
      "Micro": 8033,
      "curvature": 8034,
      "github": 8035,
      "BO": 8036,
      "Dy": 8037,
      "Eco": 8038,
      "GR": 8039,
      "Gre": 8040,
      "Grow": 8041,
      "IA": 8042,
      "Lat": 8043,
      "Min": 8044,
      "PV": 8045,
      "Sur": 8046,
      "VL": 8047,
      "bund": 8048,
      "mine": 8049,
      "vite": 8050,
      "inction": 8051,
      "reloc": 8052,
      "encode": 8053,
      "entities": 8054,
      "chip": 8055,
      "proceed": 8056,
      "iding": 8057,
      "trick": 8058,
      "opportunities": 8059,
      "opaque": 8060,
      "ferent": 8061,
      "clim": 8062,
      "worked": 8063,
      "2008": 8064,
      "portable": 8065,
      "marketplace": 8066,
      "planets": 8067,
      "processor": 8068,
      "members": 8069,
      "stuck": 8070,
      "primarily": 8071,
      "wavelength": 8072,
      "reachability": 8073,
      "arent": 8074,
      "continuum": 8075,
      "modification": 8076,
      "technically": 8077,
      "statistically": 8078,
      "satur": 8079,
      "analytical": 8080,
      "implications": 8081,
      "characterized": 8082,
      "indicate": 8083,
      "drawdown": 8084,
      "supervised": 8085,
      "executing": 8086,
      "Aug": 8087,
      "morning": 8088,
      "hallucinations": 8089,
      "coordinates": 8090,
      "galactic": 8091,
      "principl": 8092,
      "decidable": 8093,
      "asymmetric": 8094,
      "recognition": 8095,
      "severity": 8096,
      "secrets": 8097,
      "candidates": 8098,
      "biological": 8099,
      "Summary": 8100,
      "privilege": 8101,
      "double": 8102,
      "belief": 8103,
      "consider": 8104,
      "hurdle": 8105,
      "homogeneous": 8106,
      "January": 8107,
      "passenger": 8108,
      "GitHub": 8109,
      "cumulative": 8110,
      "25519": 8111,
      "After": 8112,
      "weapon": 8113,
      "Spanish": 8114,
      "Taylor": 8115,
      "meteor": 8116,
      ",'": 8117,
      "93": 8118,
      "All": 8119,
      "BH": 8120,
      "GN": 8121,
      "Ko": 8122,
      "Lag": 8123,
      "Medit": 8124,
      "Port": 8125,
      "couple": 8126,
      "fero": 8127,
      "gar": 8128,
      "rist": 8129,
      "situ": 8130,
      "reverse": 8131,
      "ali": 8132,
      "ching": 8133,
      "cember": 8134,
      "agnostic": 8135,
      "apart": 8136,
      "advis": 8137,
      "imbalance": 8138,
      "spir": 8139,
      "shares": 8140,
      "ayer": 8141,
      "steering": 8142,
      "parsing": 8143,
      "2012": 8144,
      "assini": 8145,
      "servers": 8146,
      "descent": 8147,
      "dispatch": 8148,
      "obsess": 8149,
      "ritual": 8150,
      "errane": 8151,
      "commits": 8152,
      "reliably": 8153,
      "Moving": 8154,
      "refuse": 8155,
      "denomin": 8156,
      "separates": 8157,
      "thresholds": 8158,
      "Agentic": 8159,
      "December": 8160,
      "publishing": 8161,
      "anchoring": 8162,
      "generalization": 8163,
      "indicators": 8164,
      "hoping": 8165,
      "irect": 8166,
      "mortem": 8167,
      "flagged": 8168,
      "calculating": 8169,
      "Level": 8170,
      "satisfies": 8171,
      "fills": 8172,
      "teams": 8173,
      "inherit": 8174,
      "transparent": 8175,
      "drifts": 8176,
      "photons": 8177,
      "ligible": 8178,
      "thermodynamic": 8179,
      "Valid": 8180,
      "Check": 8181,
      "relaxation": 8182,
      "orthogonal": 8183,
      "dispersion": 8184,
      "proximity": 8185,
      "Mediterrane": 8186,
      "Mediterranean": 8187,
      ".*": 8188,
      "43": 8189,
      "Put": 8190,
      "Pay": 8191,
      "UT": 8192,
      "Zero": 8193,
      "aesthe": 8194,
      "blog": 8195,
      "eity": 8196,
      "fers": 8197,
      "hic": 8198,
      "hund": 8199,
      "mm": 8200,
      "zo": 8201,
      "annot": 8202,
      "robot": 8203,
      "roots": 8204,
      "ctic": 8205,
      "child": 8206,
      "rad": 8207,
      "prox": 8208,
      "spaces": 8209,
      "shake": 8210,
      "plate": 8211,
      "izable": 8212,
      "compreh": 8213,
      "thern": 8214,
      "phan": 8215,
      "archives": 8216,
      "prune": 8217,
      "implied": 8218,
      "gency": 8219,
      "highlight": 8220,
      "curated": 8221,
      "bruary": 8222,
      "ictory": 8223,
      "mult": 8224,
      "facts": 8225,
      "released": 8226,
      "determinism": 8227,
      "preventing": 8228,
      "hashes": 8229,
      "letter": 8230,
      "grounded": 8231,
      "bugs": 8232,
      "consent": 8233,
      "puls": 8234,
      "bands": 8235,
      "carrying": 8236,
      "container": 8237,
      "lagging": 8238,
      "diagram": 8239,
      "sitting": 8240,
      "Sol4": 8241,
      "February": 8242,
      "replaces": 8243,
      "circular": 8244,
      "smarter": 8245,
      "Platform": 8246,
      "thousand": 8247,
      "Develop": 8248,
      "tidal": 8249,
      "families": 8250,
      "adjac": 8251,
      "73": 8252,
      "DL": 8253,
      "Dior": 8254,
      "Fut": 8255,
      "Live": 8256,
      "MC": 8257,
      "Pho": 8258,
      "Sing": 8259,
      "Sto": 8260,
      "Saij": 8261,
      "UK": 8262,
      "Whe": 8263,
      "Wang": 8264,
      "](": 8265,
      "je": 8266,
      "lumin": 8267,
      "psy": 8268,
      "inverse": 8269,
      "invoice": 8270,
      "reaction": 8271,
      "retraction": 8272,
      "stro": 8273,
      "alt": 8274,
      "meters": 8275,
      "moat": 8276,
      "consolid": 8277,
      "convolution": 8278,
      "oles": 8279,
      "intact": 8280,
      "actors": 8281,
      "lio": 8282,
      "fiber": 8283,
      "gradual": 8284,
      "distortion": 8285,
      "capex": 8286,
      "ideal": 8287,
      "bright": 8288,
      "variation": 8289,
      "lang": 8290,
      "addressing": 8291,
      "More": 8292,
      "spectra": 8293,
      "schemes": 8294,
      "ought": 8295,
      "predictability": 8296,
      "caller": 8297,
      "determines": 8298,
      "estimated": 8299,
      "Promp": 8300,
      "norm": 8301,
      "packets": 8302,
      "analyst": 8303,
      "selective": 8304,
      "simulated": 8305,
      "counterfactual": 8306,
      "masks": 8307,
      "ETF": 8308,
      "detailed": 8309,
      "discussed": 8310,
      "Interest": 8311,
      "styl": 8312,
      "watching": 8313,
      "laboratory": 8314,
      "inspection": 8315,
      "Mi4": 8316,
      "--------": 8317,
      "majority": 8318,
      "principal": 8319,
      "alerts": 8320,
      "anomal": 8321,
      "heterogeneous": 8322,
      "compatible": 8323,
      "political": 8324,
      "administ": 8325,
      "amplitude": 8326,
      "immediately": 8327,
      "hundred": 8328,
      "Saijiki": 8329,
      "62": 8330,
      "AE": 8331,
      "Based": 8332,
      "Fed": 8333,
      "element": 8334,
      "flying": 8335,
      "flips": 8336,
      "lift": 8337,
      "national": 8338,
      "inser": 8339,
      "repl": 8340,
      "removed": 8341,
      "ert": 8342,
      "entries": 8343,
      "asure": 8344,
      "coded": 8345,
      "ramp": 8346,
      "vehic": 8347,
      "id_": 8348,
      "notifications": 8349,
      "quo": 8350,
      "territ": 8351,
      "terrain": 8352,
      "comments": 8353,
      "paraph": 8354,
      "prefer": 8355,
      "Intern": 8356,
      "grace": 8357,
      "extinction": 8358,
      "decentral": 8359,
      "surge": 8360,
      "backed": 8361,
      "effectiveness": 8362,
      "seeking": 8363,
      "sensors": 8364,
      "semantically": 8365,
      "linearly": 8366,
      "projections": 8367,
      "cleaner": 8368,
      "Energy": 8369,
      "arguing": 8370,
      "budgets": 8371,
      "publication": 8372,
      "reconcil": 8373,
      "inductive": 8374,
      "conversational": 8375,
      "chronous": 8376,
      "registration": 8377,
      "timescal": 8378,
      "participation": 8379,
      "converts": 8380,
      "exploration": 8381,
      "NOT": 8382,
      "Control": 8383,
      "audience": 8384,
      "Platforms": 8385,
      "Invitations": 8386,
      "polarization": 8387,
      "ElizaOS": 8388,
      "damage": 8389,
      "kinematic": 8390,
      "rhyth": 8391,
      "scrutiny": 8392,
      "proxies": 8393,
      "55": 8394,
      "Ab": 8395,
      "Fra": 8396,
      "HTT": 8397,
      "Kel": 8398,
      "Met": 8399,
      "UTC": 8400,
      "WS": 8401,
      "eing": 8402,
      "gold": 8403,
      "ky": 8404,
      "rations": 8405,
      "sink": 8406,
      "wire": 8407,
      "inu": 8408,
      "inish": 8409,
      "thered": 8410,
      "anp2": 8411,
      "editing": 8412,
      "asury": 8413,
      "cores": 8414,
      "chao": 8415,
      "behave": 8416,
      "mentions": 8417,
      "imaging": 8418,
      "plain": 8419,
      "plasma": 8420,
      "ecc": 8421,
      "usage": 8422,
      "renders": 8423,
      "kept": 8424,
      "logically": 8425,
      "odds": 8426,
      "twin": 8427,
      "clever": 8428,
      "handover": 8429,
      "ventions": 8430,
      "maker": 8431,
      "scopy": 8432,
      "termination": 8433,
      "terminates": 8434,
      "equally": 8435,
      "probable": 8436,
      "therefore": 8437,
      "China": 8438,
      "diminish": 8439,
      "approximate": 8440,
      "reviews": 8441,
      "Markov": 8442,
      "booking": 8443,
      "characterize": 8444,
      "investig": 8445,
      "categories": 8446,
      "Syn": 8447,
      "negligible": 8448,
      "hollow": 8449,
      "preserving": 8450,
      "executable": 8451,
      "bottom": 8452,
      "acceptance": 8453,
      "Book": 8454,
      "CVSS": 8455,
      "RSVPs": 8456,
      "examples": 8457,
      "rapidly": 8458,
      "intervals": 8459,
      "combining": 8460,
      "CMB": 8461,
      "sharpest": 8462,
      "middleware": 8463,
      "permissions": 8464,
      "evaporates": 8465,
      "contradiction": 8466,
      "scarcity": 8467,
      "clusive": 8468,
      "criterion": 8469,
      "intermittency": 8470,
      "lazy": 8471,
      "emerge": 8472,
      "deficit": 8473,
      "intrinsic": 8474,
      "chaotic": 8475,
      "Att": 8476,
      "CR": 8477,
      "FAA": 8478,
      "Oper": 8479,
      "RO": 8480,
      "cul": 8481,
      "email": 8482,
      "lad": 8483,
      "living": 8484,
      "pite": 8485,
      "slip": 8486,
      "tighter": 8487,
      "v0": 8488,
      "revision": 8489,
      "alloc": 8490,
      "radial": 8491,
      "unrefuted": 8492,
      "neto": 8493,
      "complic": 8494,
      "derives": 8495,
      "workaround": 8496,
      "interactive": 8497,
      "depending": 8498,
      "ffect": 8499,
      "dump": 8500,
      "tice": 8501,
      "overfitting": 8502,
      "override": 8503,
      "missed": 8504,
      "hotel": 8505,
      "dynamically": 8506,
      "supports": 8507,
      "probably": 8508,
      "instances": 8509,
      "landed": 8510,
      "mandatory": 8511,
      "APIs": 8512,
      "clustering": 8513,
      "wavelet": 8514,
      "consumes": 8515,
      "RSS": 8516,
      "dictate": 8517,
      "Art": 8518,
      "sharper": 8519,
      "arrival": 8520,
      "experts": 8521,
      "comparable": 8522,
      "winners": 8523,
      "tightening": 8524,
      "Lukitun": 8525,
      "diversification": 8526,
      "chatbots": 8527,
      "POST": 8528,
      "revealed": 8529,
      "benefits": 8530,
      "binds": 8531,
      "RTX": 8532,
      "vanishes": 8533,
      "Tools": 8534,
      "acknowledge": 8535,
      "redundant": 8536,
      "sovereignty": 8537,
      "formula": 8538,
      "amendment": 8539,
      "niche": 8540,
      "bifurcation": 8541,
      "asynchronous": 8542,
      "habit": 8543,
      "Review": 8544,
      "\"—": 8545,
      "83": 8546,
      "Act": 8547,
      "Cache": 8548,
      "Fine": 8549,
      "GA": 8550,
      "Ja": 8551,
      "Log": 8552,
      "Up": 8553,
      "couture": 8554,
      "fare": 8555,
      "gan": 8556,
      "json": 8557,
      "tropical": 8558,
      "wen": 8559,
      "thick": 8560,
      "thed": 8561,
      "enced": 8562,
      "eral": 8563,
      "icate": 8564,
      "rock": 8565,
      "heart": 8566,
      "concurrent": 8567,
      "uty": 8568,
      "utive": 8569,
      "abstain": 8570,
      "agon": 8571,
      "olar": 8572,
      "accommod": 8573,
      "usable": 8574,
      "clin": 8575,
      "prefix": 8576,
      "transit": 8577,
      "translate": 8578,
      "taking": 8579,
      "tense": 8580,
      "ephe": 8581,
      "osity": 8582,
      "integral": 8583,
      "lesion": 8584,
      "ibly": 8585,
      "earns": 8586,
      "filtered": 8587,
      "refuses": 8588,
      "Only": 8589,
      "evolve": 8590,
      "facility": 8591,
      "expectations": 8592,
      "survived": 8593,
      "telling": 8594,
      "detecting": 8595,
      "fallback": 8596,
      "banks": 8597,
      "initi": 8598,
      "positions": 8599,
      "possibility": 8600,
      "naturally": 8601,
      "flags": 8602,
      "cheapest": 8603,
      "sharpen": 8604,
      "arrives": 8605,
      "customers": 8606,
      "falsifiable": 8607,
      "manager": 8608,
      "diagnosis": 8609,
      "yields": 8610,
      "TTL": 8611,
      "galaxies": 8612,
      "stabilize": 8613,
      "escalate": 8614,
      "Observatory": 8615,
      "replicate": 8616,
      "symptom": 8617,
      "JWST": 8618,
      "electricity": 8619,
      "aspect": 8620,
      "necessitates": 8621,
      "philos": 8622,
      "restricted": 8623,
      "Traditional": 8624,
      "Whether": 8625,
      "Cross": 8626,
      "Econom": 8627,
      "Low": 8628,
      "Light": 8629,
      "PF": 8630,
      "QR": 8631,
      "Ret": 8632,
      "Skill": 8633,
      "Times": 8634,
      "Ven": 8635,
      "Wikipedia": 8636,
      "bage": 8637,
      "dwarf": 8638,
      "eight": 8639,
      "unov": 8640,
      "isk": 8641,
      "arc": 8642,
      "told": 8643,
      "leap": 8644,
      "seem": 8645,
      "ceases": 8646,
      "rays": 8647,
      "ifferent": 8648,
      "union": 8649,
      "idio": 8650,
      "aps": 8651,
      "apps": 8652,
      "apunov": 8653,
      "intens": 8654,
      "adjud": 8655,
      "urban": 8656,
      "improving": 8657,
      "spending": 8658,
      "master": 8659,
      "riers": 8660,
      "phr": 8661,
      "umes": 8662,
      "solo": 8663,
      "interconnection": 8664,
      "ffers": 8665,
      "whereas": 8666,
      "oblig": 8667,
      "framed": 8668,
      "timelines": 8669,
      "serving": 8670,
      "ava": 8671,
      "various": 8672,
      "clearing": 8673,
      "designer": 8674,
      "emits": 8675,
      "Anth": 8676,
      "somewhere": 8677,
      "viscos": 8678,
      "stood": 8679,
      "2503": 8680,
      "Consider": 8681,
      "efficacy": 8682,
      "releases": 8683,
      "critique": 8684,
      "objection": 8685,
      "mitig": 8686,
      "150": 8687,
      "magic": 8688,
      "magneto": 8689,
      "pending": 8690,
      "aligns": 8691,
      "interpreting": 8692,
      "bypassed": 8693,
      "spatially": 8694,
      "calibrate": 8695,
      "lists": 8696,
      "Auto": 8697,
      "asserted": 8698,
      "routes": 8699,
      "aggregation": 8700,
      "columns": 8701,
      "synchronized": 8702,
      "predicts": 8703,
      "touchstone": 8704,
      "decides": 8705,
      "TCH": 8706,
      "corrupted": 8707,
      "concerns": 8708,
      "stripped": 8709,
      "photon": 8710,
      "merged": 8711,
      "expanding": 8712,
      "orientation": 8713,
      "simplified": 8714,
      "CAPTCH": 8715,
      "sourcing": 8716,
      "advanced": 8717,
      "Lyapunov": 8718,
      "rangian": 8719,
      "html": 8720,
      "Lagrangian": 8721,
      "HTTP": 8722,
      "viscosity": 8723,
      "91": 8724,
      "Cir": 8725,
      "Coupl": 8726,
      "CLI": 8727,
      "FO": 8728,
      "KNO": 8729,
      "Mach": 8730,
      "OD": 8731,
      "SP": 8732,
      "gating": 8733,
      "ium": 8734,
      "pc": 8735,
      "tau": 8736,
      "throw": 8737,
      "revalidation": 8738,
      "reproduce": 8739,
      "repet": 8740,
      "remember": 8741,
      "ona": 8742,
      "enn": 8743,
      "degre": 8744,
      "superi": 8745,
      "suspect": 8746,
      "oll": 8747,
      "imag": 8748,
      "acade": 8749,
      "trillion": 8750,
      "ulating": 8751,
      "compact": 8752,
      "auce": 8753,
      "phone": 8754,
      "forming": 8755,
      "owns": 8756,
      "markers": 8757,
      "minor": 8758,
      "expands": 8759,
      "submission": 8760,
      "costly": 8761,
      "goals": 8762,
      "processed": 8763,
      "distributional": 8764,
      "collusion": 8765,
      "cave": 8766,
      "behaves": 8767,
      "flood": 8768,
      "returned": 8769,
      "composed": 8770,
      "composite": 8771,
      "diffuse": 8772,
      "Process": 8773,
      "join": 8774,
      "careful": 8775,
      "095": 8776,
      "theoretically": 8777,
      "directions": 8778,
      "Arch": 8779,
      "rainfall": 8780,
      "percentage": 8781,
      "corpora": 8782,
      "corporate": 8783,
      "seeded": 8784,
      "Cloud": 8785,
      "flatten": 8786,
      "mixed": 8787,
      "Neural": 8788,
      "spectroscopy": 8789,
      "walked": 8790,
      "dealing": 8791,
      "encoded": 8792,
      "UNKNO": 8793,
      "Ident": 8794,
      "Correct": 8795,
      "Si4": 8796,
      "restriction": 8797,
      "ChatGPT": 8798,
      "Redu": 8799,
      "acknowled": 8800,
      "Running": 8801,
      "sidecar": 8802,
      "automatically": 8803,
      "civilian": 8804,
      "telescope": 8805,
      "trustworthy": 8806,
      "principles": 8807,
      "garbage": 8808,
      "ephemer": 8809,
      "degrees": 8810,
      "superior": 8811,
      "UNKNOWN": 8812,
      "Bl": 8813,
      "Hor": 8814,
      "Lar": 8815,
      "Merk": 8816,
      "Sent": 8817,
      "Yu": 8818,
      "fus": 8819,
      "iver": 8820,
      "kg": 8821,
      "mare": 8822,
      "noun": 8823,
      "sac": 8824,
      "wast": 8825,
      "──": 8826,
      "inqu": 8827,
      "referen": 8828,
      "enable": 8829,
      "enables": 8830,
      "assurance": 8831,
      "meets": 8832,
      "moments": 8833,
      "beats": 8834,
      "concurrency": 8835,
      "uncomfortable": 8836,
      "gebra": 8837,
      "tially": 8838,
      "parate": 8839,
      "2018": 8840,
      "assim": 8841,
      "grain": 8842,
      "disput": 8843,
      "blue": 8844,
      "elf": 8845,
      "Read": 8846,
      "quantity": 8847,
      "visor": 8848,
      "equip": 8849,
      "manageable": 8850,
      "inese": 8851,
      "median": 8852,
      "liquidation": 8853,
      "relevance": 8854,
      "evaluating": 8855,
      "auditor": 8856,
      "authorization": 8857,
      "baselines": 8858,
      "audited": 8859,
      "2601": 8860,
      "Christ": 8861,
      "expectation": 8862,
      "burned": 8863,
      "accessible": 8864,
      "wider": 8865,
      "IDIA": 8866,
      "smoothed": 8867,
      "Auth": 8868,
      "initialization": 8869,
      "Track": 8870,
      "scription": 8871,
      "arbiter": 8872,
      "Beyond": 8873,
      "Guard": 8874,
      "propagate": 8875,
      "symbolon": 8876,
      "assistants": 8877,
      "Benchmark": 8878,
      "ENT": 8879,
      "valuable": 8880,
      "enterprise": 8881,
      "Content": 8882,
      "helpful": 8883,
      "Website": 8884,
      "analyzing": 8885,
      "delete": 8886,
      "guidance": 8887,
      "Invitation": 8888,
      "amplification": 8889,
      "NVIDIA": 8890,
      "convenience": 8891,
      "conventional": 8892,
      "ethical": 8893,
      "navigating": 8894,
      "leaderboard": 8895,
      "assignment": 8896,
      "Retrieval": 8897,
      "International": 8898,
      "Merkle": 8899,
      "/.": 8900,
      "52": 8901,
      "Amer": 8902,
      "CB": 8903,
      "CBM": 8904,
      "Ev": 8905,
      "Ha": 8906,
      "Long": 8907,
      "Sa": 8908,
      "Sun": 8909,
      "VAL": 8910,
      "^-": 8911,
      "bare": 8912,
      "eu": 8913,
      "git": 8914,
      "mt": 8915,
      "nv": 8916,
      "sen": 8917,
      "tune": 8918,
      "recall": 8919,
      "orter": 8920,
      "ed25519": 8921,
      "ros": 8922,
      "dex": 8923,
      "agnetic": 8924,
      "uler": 8925,
      "opacity": 8926,
      "indices": 8927,
      "extends": 8928,
      "disconnected": 8929,
      "creative": 8930,
      "stateful": 8931,
      "overall": 8932,
      "driving": 8933,
      "everywhere": 8934,
      "hands": 8935,
      "handshake": 8936,
      "pathway": 8937,
      "codebase": 8938,
      "attach": 8939,
      "wake": 8940,
      "caus": 8941,
      "suppl": 8942,
      "Context": 8943,
      "carrier": 8944,
      "frequent": 8945,
      "frequencies": 8946,
      "ocation": 8947,
      "continues": 8948,
      "Chinese": 8949,
      "attestations": 8950,
      "parameterization": 8951,
      "evolves": 8952,
      "sats": 8953,
      "pushing": 8954,
      "competence": 8955,
      "Powered": 8956,
      "ASS": 8957,
      "differences": 8958,
      "Lee": 8959,
      "violations": 8960,
      "monthly": 8961,
      "ING": 8962,
      "timestamps": 8963,
      "Solar": 8964,
      "Adap": 8965,
      "rotate": 8966,
      "mixing": 8967,
      "buying": 8968,
      "oscillations": 8969,
      "recoverable": 8970,
      "hydrogen": 8971,
      "nightmare": 8972,
      "azine": 8973,
      "restrial": 8974,
      "thousands": 8975,
      "redundancy": 8976,
      "proposing": 8977,
      "South": 8978,
      "intuition": 8979,
      "tamper": 8980,
      "photographers": 8981,
      "strongest": 8982,
      "posterior": 8983,
      "Green": 8984,
      "meteorological": 8985,
      "Prompt": 8986,
      "territory": 8987,
      "ephemeral": 8988,
      "66": 8989,
      "7v1": 8990,
      "?@": 8991,
      "DT": 8992,
      "Draft": 8993,
      "Rust": 8994,
      "Sil": 8995,
      "Star": 8996,
      "Self": 8997,
      "aversion": 8998,
      "cUx": 8999,
      "cassini": 9000,
      "fly": 9001,
      "fancy": 9002,
      "mount": 9003,
      "ni": 9004,
      "rices": 9005,
      "rings": 9006,
      "slower": 9007,
      "ying": 9008,
      "removes": 9009,
      "encry": 9010,
      "aling": 9011,
      "iscal": 9012,
      "quot": 9013,
      "queness": 9014,
      "arer": 9015,
      "ulus": 9016,
      "tember": 9017,
      "nest": 9018,
      "company": 9019,
      "ippet": 9020,
      "2016": 9021,
      "formulation": 9022,
      "correspon": 9023,
      "Internal": 9024,
      "logged": 9025,
      "discover": 9026,
      "obsc": 9027,
      "matrices": 9028,
      "taken": 9029,
      "realization": 9030,
      "realistic": 9031,
      "solvers": 9032,
      "condens": 9033,
      "layout": 9034,
      "however": 9035,
      "turned": 9036,
      "MoE": 9037,
      "cepts": 9038,
      "scored": 9039,
      "parametric": 9040,
      "postmortem": 9041,
      "implemented": 9042,
      "headline": 9043,
      "maintained": 9044,
      "Weddings": 9045,
      "Stat": 9046,
      "started": 9047,
      "uniqueness": 9048,
      "stacks": 9049,
      "packet": 9050,
      "optional": 9051,
      "holder": 9052,
      "holders": 9053,
      "placed": 9054,
      "halo": 9055,
      "broadening": 9056,
      "compilation": 9057,
      "shoot": 9058,
      "transients": 9059,
      "maximize": 9060,
      "deviations": 9061,
      "accepting": 9062,
      "chatbot": 9063,
      "bullet": 9064,
      "Sustainability": 9065,
      "healthy": 9066,
      "affects": 9067,
      "Indian": 9068,
      "Implement": 9069,
      "criteria": 9070,
      "custody": 9071,
      "Partner": 9072,
      "conducted": 9073,
      "staleness": 9074,
      "September": 9075,
      "proportional": 9076,
      "University": 9077,
      "populations": 9078,
      "refining": 9079,
      "Gaia": 9080,
      "Dynam": 9081,
      "Interesting": 9082,
      "paraphrase": 9083,
      "82": 9084,
      "BVV": 9085,
      "Dr": 9086,
      "F1": 9087,
      "MI": 9088,
      "Mis": 9089,
      "NE": 9090,
      "Ra": 9091,
      "Risk": 9092,
      "SG": 9093,
      "VX": 9094,
      "Wind": 9095,
      "border": 9096,
      "cate": 9097,
      "ko": 9098,
      "kil": 9099,
      "rust": 9100,
      "rical": 9101,
      "slic": 9102,
      "tact": 9103,
      "wipe": 9104,
      "inct": 9105,
      "inbox": 9106,
      "enab": 9107,
      "algebra": 9108,
      "vey": 9109,
      "prohib": 9110,
      "ultim": 9111,
      "terrestrial": 9112,
      "plans": 9113,
      "phases": 9114,
      "2030": 9115,
      "precurs": 9116,
      "interacts": 9117,
      "disagree": 9118,
      "display": 9119,
      "food": 9120,
      "omit": 9121,
      "provable": 9122,
      "decade": 9123,
      "understood": 9124,
      "surpr": 9125,
      "metries": 9126,
      "centro": 9127,
      "localization": 9128,
      "ergod": 9129,
      "official": 9130,
      "earn": 9131,
      "earth": 9132,
      "aperture": 9133,
      "equal": 9134,
      "equiv": 9135,
      "fluency": 9136,
      "Cost": 9137,
      "250": 9138,
      "2510": 9139,
      "2511": 9140,
      "myself": 9141,
      "instabilities": 9142,
      "lending": 9143,
      "payments": 9144,
      "2406": 9145,
      "Chen": 9146,
      "infrared": 9147,
      "personality": 9148,
      "rounds": 9149,
      "futures": 9150,
      "executive": 9151,
      "leaks": 9152,
      "nuances": 9153,
      "hiding": 9154,
      "hides": 9155,
      "weaker": 9156,
      "emergence": 9157,
      "trapped": 9158,
      "picks": 9159,
      "scheduled": 9160,
      "REST": 9161,
      "portfolios": 9162,
      "adjustment": 9163,
      "clients": 9164,
      "95cUx": 9165,
      "anticip": 9166,
      "constructed": 9167,
      "paradox": 9168,
      "embeddings": 9169,
      "B2C": 9170,
      "flexible": 9171,
      "easier": 9172,
      "escalation": 9173,
      "Science": 9174,
      "torque": 9175,
      "exhaustion": 9176,
      "seamless": 9177,
      "forgeable": 9178,
      "disruption": 9179,
      "Council": 9180,
      "redistribution": 9181,
      "quarterly": 9182,
      "opinion": 9183,
      "launched": 9184,
      "denominator": 9185,
      "altitude": 9186,
      "academic": 9187,
      "BVV95cUx": 9188,
      "1D": 9189,
      "A2": 9190,
      "AST": 9191,
      "Bra": 9192,
      "Bet": 9193,
      "Claw": 9194,
      "Day": 9195,
      "Fair": 9196,
      "Java": 9197,
      "MH": 9198,
      "Mig": 9199,
      "Next": 9200,
      "URL": 9201,
      "_mode": 9202,
      "_skew": 9203,
      "glob": 9204,
      "mits": 9205,
      "ny": 9206,
      "r_": 9207,
      "sque": 9208,
      "unob": 9209,
      "wing": 9210,
      "inadvert": 9211,
      "atten": 9212,
      "editor": 9213,
      "sectors": 9214,
      "chase": 9215,
      "nomin": 9216,
      "expres": 9217,
      "spam": 9218,
      "etc": 9219,
      "ultra": 9220,
      "ection": 9221,
      "conting": 9222,
      "contexts": 9223,
      "prev": 9224,
      "premise": 9225,
      "dating": 9226,
      "extend": 9227,
      "interfero": 9228,
      "disclose": 9229,
      "obfus": 9230,
      "approx": 9231,
      "lattice": 9232,
      "useum": 9233,
      "embar": 9234,
      "attached": 9235,
      "Moder": 9236,
      "licity": 9237,
      "2407": 9238,
      "Stage": 9239,
      "Dele": 9240,
      "Proto": 9241,
      "End": 9242,
      "typical": 9243,
      "itudes": 9244,
      "cognition": 9245,
      "destro": 9246,
      "supported": 9247,
      "directional": 9248,
      "emerges": 9249,
      "LoRA": 9250,
      "violates": 9251,
      "kernels": 9252,
      "iterative": 9253,
      "skeptic": 9254,
      "froze": 9255,
      "lensing": 9256,
      "assisted": 9257,
      "authenticated": 9258,
      "B2B2C": 9259,
      "recommendation": 9260,
      "...:": 9261,
      "Super": 9262,
      "leverage": 9263,
      "Ré4": 9264,
      "collaboration": 9265,
      "actuator": 9266,
      "scattering": 9267,
      "title": 9268,
      "technological": 9269,
      "robotics": 9270,
      "August": 9271,
      "advisory": 9272,
      "adjacent": 9273,
      "decentralized": 9274,
      "squee": 9275,
      "CD": 9276,
      "Cry": 9277,
      "Den": 9278,
      "Effect": 9279,
      "Layer": 9280,
      "Mist": 9281,
      "Molt": 9282,
      "Ny": 9283,
      "Saf": 9284,
      "Tok": 9285,
      "Tel": 9286,
      "Vari": 9287,
      "blo": 9288,
      "lint": 9289,
      "ogue": 9290,
      "pile": 9291,
      "rific": 9292,
      "sized": 9293,
      "tone": 9294,
      "ug": 9295,
      "zon": 9296,
      "}`": 9297,
      "孔子": 9298,
      "inations": 9299,
      "resets": 9300,
      "references": 9301,
      "returning": 9302,
      "onboard": 9303,
      "stations": 9304,
      "stages": 9305,
      "icting": 9306,
      "tow": 9307,
      "loan": 9308,
      "forget": 9309,
      "promo": 9310,
      "adi": 9311,
      "admit": 9312,
      "according": 9313,
      "istical": 9314,
      "spreads": 9315,
      "teach": 9316,
      "pole": 9317,
      "ctions": 9318,
      "traders": 9319,
      "traversal": 9320,
      "ipient": 9321,
      "despite": 9322,
      "disappears": 9323,
      "discharge": 9324,
      "overreach": 9325,
      "oversight": 9326,
      "marks": 9327,
      "expires": 9328,
      "countries": 9329,
      "Recommend": 9330,
      "addition": 9331,
      "multiplic": 9332,
      "resolves": 9333,
      "posted": 9334,
      "posture": 9335,
      "2506": 9336,
      "Conne": 9337,
      "formalize": 9338,
      "sampled": 9339,
      "explosion": 9340,
      "issued": 9341,
      "demands": 9342,
      "vulnerabilities": 9343,
      "margins": 9344,
      "evaluation_mode": 9345,
      "guaranteed": 9346,
      "IDE": 9347,
      "investigation": 9348,
      "instrumentation": 9349,
      "usual": 9350,
      "clears": 9351,
      "calculate": 9352,
      "reedom": 9353,
      "discussing": 9354,
      "normalization": 9355,
      "adjusting": 9356,
      "attribute": 9357,
      "deadline": 9358,
      "motor": 9359,
      "importance": 9360,
      "decided": 9361,
      "incentives": 9362,
      "fractional": 9363,
      "glac": 9364,
      "removal": 9365,
      "plug": 9366,
      "regressions": 9367,
      "consciousness": 9368,
      "idempotency": 9369,
      "guided": 9370,
      "Focus": 9371,
      "department": 9372,
      "exoplanet": 9373,
      "shrinks": 9374,
      "qualitative": 9375,
      "custodi": 9376,
      "Field": 9377,
      "declaration": 9378,
      "facilitate": 9379,
      "Automated": 9380,
      "Knowledge": 9381,
      "truncated": 9382,
      "chaos": 9383,
      "abundance": 9384,
      "divergent": 9385,
      "geophysical": 9386,
      "quasi": 9387,
      "hazard": 9388,
      "Future": 9389,
      "stylistic": 9390,
      "Lightning": 9391,
      "sacrific": 9392,
      "Teles": 9393,
      "CL": 9394,
      "Dep": 9395,
      "EV": 9396,
      "FM": 9397,
      "Fix": 9398,
      "Fore": 9399,
      "IG": 9400,
      "Mapping": 9401,
      "Paper": 9402,
      "Temp": 9403,
      "WV": 9404,
      "cached": 9405,
      "hack": 9406,
      "sram": 9407,
      "tro": 9408,
      "优旃": 9409,
      "rev": 9410,
      "react": 9411,
      "coast": 9412,
      "cher": 9413,
      "chunk": 9414,
      "loose": 9415,
      "forbid": 9416,
      "areas": 9417,
      "ustral": 9418,
      "shown": 9419,
      "worry": 9420,
      "optics": 9421,
      "partially": 9422,
      "2010": 9423,
      "2015": 9424,
      "formally": 9425,
      "corrob": 9426,
      "specie": 9427,
      "extending": 9428,
      "desk": 9429,
      "discount": 9430,
      "transcript": 9431,
      "transfers": 9432,
      "curation": 9433,
      "mini": 9434,
      "decays": 9435,
      "expend": 9436,
      "surplus": 9437,
      "country": 9438,
      "lesson": 9439,
      "triage": 9440,
      "classify": 9441,
      "streams": 9442,
      "sensing": 9443,
      "rests": 9444,
      "bites": 9445,
      "maybe": 9446,
      "Char": 9447,
      "opening": 9448,
      "hardest": 9449,
      "averaging": 9450,
      "accessibility": 9451,
      "playing": 9452,
      "sustained": 9453,
      "ISA": 9454,
      "historically": 9455,
      "rewards": 9456,
      "Travel": 9457,
      "degraded": 9458,
      "improvements": 9459,
      "financing": 9460,
      "contributions": 9461,
      "occurred": 9462,
      "enhanced": 9463,
      "Priv": 9464,
      "Premium": 9465,
      "Services": 9466,
      "anomaly": 9467,
      "compensation": 9468,
      "literally": 9469,
      "Galactic": 9470,
      "innovation": 9471,
      "Validation": 9472,
      "aesthetic": 9473,
      "phantom": 9474,
      "globally": 9475,
      "inadvertently": 9476,
      "BTC": 9477,
      "Bank": 9478,
      "CN": 9479,
      "Cu": 9480,
      "Cat": 9481,
      "DB": 9482,
      "During": 9483,
      "Ess": 9484,
      "Emb": 9485,
      "Fabric": 9486,
      "GI": 9487,
      "Make": 9488,
      "PE": 9489,
      "Sm": 9490,
      "She": 9491,
      "Tour": 9492,
      "WF": 9493,
      "bits": 9494,
      "bile": 9495,
      "cam": 9496,
      "drain": 9497,
      "fauce": 9498,
      "freedom": 9499,
      "jur": 9500,
      "tive": 9501,
      "remin": 9502,
      "stiff": 9503,
      "rounding": 9504,
      "destruction": 9505,
      "mel": 9506,
      "noptic": 9507,
      "forger": 9508,
      "aband": 9509,
      "suit": 9510,
      "ides": 9511,
      "idle": 9512,
      "olding": 9513,
      "span": 9514,
      "tethered": 9515,
      "compile": 9516,
      "lide": 9517,
      "opens": 9518,
      "aming": 9519,
      "chance": 9520,
      "Index": 9521,
      "grained": 9522,
      "internet": 9523,
      "interventions": 9524,
      "diam": 9525,
      "discovered": 9526,
      "Who": 9527,
      "obl": 9528,
      "depended": 9529,
      "searching": 9530,
      "brute": 9531,
      "backlog": 9532,
      "claiming": 9533,
      "suggesting": 9534,
      "polite": 9535,
      "receiving": 9536,
      "reflex": 9537,
      "primord": 9538,
      "modulation": 9539,
      "technique": 9540,
      "included": 9541,
      "represented": 9542,
      "Chain": 9543,
      "constit": 9544,
      "lightning": 9545,
      "vuln": 9546,
      "detectors": 9547,
      "impacts": 9548,
      "lifet": 9549,
      "circl": 9550,
      "positioning": 9551,
      "mutual": 9552,
      "USD": 9553,
      "deepest": 9554,
      "ETH": 9555,
      "compilers": 9556,
      "dominance": 9557,
      "orchestrator": 9558,
      "calculated": 9559,
      "violate": 9560,
      "picked": 9561,
      "fluctuation": 9562,
      "rejects": 9563,
      "rejection": 9564,
      "deviates": 9565,
      "touched": 9566,
      "Airport": 9567,
      "guardrails": 9568,
      "farm": 9569,
[...]
