{
  "version": "1.0",
  "truncation": null,
  "padding": null,
  "added_tokens": [
    {
      "id": 0,
      "content": "[UNK]",
      "single_word": false,
      "lstrip": false,
      "rstrip": false,
      "normalized": false,
      "special": true
    },
    {
      "id": 1,
      "content": "[PAD]",
      "single_word": false,
      "lstrip": false,
      "rstrip": false,
      "normalized": false,
      "special": true
    },
    {
      "id": 2,
      "content": "[BOS]",
      "single_word": false,
      "lstrip": false,
      "rstrip": false,
      "normalized": false,
      "special": true
    },
    {
      "id": 3,
      "content": "[EOS]",
      "single_word": false,
      "lstrip": false,
      "rstrip": false,
      "normalized": false,
      "special": true
    }
  ],
  "normalizer": null,
  "pre_tokenizer": {
    "type": "Whitespace"
  },
  "post_processor": null,
  "decoder": null,
  "model": {
    "type": "BPE",
    "dropout": null,
    "unk_token": "[UNK]",
    "continuing_subword_prefix": null,
    "end_of_word_suffix": null,
    "fuse_unk": false,
    "byte_fallback": false,
    "ignore_merges": false,
    "vocab": {
      "[UNK]": 0,
      "[PAD]": 1,
      "[BOS]": 2,
      "[EOS]": 3,
      "!": 4,
      "\"": 5,
      "#": 6,
      "$": 7,
      "%": 8,
      "&": 9,
      "'": 10,
      "(": 11,
      ")": 12,
      "*": 13,
      "+": 14,
      ",": 15,
      "-": 16,
      ".": 17,
      "/": 18,
      "0": 19,
      "1": 20,
      "2": 21,
      "3": 22,
      "4": 23,
      "5": 24,
      "6": 25,
      "7": 26,
      "8": 27,
      "9": 28,
      ":": 29,
      ";": 30,
      "<": 31,
      "=": 32,
      ">": 33,
      "?": 34,
      "@": 35,
      "A": 36,
      "B": 37,
      "C": 38,
      "D": 39,
      "E": 40,
      "F": 41,
      "G": 42,
      "H": 43,
      "I": 44,
      "J": 45,
      "K": 46,
      "L": 47,
      "M": 48,
      "N": 49,
      "O": 50,
      "P": 51,
      "Q": 52,
      "R": 53,
      "S": 54,
      "T": 55,
      "U": 56,
      "V": 57,
      "W": 58,
      "X": 59,
      "Y": 60,
      "Z": 61,
      "[": 62,
      "\\": 63,
      "]": 64,
      "^": 65,
      "_": 66,
      "`": 67,
      "a": 68,
      "b": 69,
      "c": 70,
      "d": 71,
      "e": 72,
      "f": 73,
      "g": 74,
      "h": 75,
      "i": 76,
      "j": 77,
      "k": 78,
      "l": 79,
      "m": 80,
      "n": 81,
      "o": 82,
      "p": 83,
      "q": 84,
      "r": 85,
      "s": 86,
      "t": 87,
      "u": 88,
      "v": 89,
      "w": 90,
      "x": 91,
      "y": 92,
      "z": 93,
      "{": 94,
      "|": 95,
      "}": 96,
      "~": 97,
      "£": 98,
      "¥": 99,
      "§": 100,
      "°": 101,
      "±": 102,
      "²": 103,
      "³": 104,
      "·": 105,
      "¹": 106,
      "»": 107,
      "È": 108,
      "×": 109,
      "Ú": 110,
      "Ü": 111,
      "ß": 112,
      "à": 113,
      "á": 114,
      "ã": 115,
      "ä": 116,
      "å": 117,
      "æ": 118,
      "ç": 119,
      "è": 120,
      "é": 121,
      "ê": 122,
      "ë": 123,
      "ì": 124,
      "í": 125,
      "î": 126,
      "ï": 127,
      "ñ": 128,
      "ó": 129,
      "ô": 130,
      "õ": 131,
      "ö": 132,
      "ù": 133,
      "ú": 134,
      "ü": 135,
      "ý": 136,
      "ā": 137,
      "ă": 138,
      "ć": 139,
      "Č": 140,
      "č": 141,
      "ē": 142,
      "ī": 143,
      "ı": 144,
      "ľ": 145,
      "Ł": 146,
      "ł": 147,
      "ń": 148,
      "ō": 149,
      "Ő": 150,
      "ő": 151,
      "ş": 152,
      "š": 153,
      "ũ": 154,
      "ū": 155,
      "ż": 156,
      "ǎ": 157,
      "ɣ": 158,
      "ɪ": 159,
      "Δ": 160,
      "Θ": 161,
      "Λ": 162,
      "ή": 163,
      "α": 164,
      "β": 165,
      "γ": 166,
      "ε": 167,
      "η": 168,
      "θ": 169,
      "λ": 170,
      "μ": 171,
      "ν": 172,
      "ρ": 173,
      "σ": 174,
      "τ": 175,
      "φ": 176,
      "χ": 177,
      "ω": 178,
      "ב": 179,
      "ה": 180,
      "ז": 181,
      "ם": 182,
      "ע": 183,
      "ר": 184,
      "ש": 185,
      "ת": 186,
      "ᵢ": 187,
      "ἀ": 188,
      "‐": 189,
      "‑": 190,
      "–": 191,
      "—": 192,
      "‘": 193,
      "’": 194,
      "“": 195,
      "”": 196,
      "„": 197,
      "•": 198,
      "…": 199,
      "‰": 200,
      "⁶": 201,
      "⁻": 202,
      "₁": 203,
      "₃": 204,
      "₇": 205,
      "€": 206,
      "₹": 207,
      "←": 208,
      "↑": 209,
      "→": 210,
      "↓": 211,
      "↔": 212,
      "∀": 213,
      "∅": 214,
      "∈": 215,
      "−": 216,
      "∘": 217,
      "∝": 218,
      "∩": 219,
      "≈": 220,
      "≠": 221,
      "≤": 222,
      "≥": 223,
      "≪": 224,
      "⋂": 225,
      "⋃": 226,
      "─": 227,
      "└": 228,
      "├": 229,
      "┤": 230,
      "▶": 231,
      "♪": 232,
      "⚡": 233,
      "✅": 234,
      "✓": 235,
      "✗": 236,
      "✨": 237,
      "❌": 238,
      "⟺": 239,
      "⭐": 240,
      "ⱼ": 241,
      "、": 242,
      "。": 243,
      "《": 244,
      "》": 245,
      "「": 246,
      "」": 247,
      "『": 248,
      "』": 249,
      "あ": 250,
      "い": 251,
      "う": 252,
      "え": 253,
      "お": 254,
      "か": 255,
      "が": 256,
      "き": 257,
      "く": 258,
      "け": 259,
      "げ": 260,
      "こ": 261,
      "さ": 262,
      "し": 263,
      "す": 264,
      "ず": 265,
      "そ": 266,
      "た": 267,
      "だ": 268,
      "ち": 269,
      "っ": 270,
      "つ": 271,
      "づ": 272,
      "て": 273,
      "で": 274,
      "と": 275,
      "ど": 276,
      "な": 277,
      "に": 278,
      "の": 279,
      "は": 280,
      "ば": 281,
      "ぶ": 282,
      "べ": 283,
      "ほ": 284,
      "ぼ": 285,
      "ま": 286,
      "み": 287,
      "め": 288,
      "も": 289,
      "や": 290,
      "よ": 291,
      "ら": 292,
      "り": 293,
      "る": 294,
      "れ": 295,
      "わ": 296,
      "を": 297,
      "ん": 298,
      "ア": 299,
      "ィ": 300,
      "イ": 301,
      "ウ": 302,
      "ェ": 303,
      "エ": 304,
      "オ": 305,
      "ク": 306,
      "グ": 307,
      "ゲ": 308,
      "コ": 309,
      "ゴ": 310,
      "サ": 311,
      "ザ": 312,
      "シ": 313,
      "ジ": 314,
      "ス": 315,
      "ズ": 316,
      "セ": 317,
      "ゼ": 318,
      "ソ": 319,
      "タ": 320,
      "チ": 321,
      "ッ": 322,
      "テ": 323,
      "デ": 324,
      "ト": 325,
      "ド": 326,
      "ナ": 327,
      "ニ": 328,
      "ノ": 329,
      "ハ": 330,
      "バ": 331,
      "パ": 332,
      "フ": 333,
      "プ": 334,
      "ム": 335,
      "ヤ": 336,
      "ュ": 337,
      "ユ": 338,
      "ラ": 339,
      "リ": 340,
      "ル": 341,
      "ロ": 342,
      "ン": 343,
      "・": 344,
      "ー": 345,
      "一": 346,
      "七": 347,
      "万": 348,
      "三": 349,
      "上": 350,
      "下": 351,
      "不": 352,
      "与": 353,
      "丑": 354,
      "且": 355,
      "世": 356,
      "丘": 357,
      "业": 358,
      "东": 359,
      "丢": 360,
      "两": 361,
      "严": 362,
      "丧": 363,
      "个": 364,
      "中": 365,
      "丰": 366,
      "临": 367,
      "为": 368,
      "主": 369,
      "丽": 370,
      "举": 371,
      "么": 372,
      "义": 373,
      "之": 374,
      "乎": 375,
      "乐": 376,
      "乘": 377,
      "乙": 378,
      "也": 379,
      "习": 380,
      "书": 381,
      "乱": 382,
      "了": 383,
      "予": 384,
      "争": 385,
      "事": 386,
      "二": 387,
      "于": 388,
      "云": 389,
      "互": 390,
      "五": 391,
      "些": 392,
      "交": 393,
      "亥": 394,
      "亦": 395,
      "产": 396,
      "享": 397,
      "亲": 398,
      "人": 399,
      "什": 400,
      "仁": 401,
      "仅": 402,
      "今": 403,
      "仍": 404,
      "从": 405,
      "仓": 406,
      "仕": 407,
      "他": 408,
      "付": 409,
      "代": 410,
      "令": 411,
      "以": 412,
      "仪": 413,
      "们": 414,
      "仮": 415,
      "仰": 416,
      "件": 417,
      "价": 418,
      "任": 419,
      "份": 420,
      "休": 421,
      "众": 422,
      "优": 423,
      "伙": 424,
      "会": 425,
      "伞": 426,
      "伟": 427,
      "传": 428,
      "伤": 429,
      "伴": 430,
      "似": 431,
      "但": 432,
      "位": 433,
      "低": 434,
      "住": 435,
      "体": 436,
      "何": 437,
      "作": 438,
      "你": 439,
      "佳": 440,
      "使": 441,
      "來": 442,
      "例": 443,
      "侏": 444,
      "依": 445,
      "価": 446,
      "侧": 447,
      "侯": 448,
      "便": 449,
      "保": 450,
      "信": 451,
      "修": 452,
      "俱": 453,
      "個": 454,
      "們": 455,
      "倒": 456,
      "候": 457,
      "倡": 458,
      "値": 459,
      "倦": 460,
      "值": 461,
      "假": 462,
      "偏": 463,
      "做": 464,
      "停": 465,
      "偶": 466,
      "偿": 467,
      "備": 468,
      "储": 469,
      "傪": 470,
      "傻": 471,
      "像": 472,
      "儒": 473,
      "儿": 474,
      "允": 475,
      "元": 476,
      "充": 477,
      "先": 478,
      "光": 479,
      "免": 480,
      "入": 481,
      "內": 482,
      "全": 483,
      "兩": 484,
      "八": 485,
      "公": 486,
      "六": 487,
      "兮": 488,
      "共": 489,
      "关": 490,
      "兴": 491,
      "其": 492,
      "典": 493,
      "兽": 494,
      "内": 495,
      "円": 496,
      "冈": 497,
      "册": 498,
      "再": 499,
      "写": 500,
      "军": 501,
      "农": 502,
      "决": 503,
      "冻": 504,
      "准": 505,
      "几": 506,
      "出": 507,
      "击": 508,
      "函": 509,
      "分": 510,
      "切": 511,
      "划": 512,
      "列": 513,
      "则": 514,
      "创": 515,
      "初": 516,
      "判": 517,
      "別": 518,
      "利": 519,
      "别": 520,
      "到": 521,
      "制": 522,
      "刷": 523,
      "刻": 524,
      "則": 525,
      "前": 526,
      "剩": 527,
      "創": 528,
      "力": 529,
      "劝": 530,
      "办": 531,
      "功": 532,
      "加": 533,
      "务": 534,
      "动": 535,
      "劳": 536,
      "動": 537,
      "募": 538,
      "勢": 539,
      "包": 540,
      "化": 541,
      "匪": 542,
      "匹": 543,
      "区": 544,
      "十": 545,
      "千": 546,
      "半": 547,
      "协": 548,
      "卑": 549,
      "卒": 550,
      "協": 551,
      "单": 552,
      "南": 553,
      "博": 554,
      "占": 555,
      "卫": 556,
      "危": 557,
      "即": 558,
      "却": 559,
      "卷": 560,
      "历": 561,
      "厌": 562,
      "厚": 563,
      "原": 564,
      "去": 565,
      "县": 566,
      "参": 567,
      "又": 568,
      "友": 569,
      "双": 570,
      "反": 571,
      "发": 572,
      "叔": 573,
      "取": 574,
      "受": 575,
      "变": 576,
      "口": 577,
      "古": 578,
      "句": 579,
      "另": 580,
      "只": 581,
      "叫": 582,
      "可": 583,
      "台": 584,
      "叱": 585,
      "史": 586,
      "叶": 587,
      "号": 588,
      "司": 589,
      "各": 590,
      "合": 591,
      "同": 592,
      "名": 593,
      "后": 594,
      "吐": 595,
      "向": 596,
      "吗": 597,
      "君": 598,
      "吞": 599,
      "否": 600,
      "吧": 601,
      "含": 602,
      "听": 603,
      "吹": 604,
      "吾": 605,
      "告": 606,
      "呢": 607,
      "周": 608,
      "味": 609,
      "呼": 610,
      "命": 611,
      "和": 612,
      "咤": 613,
      "咪": 614,
      "咮": 615,
      "咸": 616,
      "哀": 617,
      "品": 618,
      "哄": 619,
      "哉": 620,
      "响": 621,
      "哪": 622,
      "哲": 623,
      "唐": 624,
      "唯": 625,
      "唱": 626,
      "商": 627,
      "啊": 628,
      "問": 629,
      "善": 630,
      "喊": 631,
      "喜": 632,
      "單": 633,
      "営": 634,
      "喻": 635,
      "嘉": 636,
      "器": 637,
      "噪": 638,
      "囚": 639,
      "四": 640,
      "回": 641,
      "因": 642,
      "团": 643,
      "固": 644,
      "国": 645,
      "图": 646,
      "囿": 647,
      "土": 648,
      "圣": 649,
      "在": 650,
      "地": 651,
      "场": 652,
      "圾": 653,
      "坏": 654,
      "块": 655,
      "坛": 656,
      "垃": 657,
      "型": 658,
      "城": 659,
      "域": 660,
      "基": 661,
      "堂": 662,
      "堪": 663,
      "報": 664,
      "場": 665,
      "堵": 666,
      "塑": 667,
      "塔": 668,
      "境": 669,
      "墙": 670,
      "墨": 671,
      "士": 672,
      "壬": 673,
      "壮": 674,
      "声": 675,
      "売": 676,
      "处": 677,
      "备": 678,
      "変": 679,
      "复": 680,
      "夕": 681,
      "外": 682,
      "多": 683,
      "够": 684,
      "夠": 685,
      "大": 686,
      "天": 687,
      "太": 688,
      "夫": 689,
      "失": 690,
      "头": 691,
      "奇": 692,
      "套": 693,
      "女": 694,
      "好": 695,
      "如": 696,
      "妙": 697,
      "始": 698,
      "姓": 699,
      "姿": 700,
      "威": 701,
      "娈": 702,
      "婉": 703,
      "媾": 704,
      "子": 705,
      "孔": 706,
      "字": 707,
      "存": 708,
      "孟": 709,
      "季": 710,
      "学": 711,
      "它": 712,
      "守": 713,
      "安": 714,
      "完": 715,
      "宏": 716,
      "官": 717,
      "定": 718,
      "宝": 719,
      "实": 720,
      "审": 721,
      "客": 722,
      "室": 723,
      "宫": 724,
      "害": 725,
      "宴": 726,
      "家": 727,
      "容": 728,
      "宽": 729,
      "宿": 730,
      "寇": 731,
      "富": 732,
      "寒": 733,
      "察": 734,
      "實": 735,
      "对": 736,
      "寻": 737,
      "导": 738,
      "寿": 739,
      "封": 740,
      "射": 741,
      "将": 742,
      "專": 743,
      "尊": 744,
      "對": 745,
      "導": 746,
      "小": 747,
      "少": 748,
      "尔": 749,
      "尘": 750,
      "尝": 751,
      "就": 752,
      "尺": 753,
      "尽": 754,
      "尾": 755,
      "局": 756,
      "层": 757,
      "居": 758,
      "屋": 759,
      "展": 760,
      "層": 761,
      "山": 762,
      "岁": 763,
      "岂": 764,
      "峨": 765,
      "崩": 766,
      "嵌": 767,
      "巍": 768,
      "工": 769,
      "巧": 770,
      "差": 771,
      "己": 772,
      "已": 773,
      "巴": 774,
      "市": 775,
      "布": 776,
      "帆": 777,
      "师": 778,
      "帝": 779,
      "带": 780,
      "帮": 781,
      "帶": 782,
      "帷": 783,
      "常": 784,
      "幄": 785,
      "幕": 786,
      "干": 787,
      "平": 788,
      "年": 789,
      "并": 790,
      "幸": 791,
      "幽": 792,
      "广": 793,
      "庄": 794,
      "序": 795,
      "应": 796,
      "底": 797,
      "府": 798,
      "度": 799,
      "座": 800,
      "庭": 801,
      "庶": 802,
      "延": 803,
      "廷": 804,
      "建": 805,
      "开": 806,
      "异": 807,
      "弃": 808,
      "弄": 809,
      "式": 810,
      "弑": 811,
      "引": 812,
      "弟": 813,
      "张": 814,
      "弱": 815,
      "強": 816,
      "强": 817,
      "彌": 818,
      "归": 819,
      "当": 820,
      "形": 821,
      "彩": 822,
      "彼": 823,
      "往": 824,
      "征": 825,
      "径": 826,
      "待": 827,
      "很": 828,
      "律": 829,
      "後": 830,
      "徒": 831,
      "得": 832,
      "從": 833,
      "御": 834,
      "復": 835,
      "微": 836,
      "德": 837,
      "心": 838,
      "必": 839,
      "忍": 840,
      "志": 841,
      "忘": 842,
      "応": 843,
      "快": 844,
      "念": 845,
      "怀": 846,
      "态": 847,
      "怎": 848,
      "怒": 849,
      "思": 850,
      "性": 851,
      "总": 852,
      "息": 853,
      "恰": 854,
      "恶": 855,
      "悖": 856,
      "您": 857,
      "情": 858,
      "惊": 859,
      "惩": 860,
      "想": 861,
      "惹": 862,
      "愁": 863,
      "意": 864,
      "愚": 865,
      "感": 866,
      "愣": 867,
      "愿": 868,
      "態": 869,
      "慢": 870,
      "慣": 871,
      "慧": 872,
      "慰": 873,
      "懂": 874,
      "戈": 875,
      "成": 876,
      "我": 877,
      "或": 878,
      "战": 879,
      "截": 880,
      "户": 881,
      "房": 882,
      "所": 883,
      "手": 884,
      "才": 885,
      "打": 886,
      "扩": 887,
      "扫": 888,
      "扬": 889,
      "扰": 890,
      "扶": 891,
      "批": 892,
      "找": 893,
      "承": 894,
      "技": 895,
      "把": 896,
      "投": 897,
      "抖": 898,
      "抚": 899,
      "护": 900,
      "报": 901,
      "抽": 902,
      "拆": 903,
      "拉": 904,
      "拍": 905,
      "拒": 906,
      "招": 907,
      "拜": 908,
      "拠": 909,
      "择": 910,
      "括": 911,
      "拳": 912,
      "持": 913,
      "指": 914,
      "按": 915,
      "振": 916,
      "捉": 917,
      "捕": 918,
      "损": 919,
      "换": 920,
      "捨": 921,
      "据": 922,
      "授": 923,
      "掉": 924,
      "掌": 925,
      "排": 926,
      "探": 927,
      "接": 928,
      "控": 929,
      "推": 930,
      "描": 931,
      "提": 932,
      "換": 933,
      "握": 934,
      "揭": 935,
      "搜": 936,
      "搬": 937,
      "摆": 938,
      "摇": 939,
      "撑": 940,
      "撞": 941,
      "撤": 942,
      "播": 943,
      "擇": 944,
      "操": 945,
      "擬": 946,
      "支": 947,
      "收": 948,
      "改": 949,
      "攻": 950,
      "放": 951,
      "故": 952,
      "效": 953,
      "敌": 954,
      "敗": 955,
      "教": 956,
      "敢": 957,
      "敬": 958,
      "数": 959,
      "整": 960,
      "敵": 961,
      "文": 962,
      "斋": 963,
      "斗": 964,
      "料": 965,
      "断": 966,
      "斯": 967,
      "新": 968,
      "斷": 969,
      "方": 970,
      "於": 971,
      "施": 972,
      "旁": 973,
      "旃": 974,
      "旅": 975,
      "族": 976,
      "无": 977,
      "日": 978,
      "旧": 979,
      "旨": 980,
      "早": 981,
      "时": 982,
      "明": 983,
      "昏": 984,
      "易": 985,
      "星": 986,
      "映": 987,
      "昭": 988,
      "是": 989,
      "显": 990,
      "時": 991,
      "普": 992,
      "景": 993,
      "智": 994,
      "暗": 995,
      "暴": 996,
      "曰": 997,
      "曲": 998,
      "更": 999,
      "曹": 1000,
      "曾": 1001,
      "替": 1002,
      "最": 1003,
      "會": 1004,
      "有": 1005,
      "服": 1006,
      "望": 1007,
      "朝": 1008,
      "期": 1009,
      "未": 1010,
      "本": 1011,
      "术": 1012,
      "机": 1013,
      "朽": 1014,
      "杀": 1015,
      "权": 1016,
      "杆": 1017,
      "杉": 1018,
      "杏": 1019,
      "材": 1020,
      "村": 1021,
      "条": 1022,
      "来": 1023,
      "杯": 1024,
      "東": 1025,
      "板": 1026,
      "极": 1027,
      "构": 1028,
      "析": 1029,
      "林": 1030,
      "果": 1031,
      "架": 1032,
      "柏": 1033,
      "柔": 1034,
      "柞": 1035,
      "查": 1036,
      "柴": 1037,
      "标": 1038,
      "栈": 1039,
      "栏": 1040,
      "树": 1041,
      "校": 1042,
      "样": 1043,
      "核": 1044,
      "根": 1045,
      "格": 1046,
      "框": 1047,
      "案": 1048,
      "桑": 1049,
      "梁": 1050,
      "检": 1051,
      "楚": 1052,
      "楯": 1053,
      "極": 1054,
      "概": 1055,
      "構": 1056,
      "槛": 1057,
      "標": 1058,
      "模": 1059,
      "樣": 1060,
      "横": 1061,
      "機": 1062,
      "次": 1063,
      "欢": 1064,
      "欲": 1065,
      "歇": 1066,
      "歌": 1067,
      "歓": 1068,
      "止": 1069,
      "正": 1070,
      "此": 1071,
      "步": 1072,
      "武": 1073,
      "歧": 1074,
      "死": 1075,
      "残": 1076,
      "段": 1077,
      "殿": 1078,
      "毋": 1079,
      "母": 1080,
      "每": 1081,
      "比": 1082,
      "民": 1083,
      "气": 1084,
      "氣": 1085,
      "求": 1086,
      "汉": 1087,
      "汝": 1088,
      "決": 1089,
      "汽": 1090,
      "沉": 1091,
      "沒": 1092,
      "沙": 1093,
      "沛": 1094,
      "没": 1095,
      "沧": 1096,
      "河": 1097,
      "油": 1098,
      "治": 1099,
      "沾": 1100,
      "泄": 1101,
      "法": 1102,
      "注": 1103,
      "泰": 1104,
      "洁": 1105,
      "洗": 1106,
      "洛": 1107,
      "活": 1108,
      "派": 1109,
      "流": 1110,
      "测": 1111,
      "浑": 1112,
      "浓": 1113,
      "浮": 1114,
      "海": 1115,
      "消": 1116,
      "涯": 1117,
      "淀": 1118,
      "淋": 1119,
      "淡": 1120,
      "淫": 1121,
      "深": 1122,
      "淳": 1123,
      "混": 1124,
      "清": 1125,
      "済": 1126,
      "渊": 1127,
      "渡": 1128,
      "渴": 1129,
      "游": 1130,
      "湑": 1131,
      "湿": 1132,
      "源": 1133,
      "準": 1134,
      "溯": 1135,
      "滋": 1136,
      "滑": 1137,
      "满": 1138,
      "滤": 1139,
      "漂": 1140,
      "漆": 1141,
      "漏": 1142,
      "演": 1143,
      "漫": 1144,
      "潮": 1145,
      "濡": 1146,
      "火": 1147,
      "灭": 1148,
      "灯": 1149,
      "炫": 1150,
      "点": 1151,
      "為": 1152,
      "烂": 1153,
      "烈": 1154,
      "焉": 1155,
      "無": 1156,
      "然": 1157,
      "煌": 1158,
      "照": 1159,
      "燕": 1160,
      "營": 1161,
      "爬": 1162,
      "爱": 1163,
      "片": 1164,
      "牌": 1165,
      "牡": 1166,
      "物": 1167,
      "特": 1168,
      "状": 1169,
      "犹": 1170,
      "狀": 1171,
      "独": 1172,
      "猎": 1173,
      "獨": 1174,
      "率": 1175,
      "王": 1176,
      "玩": 1177,
      "环": 1178,
      "现": 1179,
      "現": 1180,
      "球": 1181,
      "理": 1182,
      "琴": 1183,
      "環": 1184,
      "瓶": 1185,
      "甚": 1186,
      "生": 1187,
      "產": 1188,
      "用": 1189,
      "田": 1190,
      "由": 1191,
      "画": 1192,
      "界": 1193,
      "留": 1194,
      "番": 1195,
      "當": 1196,
      "疙": 1197,
      "疼": 1198,
      "疾": 1199,
      "病": 1200,
      "瘩": 1201,
      "発": 1202,
      "登": 1203,
      "發": 1204,
      "百": 1205,
      "的": 1206,
      "皆": 1207,
      "皇": 1208,
      "皮": 1209,
      "益": 1210,
      "盖": 1211,
      "盛": 1212,
      "盟": 1213,
      "目": 1214,
      "直": 1215,
      "相": 1216,
      "盾": 1217,
      "看": 1218,
      "真": 1219,
      "着": 1220,
      "矛": 1221,
      "矣": 1222,
      "知": 1223,
      "短": 1224,
      "矮": 1225,
      "矰": 1226,
      "码": 1227,
      "破": 1228,
      "础": 1229,
      "硕": 1230,
      "硬": 1231,
      "确": 1232,
      "碍": 1233,
      "碎": 1234,
      "確": 1235,
      "礎": 1236,
      "示": 1237,
      "礼": 1238,
      "社": 1239,
      "祀": 1240,
      "祋": 1241,
      "神": 1242,
      "祭": 1243,
      "祸": 1244,
      "禁": 1245,
      "福": 1246,
      "离": 1247,
      "禽": 1248,
      "私": 1249,
      "种": 1250,
      "科": 1251,
      "秒": 1252,
      "秦": 1253,
      "秩": 1254,
      "积": 1255,
      "称": 1256,
      "移": 1257,
      "程": 1258,
      "稍": 1259,
      "種": 1260,
      "稽": 1261,
      "穩": 1262,
      "空": 1263,
      "穿": 1264,
      "突": 1265,
      "窃": 1266,
      "立": 1267,
      "竖": 1268,
      "站": 1269,
      "竞": 1270,
      "端": 1271,
      "竹": 1272,
      "笑": 1273,
      "笔": 1274,
      "第": 1275,
      "等": 1276,
      "答": 1277,
      "策": 1278,
      "筹": 1279,
      "签": 1280,
      "简": 1281,
      "算": 1282,
      "管": 1283,
      "箭": 1284,
      "篇": 1285,
      "築": 1286,
      "籍": 1287,
      "类": 1288,
      "粹": 1289,
      "精": 1290,
      "糊": 1291,
      "系": 1292,
      "約": 1293,
      "級": 1294,
      "索": 1295,
      "累": 1296,
      "組": 1297,
      "経": 1298,
      "結": 1299,
      "給": 1300,
      "統": 1301,
      "經": 1302,
      "継": 1303,
      "続": 1304,
      "緣": 1305,
      "縛": 1306,
      "繁": 1307,
      "繞": 1308,
      "繼": 1309,
      "續": 1310,
      "红": 1311,
      "级": 1312,
      "纪": 1313,
      "纯": 1314,
      "纵": 1315,
      "纶": 1316,
      "纷": 1317,
      "线": 1318,
      "组": 1319,
      "细": 1320,
      "终": 1321,
      "经": 1322,
      "结": 1323,
      "给": 1324,
      "绝": 1325,
      "统": 1326,
      "继": 1327,
      "续": 1328,
      "维": 1329,
      "编": 1330,
      "缘": 1331,
      "缛": 1332,
      "缩": 1333,
      "缺": 1334,
      "网": 1335,
      "罔": 1336,
      "罕": 1337,
      "罚": 1338,
      "置": 1339,
      "美": 1340,
      "群": 1341,
      "義": 1342,
      "習": 1343,
      "翼": 1344,
      "耀": 1345,
      "老": 1346,
      "考": 1347,
      "者": 1348,
      "耆": 1349,
      "而": 1350,
      "耳": 1351,
      "聊": 1352,
      "联": 1353,
      "聚": 1354,
      "聪": 1355,
      "股": 1356,
      "肯": 1357,
      "育": 1358,
      "肴": 1359,
      "背": 1360,
      "胡": 1361,
      "胸": 1362,
      "能": 1363,
      "脑": 1364,
      "脚": 1365,
      "脸": 1366,
      "臆": 1367,
      "臣": 1368,
      "自": 1369,
      "至": 1370,
      "致": 1371,
      "與": 1372,
      "舍": 1373,
      "舝": 1374,
      "舞": 1375,
      "良": 1376,
      "色": 1377,
      "艺": 1378,
      "节": 1379,
      "芯": 1380,
      "花": 1381,
      "芾": 1382,
      "苏": 1383,
      "苑": 1384,
      "苗": 1385,
      "苛": 1386,
      "若": 1387,
      "苦": 1388,
      "英": 1389,
      "范": 1390,
      "草": 1391,
      "荒": 1392,
      "荟": 1393,
      "荡": 1394,
      "荫": 1395,
      "落": 1396,
      "著": 1397,
      "葬": 1398,
      "蓬": 1399,
      "蔚": 1400,
      "蕉": 1401,
      "蕹": 1402,
      "薪": 1403,
      "藏": 1404,
      "藤": 1405,
      "虎": 1406,
      "處": 1407,
      "虚": 1408,
      "號": 1409,
      "虽": 1410,
      "蛮": 1411,
      "蜕": 1412,
      "蝴": 1413,
      "蝶": 1414,
      "血": 1415,
      "行": 1416,
      "补": 1417,
      "表": 1418,
      "衰": 1419,
      "袋": 1420,
      "被": 1421,
      "裂": 1422,
      "装": 1423,
      "補": 1424,
      "裡": 1425,
      "西": 1426,
      "要": 1427,
      "覆": 1428,
      "見": 1429,
      "規": 1430,
      "観": 1431,
      "覺": 1432,
      "觀": 1433,
      "见": 1434,
      "观": 1435,
      "规": 1436,
      "视": 1437,
      "觉": 1438,
      "觏": 1439,
      "角": 1440,
      "解": 1441,
      "觥": 1442,
      "触": 1443,
      "言": 1444,
      "計": 1445,
      "討": 1446,
      "記": 1447,
      "設": 1448,
      "許": 1449,
      "訴": 1450,
      "証": 1451,
      "試": 1452,
      "話": 1453,
      "誉": 1454,
      "認": 1455,
      "語": 1456,
      "誤": 1457,
      "說": 1458,
      "説": 1459,
      "誰": 1460,
      "課": 1461,
      "調": 1462,
      "論": 1463,
      "謝": 1464,
      "識": 1465,
      "警": 1466,
      "議": 1467,
      "變": 1468,
      "讓": 1469,
      "计": 1470,
      "认": 1471,
      "让": 1472,
      "训": 1473,
      "议": 1474,
      "记": 1475,
      "讲": 1476,
      "许": 1477,
      "论": 1478,
      "讽": 1479,
      "设": 1480,
      "访": 1481,
      "证": 1482,
      "评": 1483,
      "识": 1484,
      "诉": 1485,
      "诊": 1486,
      "词": 1487,
      "诗": 1488,
      "话": 1489,
      "诞": 1490,
      "该": 1491,
      "语": 1492,
      "诲": 1493,
      "说": 1494,
      "请": 1495,
      "诺": 1496,
      "读": 1497,
      "课": 1498,
      "谁": 1499,
      "调": 1500,
      "谈": 1501,
      "谋": 1502,
      "谏": 1503,
      "谓": 1504,
      "谢": 1505,
      "谬": 1506,
      "谱": 1507,
      "谷": 1508,
      "豆": 1509,
      "象": 1510,
      "貌": 1511,
      "負": 1512,
      "費": 1513,
      "資": 1514,
      "質": 1515,
      "负": 1516,
      "财": 1517,
      "货": 1518,
      "质": 1519,
      "贯": 1520,
      "贱": 1521,
      "贵": 1522,
      "费": 1523,
      "贾": 1524,
      "资": 1525,
      "赋": 1526,
      "赞": 1527,
      "赠": 1528,
      "赤": 1529,
      "走": 1530,
      "起": 1531,
      "越": 1532,
      "趟": 1533,
      "趣": 1534,
      "足": 1535,
      "跑": 1536,
      "跟": 1537,
      "跨": 1538,
      "路": 1539,
      "跳": 1540,
      "践": 1541,
      "身": 1542,
      "較": 1543,
      "輸": 1544,
      "车": 1545,
      "轨": 1546,
      "转": 1547,
      "轮": 1548,
      "软": 1549,
      "轰": 1550,
      "轻": 1551,
      "轼": 1552,
      "载": 1553,
      "辆": 1554,
      "辈": 1555,
      "辉": 1556,
      "辍": 1557,
      "辑": 1558,
      "输": 1559,
      "辔": 1560,
      "辞": 1561,
      "辩": 1562,
      "辰": 1563,
      "边": 1564,
      "辽": 1565,
      "达": 1566,
      "迁": 1567,
      "过": 1568,
      "迎": 1569,
      "运": 1570,
      "近": 1571,
      "还": 1572,
      "这": 1573,
      "进": 1574,
      "远": 1575,
      "连": 1576,
      "述": 1577,
      "追": 1578,
      "退": 1579,
      "送": 1580,
      "适": 1581,
      "选": 1582,
      "透": 1583,
      "递": 1584,
      "逗": 1585,
      "這": 1586,
      "通": 1587,
      "逝": 1588,
      "造": 1589,
      "連": 1590,
      "週": 1591,
      "逻": 1592,
      "遂": 1593,
      "遇": 1594,
      "運": 1595,
      "遍": 1596,
      "過": 1597,
      "道": 1598,
      "達": 1599,
      "遗": 1600,
      "遮": 1601,
      "選": 1602,
      "避": 1603,
      "還": 1604,
      "邊": 1605,
      "邑": 1606,
      "那": 1607,
      "邦": 1608,
      "邪": 1609,
      "邮": 1610,
      "郎": 1611,
      "部": 1612,
      "都": 1613,
      "配": 1614,
      "酒": 1615,
      "酬": 1616,
      "酷": 1617,
      "醒": 1618,
      "采": 1619,
      "里": 1620,
      "重": 1621,
      "野": 1622,
      "量": 1623,
      "金": 1624,
      "錯": 1625,
      "鍵": 1626,
      "钓": 1627,
      "钟": 1628,
      "链": 1629,
      "锁": 1630,
      "锋": 1631,
      "错": 1632,
      "键": 1633,
      "長": 1634,
      "长": 1635,
      "開": 1636,
      "間": 1637,
      "關": 1638,
      "门": 1639,
      "问": 1640,
      "间": 1641,
      "闻": 1642,
      "阅": 1643,
      "阜": 1644,
      "阱": 1645,
      "防": 1646,
      "阳": 1647,
      "阴": 1648,
      "阶": 1649,
      "阻": 1650,
      "阿": 1651,
      "附": 1652,
      "际": 1653,
      "陈": 1654,
      "降": 1655,
      "限": 1656,
      "陕": 1657,
      "陛": 1658,
      "陟": 1659,
      "陣": 1660,
      "险": 1661,
      "陷": 1662,
      "随": 1663,
      "障": 1664,
      "隮": 1665,
      "隱": 1666,
      "难": 1667,
      "雅": 1668,
      "集": 1669,
      "雍": 1670,
      "離": 1671,
      "雨": 1672,
      "需": 1673,
      "震": 1674,
      "露": 1675,
      "青": 1676,
      "静": 1677,
      "靜": 1678,
      "非": 1679,
      "靠": 1680,
      "面": 1681,
      "革": 1682,
      "韩": 1683,
      "音": 1684,
      "頸": 1685,
      "頻": 1686,
      "顆": 1687,
      "題": 1688,
      "類": 1689,
      "顯": 1690,
      "顶": 1691,
      "顷": 1692,
      "顾": 1693,
      "颂": 1694,
      "预": 1695,
      "领": 1696,
      "颈": 1697,
      "频": 1698,
      "颗": 1699,
      "题": 1700,
      "颠": 1701,
      "風": 1702,
      "风": 1703,
      "飘": 1704,
      "飞": 1705,
      "食": 1706,
      "饥": 1707,
      "饮": 1708,
      "馆": 1709,
      "騑": 1710,
      "驅": 1711,
      "驗": 1712,
      "马": 1713,
      "驰": 1714,
      "驶": 1715,
      "驾": 1716,
      "骄": 1717,
      "骋": 1718,
      "验": 1719,
      "骤": 1720,
      "骨": 1721,
      "體": 1722,
      "高": 1723,
      "髡": 1724,
      "鱼": 1725,
      "鲁": 1726,
      "鲜": 1727,
      "鷮": 1728,
      "鸟": 1729,
      "鸡": 1730,
      "鹈": 1731,
      "鹿": 1732,
      "麋": 1733,
      "黄": 1734,
      "默": 1735,
      "點": 1736,
      "齐": 1737,
      "龙": 1738,
      "️": 1739,
      "！": 1740,
      "（": 1741,
      "）": 1742,
      "，": 1743,
      "：": 1744,
      "；": 1745,
      "？": 1746,
      "�": 1747,
      "🌿": 1748,
      "🎤": 1749,
      "🎵": 1750,
      "💳": 1751,
      "📋": 1752,
      "📌": 1753,
      "📚": 1754,
      "📷": 1755,
      "🔊": 1756,
      "🔗": 1757,
      "🔧": 1758,
      "🖖": 1759,
      "🛡": 1760,
      "🛤": 1761,
      "🛰": 1762,
      "🤝": 1763,
      "🤣": 1764,
      "🦋": 1765,
      "🦞": 1766,
      "th": 1767,
      "in": 1768,
      "re": 1769,
      "the": 1770,
      "on": 1771,
      "at": 1772,
      "en": 1773,
      "er": 1774,
      "an": 1775,
      "st": 1776,
      "or": 1777,
      "al": 1778,
      "is": 1779,
      "it": 1780,
      "ing": 1781,
      "ion": 1782,
      "es": 1783,
      "ed": 1784,
      "ic": 1785,
      "ar": 1786,
      "ro": 1787,
      "to": 1788,
      "ou": 1789,
      "ent": 1790,
      "ct": 1791,
      "of": 1792,
      "he": 1793,
      "as": 1794,
      "le": 1795,
      "de": 1796,
      "se": 1797,
      "and": 1798,
      "ation": 1799,
      "co": 1800,
      "ch": 1801,
      "il": 1802,
      "me": 1803,
      "ce": 1804,
      "ra": 1805,
      "no": 1806,
      "ve": 1807,
      "ly": 1808,
      "lo": 1809,
      "if": 1810,
      "for": 1811,
      "ig": 1812,
      "The": 1813,
      "be": 1814,
      "pro": 1815,
      "mo": 1816,
      "ut": 1817,
      "con": 1818,
      "ab": 1819,
      "ver": 1820,
      "that": 1821,
      "ag": 1822,
      "mp": 1823,
      "ity": 1824,
      "un": 1825,
      "su": 1826,
      "ex": 1827,
      "id": 1828,
      "ap": 1829,
      "ol": 1830,
      "not": 1831,
      "int": 1832,
      "we": 1833,
      "ate": 1834,
      "res": 1835,
      "ad": 1836,
      "im": 1837,
      "ur": 1838,
      "ment": 1839,
      "ac": 1840,
      "qu": 1841,
      "tr": 1842,
      "are": 1843,
      "ist": 1844,
      "sp": 1845,
      "ust": 1846,
      "you": 1847,
      "act": 1848,
      "et": 1849,
      "ul": 1850,
      "ay": 1851,
      "te": 1852,
      "sh": 1853,
      "wh": 1854,
      "do": 1855,
      "ure": 1856,
      "ter": 1857,
      "ith": 1858,
      "del": 1859,
      "ive": 1860,
      "ess": 1861,
      "per": 1862,
      "ma": 1863,
      "po": 1864,
      "igh": 1865,
      "iv": 1866,
      "ne": 1867,
      "with": 1868,
      "ical": 1869,
      "str": 1870,
      "model": 1871,
      "can": 1872,
      "but": 1873,
      "rom": 1874,
      "fe": 1875,
      "pl": 1876,
      "from": 1877,
      "ction": 1878,
      "ir": 1879,
      "iz": 1880,
      "ge": 1881,
      "out": 1882,
      "ec": 1883,
      "us": 1884,
      "ign": 1885,
      "ste": 1886,
      "wor": 1887,
      "ine": 1888,
      "comp": 1889,
      "Th": 1890,
      "ow": 1891,
      "ren": 1892,
      "ility": 1893,
      "by": 1894,
      "ding": 1895,
      "li": 1896,
      "ant": 1897,
      "au": 1898,
      "ke": 1899,
      "tra": 1900,
      "agent": 1901,
      "op": 1902,
      "sy": 1903,
      "ific": 1904,
      "ti": 1905,
      "able": 1906,
      "one": 1907,
      "red": 1908,
      "ence": 1909,
      "ri": 1910,
      "fa": 1911,
      "end": 1912,
      "cl": 1913,
      "com": 1914,
      "ts": 1915,
      "ther": 1916,
      "ld": 1917,
      "cal": 1918,
      "If": 1919,
      "oun": 1920,
      "ans": 1921,
      "der": 1922,
      "stru": 1923,
      "um": 1924,
      "ck": 1925,
      "par": 1926,
      "am": 1927,
      "**": 1928,
      "ect": 1929,
      "form": 1930,
      "ev": 1931,
      "work": 1932,
      "ard": 1933,
      "our": 1934,
      "just": 1935,
      "ability": 1936,
      "ain": 1937,
      "this": 1938,
      "ph": 1939,
      "ial": 1940,
      "ill": 1941,
      "sign": 1942,
      "It": 1943,
      "ip": 1944,
      "chan": 1945,
      "stem": 1946,
      "age": 1947,
      "bet": 1948,
      "ass": 1949,
      "cont": 1950,
      "low": 1951,
      "ual": 1952,
      "system": 1953,
      "cor": 1954,
      "whe": 1955,
      "ame": 1956,
      "cy": 1957,
      "ll": 1958,
      "ens": 1959,
      "ble": 1960,
      "20": 1961,
      "ces": 1962,
      "pre": 1963,
      "ers": 1964,
      "This": 1965,
      "ated": 1966,
      "tt": 1967,
      "ies": 1968,
      "bo": 1969,
      "che": 1970,
      "ition": 1971,
      "ight": 1972,
      "arch": 1973,
      "spec": 1974,
      "ary": 1975,
      "ack": 1976,
      "pr": 1977,
      "In": 1978,
      "ance": 1979,
      "struct": 1980,
      "vi": 1981,
      "all": 1982,
      "its": 1983,
      "dat": 1984,
      "est": 1985,
      "log": 1986,
      "so": 1987,
      "du": 1988,
      "ha": 1989,
      "ext": 1990,
      "requ": 1991,
      "ser": 1992,
      "di": 1993,
      "imp": 1994,
      "inter": 1995,
      "fi": 1996,
      "dep": 1997,
      "des": 1998,
      "gra": 1999,
      "ach": 2000,
      "bu": 2001,
      "ations": 2002,
      "up": 2003,
      "tion": 2004,
      "mar": 2005,
      "ates": 2006,
      "man": 2007,
      "does": 2008,
      "dist": 2009,
      "ween": 2010,
      "val": 2011,
      "rent": 2012,
      "between": 2013,
      "cess": 2014,
      "dis": 2015,
      "read": 2016,
      "Wh": 2017,
      "ps": 2018,
      "ise": 2019,
      "than": 2020,
      "fail": 2021,
      "where": 2022,
      "ould": 2023,
      "has": 2024,
      "gen": 2025,
      "ss": 2026,
      "ory": 2027,
      "cap": 2028,
      "high": 2029,
      "ob": 2030,
      "ound": 2031,
      "trans": 2032,
      "mat": 2033,
      "cre": 2034,
      "ta": 2035,
      "cur": 2036,
      "ase": 2037,
      "ind": 2038,
      "ong": 2039,
      "##": 2040,
      "into": 2041,
      "reg": 2042,
      "state": 2043,
      "specific": 2044,
      "ort": 2045,
      "shif": 2046,
      "real": 2047,
      "ef": 2048,
      "gh": 2049,
      "ty": 2050,
      "how": 2051,
      "fra": 2052,
      "data": 2053,
      "time": 2054,
      "ys": 2055,
      "was": 2056,
      "way": 2057,
      "fo": 2058,
      "fun": 2059,
      "ency": 2060,
      "gu": 2061,
      "very": 2062,
      "om": 2063,
      "over": 2064,
      "sel": 2065,
      "dif": 2066,
      "ause": 2067,
      "ural": 2068,
      "line": 2069,
      "sion": 2070,
      "sing": 2071,
      "ot": 2072,
      "ution": 2073,
      "dy": 2074,
      "We": 2075,
      "pres": 2076,
      "test": 2077,
      "ous": 2078,
      "prov": 2079,
      "202": 2080,
      "ors": 2081,
      "only": 2082,
      "ak": 2083,
      "ization": 2084,
      "htt": 2085,
      "depend": 2086,
      "//": 2087,
      "https": 2088,
      "ice": 2089,
      "://": 2090,
      "ich": 2091,
      "dec": 2092,
      "mark": 2093,
      "fl": 2094,
      "ue": 2095,
      "stra": 2096,
      "ating": 2097,
      "ast": 2098,
      "run": 2099,
      "fin": 2100,
      "dow": 2101,
      "cause": 2102,
      "mis": 2103,
      "ics": 2104,
      "ifi": 2105,
      "serv": 2106,
      "pe": 2107,
      "same": 2108,
      "min": 2109,
      "put": 2110,
      "requi": 2111,
      "edding": 2112,
      "self": 2113,
      "more": 2114,
      "ources": 2115,
      "what": 2116,
      "check": 2117,
      "ok": 2118,
      "ree": 2119,
      "have": 2120,
      "sol": 2121,
      "ning": 2122,
      "blem": 2123,
      "because": 2124,
      "gr": 2125,
      "actual": 2126,
      "problem": 2127,
      "exp": 2128,
      "ting": 2129,
      "00": 2130,
      "ari": 2131,
      "under": 2132,
      "thing": 2133,
      "corre": 2134,
      "ide": 2135,
      "point": 2136,
      "need": 2137,
      "mon": 2138,
      "sur": 2139,
      "ident": 2140,
      "signal": 2141,
      "tim": 2142,
      "rit": 2143,
      "they": 2144,
      "scal": 2145,
      "when": 2146,
      "produ": 2147,
      "av": 2148,
      "get": 2149,
      "ile": 2150,
      "these": 2151,
      "You": 2152,
      "gener": 2153,
      "which": 2154,
      "ism": 2155,
      "ject": 2156,
      "ification": 2157,
      "Sources": 2158,
      "mechan": 2159,
      "abs": 2160,
      "diffe": 2161,
      "fect": 2162,
      "buil": 2163,
      "bl": 2164,
      "inte": 2165,
      "search": 2166,
      "org": 2167,
      "br": 2168,
      "eng": 2169,
      "ish": 2170,
      "about": 2171,
      "lat": 2172,
      "tw": 2173,
      "now": 2174,
      "ds": 2175,
      "meas": 2176,
      "sub": 2177,
      "your": 2178,
      "ized": 2179,
      "like": 2180,
      "bas": 2181,
      "ision": 2182,
      "models": 2183,
      "tho": 2184,
      "ris": 2185,
      "tool": 2186,
      "coun": 2187,
      "ace": 2188,
      "ry": 2189,
      "ness": 2190,
      "lay": 2191,
      "ross": 2192,
      "ask": 2193,
      "main": 2194,
      "constra": 2195,
      "port": 2196,
      "will": 2197,
      "comple": 2198,
      "vari": 2199,
      "bound": 2200,
      "tic": 2201,
      "cost": 2202,
      "rou": 2203,
      "metr": 2204,
      "tur": 2205,
      "must": 2206,
      "dr": 2207,
      "set": 2208,
      "cent": 2209,
      "fic": 2210,
      "tre": 2211,
      "rough": 2212,
      "ward": 2213,
      "pos": 2214,
      "without": 2215,
      "valid": 2216,
      "structure": 2217,
      "becom": 2218,
      "aim": 2219,
      "pa": 2220,
      "mov": 2221,
      "ify": 2222,
      "oper": 2223,
      "tern": 2224,
      "rather": 2225,
      "structural": 2226,
      "comm": 2227,
      "ress": 2228,
      "That": 2229,
      "risk": 2230,
      "vers": 2231,
      "fir": 2232,
      "err": 2233,
      "isn": 2234,
      "back": 2235,
      "own": 2236,
      "ribut": 2237,
      "ative": 2238,
      "ator": 2239,
      "ically": 2240,
      "ted": 2241,
      "rence": 2242,
      "el": 2243,
      "sa": 2244,
      "gro": 2245,
      "ature": 2246,
      "vel": 2247,
      "wedding": 2248,
      "appro": 2249,
      "failure": 2250,
      "fore": 2251,
      "When": 2252,
      "gest": 2253,
      "claim": 2254,
      "new": 2255,
      "ful": 2256,
      "temp": 2257,
      "ational": 2258,
      "ures": 2259,
      "mechanism": 2260,
      "through": 2261,
      "ments": 2262,
      "AI": 2263,
      "non": 2264,
      "app": 2265,
      "col": 2266,
      "distribut": 2267,
      "ten": 2268,
      "move": 2269,
      "function": 2270,
      "then": 2271,
      "market": 2272,
      "phys": 2273,
      "stand": 2274,
      "becomes": 2275,
      "itself": 2276,
      "ient": 2277,
      "ason": 2278,
      "who": 2279,
      "hol": 2280,
      "ential": 2281,
      "go": 2282,
      "cannot": 2283,
      "clo": 2284,
      "cle": 2285,
      "actly": 2286,
      "art": 2287,
      "nam": 2288,
      "look": 2289,
      "sc": 2290,
      "istic": 2291,
      "noise": 2292,
      "different": 2293,
      "ced": 2294,
      "cond": 2295,
      "layer": 2296,
      "ep": 2297,
      "local": 2298,
      "xiv": 2299,
      "long": 2300,
      "agents": 2301,
      "comput": 2302,
      "ite": 2303,
      "net": 2304,
      "atch": 2305,
      "every": 2306,
      "sug": 2307,
      "plan": 2308,
      "win": 2309,
      "2026": 2310,
      "suggest": 2311,
      "ict": 2312,
      "optim": 2313,
      "arxiv": 2314,
      "use": 2315,
      "vol": 2316,
      "based": 2317,
      "process": 2318,
      "research": 2319,
      "any": 2320,
      "io": 2321,
      "flow": 2322,
      "exist": 2323,
      "stat": 2324,
      "constraint": 2325,
      "For": 2326,
      "contro": 2327,
      "observ": 2328,
      "mul": 2329,
      "hand": 2330,
      "cer": 2331,
      "sul": 2332,
      "shift": 2333,
      "gap": 2334,
      "design": 2335,
      "actually": 2336,
      "pass": 2337,
      "rely": 2338,
      "remain": 2339,
      "effect": 2340,
      "measure": 2341,
      "eld": 2342,
      "eval": 2343,
      "rece": 2344,
      "pu": 2345,
      "ize": 2346,
      "frame": 2347,
      "see": 2348,
      "add": 2349,
      "wer": 2350,
      "erg": 2351,
      "reason": 2352,
      "pol": 2353,
      "resul": 2354,
      "velo": 2355,
      "action": 2356,
      "sum": 2357,
      "pred": 2358,
      "10": 2359,
      "hard": 2360,
      "two": 2361,
      "la": 2362,
      "trust": 2363,
      "sure": 2364,
      "single": 2365,
      "ible": 2366,
      "side": 2367,
      "distribution": 2368,
      "exec": 2369,
      "itect": 2370,
      "mem": 2371,
      "imple": 2372,
      "provid": 2373,
      "still": 2374,
      "hum": 2375,
      "doesn": 2376,
      "ents": 2377,
      "tri": 2378,
      "integr": 2379,
      "again": 2380,
      "architect": 2381,
      "load": 2382,
      "error": 2383,
      "dire": 2384,
      "ger": 2385,
      "lation": 2386,
      "ber": 2387,
      "und": 2388,
      "les": 2389,
      "most": 2390,
      "prec": 2391,
      ").": 2392,
      "stu": 2393,
      "ives": 2394,
      "Re": 2395,
      "other": 2396,
      "ally": 2397,
      "da": 2398,
      "sequ": 2399,
      "auth": 2400,
      "off": 2401,
      "would": 2402,
      "level": 2403,
      "window": 2404,
      "engine": 2405,
      "em": 2406,
      "verifi": 2407,
      "estion": 2408,
      "fix": 2409,
      "ared": 2410,
      "sem": 2411,
      "independ": 2412,
      "across": 2413,
      "os": 2414,
      "path": 2415,
      "less": 2416,
      "shifts": 2417,
      "lan": 2418,
      "code": 2419,
      "bre": 2420,
      "ew": 2421,
      "against": 2422,
      "oupl": 2423,
      "loop": 2424,
      "--": 2425,
      "current": 2426,
      "down": 2427,
      "transition": 2428,
      "anal": 2429,
      "aper": 2430,
      "context": 2431,
      "led": 2432,
      "ear": 2433,
      "face": 2434,
      "lim": 2435,
      "resp": 2436,
      "v1": 2437,
      "know": 2438,
      "scale": 2439,
      "framework": 2440,
      "coll": 2441,
      "verification": 2442,
      "field": 2443,
      "Xiv": 2444,
      "cu": 2445,
      "quant": 2446,
      "But": 2447,
      "sco": 2448,
      "arXiv": 2449,
      "should": 2450,
      "uring": 2451,
      "human": 2452,
      "toward": 2453,
      "before": 2454,
      "pat": 2455,
      "change": 2456,
      "sim": 2457,
      "receip": 2458,
      "ities": 2459,
      "mak": 2460,
      "Ex": 2461,
      "sist": 2462,
      "ho": 2463,
      "space": 2464,
      "question": 2465,
      "ib": 2466,
      "turn": 2467,
      "graph": 2468,
      "ination": 2469,
      "train": 2470,
      "vir": 2471,
      "multi": 2472,
      "treat": 2473,
      "cus": 2474,
      "cep": 2475,
      "lect": 2476,
      "show": 2477,
      "reli": 2478,
      "ital": 2479,
      "whether": 2480,
      "They": 2481,
      "Mo": 2482,
      "being": 2483,
      "writ": 2484,
      "their": 2485,
      "may": 2486,
      "An": 2487,
      "mass": 2488,
      "lock": 2489,
      "att": 2490,
      "some": 2491,
      "respon": 2492,
      "control": 2493,
      "leg": 2494,
      "cing": 2495,
      "logic": 2496,
      "ref": 2497,
      "break": 2498,
      "ware": 2499,
      "),": 2500,
      "exactly": 2501,
      "ges": 2502,
      "vent": 2503,
      "them": 2504,
      "pattern": 2505,
      "ource": 2506,
      "ink": 2507,
      "syn": 2508,
      "first": 2509,
      "resol": 2510,
      "itive": 2511,
      "ference": 2512,
      "cri": 2513,
      "af": 2514,
      "next": 2515,
      "recor": 2516,
      "tok": 2517,
      "bal": 2518,
      "reasoning": 2519,
      "idence": 2520,
      "fact": 2521,
      "vis": 2522,
      "paper": 2523,
      "formation": 2524,
      "count": 2525,
      "fil": 2526,
      "rop": 2527,
      "termin": 2528,
      "chain": 2529,
      "conf": 2530,
      "network": 2531,
      "ular": 2532,
      "approach": 2533,
      "study": 2534,
      "med": 2535,
      "suggests": 2536,
      "here": 2537,
      "require": 2538,
      "rate": 2539,
      "ero": 2540,
      "spect": 2541,
      "cho": 2542,
      "viron": 2543,
      "part": 2544,
      "while": 2545,
      "correct": 2546,
      "equ": 2547,
      "stead": 2548,
      "ters": 2549,
      "sche": 2550,
      "stre": 2551,
      "output": 2552,
      "right": 2553,
      "direct": 2554,
      "tract": 2555,
      "prim": 2556,
      "fol": 2557,
      ".\"": 2558,
      "tech": 2559,
      "using": 2560,
      "dete": 2561,
      "flu": 2562,
      "ling": 2563,
      "ension": 2564,
      "ran": 2565,
      "environ": 2566,
      "parame": 2567,
      "logy": 2568,
      "To": 2569,
      "task": 2570,
      "manage": 2571,
      "sequence": 2572,
      "receipt": 2573,
      "both": 2574,
      "promp": 2575,
      "ship": 2576,
      "perform": 2577,
      "ner": 2578,
      "class": 2579,
      "dynam": 2580,
      "incre": 2581,
      "sto": 2582,
      "ded": 2583,
      "60": 2584,
      "physical": 2585,
      "post": 2586,
      "plic": 2587,
      "lying": 2588,
      "sup": 2589,
      "iction": 2590,
      "stream": 2591,
      "den": 2592,
      "key": 2593,
      "ines": 2594,
      "30": 2595,
      "publ": 2596,
      "ms": 2597,
      "wa": 2598,
      "reach": 2599,
      "verg": 2600,
      "ift": 2601,
      "num": 2602,
      "map": 2603,
      "redu": 2604,
      "those": 2605,
      "stop": 2606,
      "hold": 2607,
      "execution": 2608,
      "ough": 2609,
      "often": 2610,
      "beha": 2611,
      "plat": 2612,
      "complex": 2613,
      "verify": 2614,
      "better": 2615,
      "present": 2616,
      "remains": 2617,
      "memory": 2618,
      "ped": 2619,
      "Co": 2620,
      "inst": 2621,
      "ca": 2622,
      "platform": 2623,
      "prob": 2624,
      "ergy": 2625,
      "mal": 2626,
      "mission": 2627,
      "systems": 2628,
      "ron": 2629,
      "mental": 2630,
      "ian": 2631,
      "ering": 2632,
      "iven": 2633,
      "lar": 2634,
      "descri": 2635,
      "row": 2636,
      "value": 2637,
      "funda": 2638,
      "Con": 2639,
      "oc": 2640,
      "pay": 2641,
      "ateg": 2642,
      "don": 2643,
      "ven": 2644,
      "my": 2645,
      "metho": 2646,
      "25": 2647,
      "By": 2648,
      "ulation": 2649,
      "ights": 2650,
      "could": 2651,
      "liqu": 2652,
      "training": 2653,
      "version": 2654,
      "tru": 2655,
      "clu": 2656,
      "match": 2657,
      "distin": 2658,
      "allow": 2659,
      "text": 2660,
      "proof": 2661,
      "proper": 2662,
      "car": 2663,
      "xim": 2664,
      "ral": 2665,
      "entially": 2666,
      "len": 2667,
      "lection": 2668,
      "her": 2669,
      "evalu": 2670,
      "logical": 2671,
      "ficient": 2672,
      "behavi": 2673,
      "liquid": 2674,
      "standard": 2675,
      "frequ": 2676,
      "tar": 2677,
      "price": 2678,
      "So": 2679,
      "focus": 2680,
      "ru": 2681,
      "LM": 2682,
      "did": 2683,
      "energy": 2684,
      "requires": 2685,
      "antic": 2686,
      "input": 2687,
      "itor": 2688,
      "ready": 2689,
      "decision": 2690,
      "sed": 2691,
      "order": 2692,
      "wr": 2693,
      "metric": 2694,
      "langu": 2695,
      "deriv": 2696,
      "boundary": 2697,
      "ively": 2698,
      "exper": 2699,
      "view": 2700,
      "ben": 2701,
      "lear": 2702,
      "collap": 2703,
      "wit": 2704,
      "wrong": 2705,
      "moving": 2706,
      "tom": 2707,
      "limit": 2708,
      "oral": 2709,
      "rodu": 2710,
      "weight": 2711,
      "**:": 2712,
      "call": 2713,
      "ves": 2714,
      "als": 2715,
      "try": 2716,
      "independent": 2717,
      "cial": 2718,
      "ases": 2719,
      "never": 2720,
      "abil": 2721,
      "polic": 2722,
      "mean": 2723,
      "sens": 2724,
      "12": 2725,
      "Ag": 2726,
      "eck": 2727,
      "there": 2728,
      "day": 2729,
      "instru": 2730,
      "contin": 2731,
      "tail": 2732,
      "commit": 2733,
      "AP": 2734,
      "architecture": 2735,
      "means": 2736,
      "sett": 2737,
      "crit": 2738,
      "defin": 2739,
      "build": 2740,
      "implement": 2741,
      "vergence": 2742,
      "used": 2743,
      "maint": 2744,
      "within": 2745,
      "19": 2746,
      "already": 2747,
      "come": 2748,
      "ult": 2749,
      "ttlen": 2750,
      "ttleneck": 2751,
      "schema": 2752,
      "ord": 2753,
      "determin": 2754,
      "prompt": 2755,
      "ia": 2756,
      "mach": 2757,
      "bin": 2758,
      "been": 2759,
      "bottleneck": 2760,
      "hardware": 2761,
      "develo": 2762,
      "intern": 2763,
      "introdu": 2764,
      "constraints": 2765,
      "pra": 2766,
      "rest": 2767,
      "nel": 2768,
      "force": 2769,
      "longer": 2770,
      "ses": 2771,
      "author": 2772,
      "event": 2773,
      "metry": 2774,
      "LLM": 2775,
      "predict": 2776,
      "flo": 2777,
      "drift": 2778,
      "ute": 2779,
      "capt": 2780,
      "address": 2781,
      "ysis": 2782,
      "od": 2783,
      "world": 2784,
      "make": 2785,
      "fer": 2786,
      "were": 2787,
      "assu": 2788,
      "brid": 2789,
      "son": 2790,
      "anch": 2791,
      "bit": 2792,
      "aud": 2793,
      "even": 2794,
      "tax": 2795,
      "surface": 2796,
      "ified": 2797,
      "aren": 2798,
      "vit": 2799,
      "amp": 2800,
      "information": 2801,
      "stability": 2802,
      "RA": 2803,
      "mit": 2804,
      "coupl": 2805,
      "linear": 2806,
      "ection": 2807,
      "rele": 2808,
      "lic": 2809,
      "policy": 2810,
      "ime": 2811,
      "mic": 2812,
      "What": 2813,
      "ality": 2814,
      "head": 2815,
      "source": 2816,
      "loy": 2817,
      "hy": 2818,
      "gin": 2819,
      "block": 2820,
      "separ": 2821,
      "second": 2822,
      "feed": 2823,
      "24": 2824,
      "target": 2825,
      "prove": 2826,
      "pri": 2827,
      "sil": 2828,
      "evidence": 2829,
      "ensity": 2830,
      "tal": 2831,
      "manif": 2832,
      "consequence": 2833,
      "changes": 2834,
      "cert": 2835,
      "ices": 2836,
      "consist": 2837,
      "object": 2838,
      "liquidity": 2839,
      "base": 2840,
      "frequency": 2841,
      "shared": 2842,
      "underlying": 2843,
      "building": 2844,
      "each": 2845,
      "moves": 2846,
      "pract": 2847,
      "file": 2848,
      "gram": 2849,
      "lit": 2850,
      "continu": 2851,
      "suc": 2852,
      "ctor": 2853,
      "char": 2854,
      "ivity": 2855,
      "step": 2856,
      "latency": 2857,
      "land": 2858,
      "mod": 2859,
      "ache": 2860,
      "provides": 2861,
      "dra": 2862,
      "ark": 2863,
      "essentially": 2864,
      "astic": 2865,
      "language": 2866,
      "via": 2867,
      "maintain": 2868,
      "ging": 2869,
      "ages": 2870,
      "uc": 2871,
      "party": 2872,
      "during": 2873,
      "sk": 2874,
      "condition": 2875,
      "ifact": 2876,
      "necess": 2877,
      "analysis": 2878,
      "report": 2879,
      "token": 2880,
      "environment": 2881,
      "three": 2882,
      "enti": 2883,
      "hash": 2884,
      "por": 2885,
      "makes": 2886,
      "techn": 2887,
      "account": 2888,
      "15": 2889,
      "inclu": 2890,
      "hist": 2891,
      "til": 2892,
      "result": 2893,
      "uch": 2894,
      "track": 2895,
      "air": 2896,
      "precision": 2897,
      "ail": 2898,
      "partic": 2899,
      "return": 2900,
      "idual": 2901,
      "Ho": 2902,
      "might": 2903,
      "cross": 2904,
      "retri": 2905,
      "answer": 2906,
      "mption": 2907,
      "thres": 2908,
      "capability": 2909,
      "grow": 2910,
      "live": 2911,
      "aging": 2912,
      "pip": 2913,
      "ration": 2914,
      "let": 2915,
      "formal": 2916,
      "artifact": 2917,
      "propos": 2918,
      "ju": 2919,
      "audit": 2920,
      "sm": 2921,
      "ays": 2922,
      "monitor": 2923,
      "mag": 2924,
      "tools": 2925,
      "indust": 2926,
      "truth": 2927,
      "fet": 2928,
      "rat": 2929,
      "fundamental": 2930,
      "zero": 2931,
      "why": 2932,
      "izing": 2933,
      "cache": 2934,
      "sof": 2935,
      "term": 2936,
      "static": 2937,
      "ash": 2938,
      "coord": 2939,
      "mand": 2940,
      "jection": 2941,
      "place": 2942,
      "bi": 2943,
      "agree": 2944,
      "260": 2945,
      "ft": 2946,
      "volat": 2947,
      "semantic": 2948,
      "compute": 2949,
      "cept": 2950,
      "11": 2951,
      "simp": 2952,
      "chmark": 2953,
      "proto": 2954,
      "hone": 2955,
      "tical": 2956,
      "machine": 2957,
      "contract": 2958,
      "verage": 2959,
      "primary": 2960,
      "ax": 2961,
      "found": 2962,
      "weights": 2963,
      "required": 2964,
      "identity": 2965,
      "ese": 2966,
      "edge": 2967,
      "mode": 2968,
      "deploy": 2969,
      "har": 2970,
      "want": 2971,
      "witness": 2972,
      "success": 2973,
      "ple": 2974,
      "needs": 2975,
      "critical": 2976,
      "workflow": 2977,
      "capture": 2978,
      "type": 2979,
      "management": 2980,
      "themat": 2981,
      "trig": 2982,
      "signific": 2983,
      "Un": 2984,
      "systemic": 2985,
      "prevent": 2986,
      "shap": 2987,
      "creates": 2988,
      "record": 2989,
      "ix": 2990,
      "lobal": 2991,
      "trade": 2992,
      "free": 2993,
      "ick": 2994,
      "loss": 2995,
      "ony": 2996,
      "power": 2997,
      "conom": 2998,
      "def": 2999,
      "dig": 3000,
      "modeling": 3001,
      "response": 3002,
      "geo": 3003,
      "open": 3004,
      "honest": 3005,
      "infra": 3006,
      "ground": 3007,
      "ved": 3008,
      "vend": 3009,
      "case": 3010,
      "year": 3011,
      "enough": 3012,
      "secur": 3013,
      "after": 3014,
      "aring": 3015,
      "itional": 3016,
      "reco": 3017,
      "statist": 3018,
      "hall": 3019,
      "jo": 3020,
      "variance": 3021,
      "attest": 3022,
      "matter": 3023,
      "also": 3024,
      "ake": 3025,
      "bro": 3026,
      "too": 3027,
      "small": 3028,
      "property": 3029,
      "happ": 3030,
      "acity": 3031,
      "mathemat": 3032,
      "signed": 3033,
      "significant": 3034,
      "chall": 3035,
      "massive": 3036,
      "API": 3037,
      "trad": 3038,
      "effectively": 3039,
      "threshold": 3040,
      "lu": 3041,
      "sen": 3042,
      "ww": 3043,
      "chastic": 3044,
      "ily": 3045,
      "ving": 3046,
      "merely": 3047,
      "old": 3048,
      "parameter": 3049,
      "benchmark": 3050,
      "floor": 3051,
      "finding": 3052,
      "internal": 3053,
      "clean": 3054,
      "star": 3055,
      "Wedding": 3056,
      "ention": 3057,
      "spe": 3058,
      "medi": 3059,
      "On": 3060,
      "security": 3061,
      "lack": 3062,
      "usion": 3063,
      "evol": 3064,
      "running": 3065,
      "number": 3066,
      "gment": 3067,
      "forces": 3068,
      "vide": 3069,
      "regime": 3070,
      "volatility": 3071,
      "distinction": 3072,
      "cred": 3073,
      "write": 3074,
      "protocol": 3075,
      "something": 3076,
      "stochastic": 3077,
      "halluc": 3078,
      "compos": 3079,
      "estim": 3080,
      "conne": 3081,
      "signature": 3082,
      "Ch": 3083,
      "ang": 3084,
      "well": 3085,
      "reality": 3086,
      "generation": 3087,
      "ore": 3088,
      "samp": 3089,
      "looking": 3090,
      "expect": 3091,
      "As": 3092,
      "fac": 3093,
      "follow": 3094,
      "away": 3095,
      "ned": 3096,
      "simple": 3097,
      "uses": 3098,
      "behavior": 3099,
      "oid": 3100,
      "print": 3101,
      "pen": 3102,
      "wever": 3103,
      "existing": 3104,
      "De": 3105,
      "dim": 3106,
      "person": 3107,
      "physics": 3108,
      "econom": 3109,
      "fails": 3110,
      "attack": 3111,
      "war": 3112,
      "resolution": 3113,
      "ming": 3114,
      "attemp": 3115,
      "phase": 3116,
      "St": 3117,
      "ie": 3118,
      "sus": 3119,
      "describ": 3120,
      "correlation": 3121,
      "engineering": 3122,
      "keep": 3123,
      "probe": 3124,
      "driven": 3125,
      "ished": 3126,
      "large": 3127,
      "Pro": 3128,
      "bur": 3129,
      "fr": 3130,
      "inc": 3131,
      "apping": 3132,
      "mosp": 3133,
      ".**": 3134,
      "atures": 3135,
      "performance": 3136,
      "loc": 3137,
      "autom": 3138,
      "handle": 3139,
      "How": 3140,
      "density": 3141,
      "represent": 3142,
      "inference": 3143,
      "lement": 3144,
      "infrastructure": 3145,
      ",\"": 3146,
      "While": 3147,
      "built": 3148,
      "assumption": 3149,
      "global": 3150,
      "researchers": 3151,
      "acy": 3152,
      "grid": 3153,
      "produce": 3154,
      "sets": 3155,
      "solution": 3156,
      "tribut": 3157,
      "ions": 3158,
      "access": 3159,
      "capacity": 3160,
      "solve": 3161,
      "deterministic": 3162,
      "true": 3163,
      "En": 3164,
      "verse": 3165,
      "moment": 3166,
      "complete": 3167,
      "cohe": 3168,
      "pressure": 3169,
      "surv": 3170,
      "closed": 3171,
      "Exactly": 3172,
      "ious": 3173,
      "const": 3174,
      "extern": 3175,
      "validation": 3176,
      "approxim": 3177,
      "og": 3178,
      "06": 3179,
      "nar": 3180,
      "que": 3181,
      "07": 3182,
      "find": 3183,
      "reading": 3184,
      "operator": 3185,
      "shows": 3186,
      "care": 3187,
      "relation": 3188,
      "stain": 3189,
      "ately": 3190,
      "tell": 3191,
      "strateg": 3192,
      "measurement": 3193,
      "quantization": 3194,
      "ibility": 3195,
      "ways": 3196,
      "commun": 3197,
      "product": 3198,
      "issu": 3199,
      "production": 3200,
      "18": 3201,
      "ets": 3202,
      "safet": 3203,
      "Agent": 3204,
      "However": 3205,
      "technical": 3206,
      "retrieval": 3207,
      "safety": 3208,
      "ience": 3209,
      "atmosp": 3210,
      "Most": 3211,
      "asing": 3212,
      "ants": 3213,
      "works": 3214,
      "precise": 3215,
      "feedback": 3216,
      "09": 3217,
      "nor": 3218,
      "intent": 3219,
      "tware": 3220,
      "charact": 3221,
      "onom": 3222,
      "prior": 3223,
      "16": 3224,
      "17": 3225,
      "ST": 3226,
      "smo": 3227,
      "body": 3228,
      "ater": 3229,
      "ensive": 3230,
      "thread": 3231,
      "ged": 3232,
      "utility": 3233,
      "verified": 3234,
      "emp": 3235,
      "temporal": 3236,
      "joint": 3237,
      "$\\": 3238,
      "ingu": 3239,
      "selection": 3240,
      "bug": 3241,
      "typ": 3242,
      "optimization": 3243,
      "downstream": 3244,
      "ined": 3245,
      "industry": 3246,
      "interaction": 3247,
      "plicit": 3248,
      "results": 3249,
      "No": 3250,
      "instead": 3251,
      "dimension": 3252,
      "external": 3253,
      "ched": 3254,
      "active": 3255,
      "03": 3256,
      "100": 3257,
      "ull": 3258,
      "method": 3259,
      "friction": 3260,
      "suf": 3261,
      "assum": 3262,
      "mathematical": 3263,
      "atory": 3264,
      "Instead": 3265,
      "light": 3266,
      "once": 3267,
      "dget": 3268,
      "explicit": 3269,
      "turb": 3270,
      "sat": 3271,
      "ues": 3272,
      "fici": 3273,
      "heric": 3274,
      "align": 3275,
      "itu": 3276,
      "izes": 3277,
      "rule": 3278,
      "character": 3279,
      "social": 3280,
      "planning": 3281,
      "cast": 3282,
      "ctions": 3283,
      "priv": 3284,
      "correl": 3285,
      "vul": 3286,
      "patterns": 3287,
      "14": 3288,
      "ither": 3289,
      "program": 3290,
      "software": 3291,
      "simply": 3292,
      "crete": 3293,
      "pipe": 3294,
      "independence": 3295,
      "bias": 3296,
      "Col": 3297,
      "igin": 3298,
      "play": 3299,
      "channel": 3300,
      "box": 3301,
      "sustain": 3302,
      "minim": 3303,
      "cry": 3304,
      "origin": 3305,
      "dynamic": 3306,
      "think": 3307,
      "argu": 3308,
      "compon": 3309,
      "Sp": 3310,
      "name": 3311,
      "lead": 3312,
      "distingu": 3313,
      "fixed": 3314,
      "isol": 3315,
      "ings": 3316,
      "filter": 3317,
      "sis": 3318,
      "uni": 3319,
      "understand": 3320,
      "ficiency": 3321,
      "confir": 3322,
      "higher": 3323,
      "runtime": 3324,
      "designed": 3325,
      "known": 3326,
      "collapse": 3327,
      "distinguish": 3328,
      "erature": 3329,
      "decoupl": 3330,
      "latent": 3331,
      "mess": 3332,
      "pric": 3333,
      "05": 3334,
      "ond": 3335,
      "clust": 3336,
      "explo": 3337,
      "ratio": 3338,
      "ier": 3339,
      "provide": 3340,
      "grade": 3341,
      "observed": 3342,
      "learning": 3343,
      "ik": 3344,
      "stack": 3345,
      "persist": 3346,
      "authors": 3347,
      "ators": 3348,
      "public": 3349,
      "docu": 3350,
      "synthe": 3351,
      "anchor": 3352,
      "points": 3353,
      "gate": 3354,
      "inde": 3355,
      "racy": 3356,
      "vest": 3357,
      "worth": 3358,
      "budget": 3359,
      "disc": 3360,
      "asy": 3361,
      "iling": 3362,
      "uration": 3363,
      "tran": 3364,
      "goal": 3365,
      "gn": 3366,
      "another": 3367,
      "decl": 3368,
      "config": 3369,
      "gor": 3370,
      "core": 3371,
      "full": 3372,
      "implementation": 3373,
      "v2": 3374,
      "making": 3375,
      "review": 3376,
      "likely": 3377,
      "statistical": 3378,
      "city": 3379,
      "treating": 3380,
      "integration": 3381,
      "trying": 3382,
      "13": 3383,
      "enge": 3384,
      "nothing": 3385,
      "monstr": 3386,
      "enance": 3387,
      "demand": 3388,
      "datas": 3389,
      "general": 3390,
      "detect": 3391,
      "ks": 3392,
      "ler": 3393,
      "topo": 3394,
      "pipeline": 3395,
      "detection": 3396,
      "challenge": 3397,
      "transp": 3398,
      "mig": 3399,
      "ones": 3400,
      "impact": 3401,
      "fit": 3402,
      "dest": 3403,
      "exact": 3404,
      "vendor": 3405,
      "link": 3406,
      "taint": 3407,
      "efficient": 3408,
      "complexity": 3409,
      "tren": 3410,
      "vs": 3411,
      "ceed": 3412,
      "perio": 3413,
      "scaling": 3414,
      "vulner": 3415,
      "pack": 3416,
      "ury": 3417,
      "exists": 3418,
      "ply": 3419,
      "ume": 3420,
      "bea": 3421,
      "demonstr": 3422,
      "such": 3423,
      "lies": 3424,
      "ledge": 3425,
      "bridge": 3426,
      "accu": 3427,
      "With": 3428,
      "much": 3429,
      "xy": 3430,
      "ropy": 3431,
      "gorith": 3432,
      "ibr": 3433,
      "sent": 3434,
      "score": 3435,
      "micro": 3436,
      "king": 3437,
      "depth": 3438,
      "operational": 3439,
      "Au": 3440,
      "gre": 3441,
      "04": 3442,
      "wall": 3443,
      "radi": 3444,
      "convergence": 3445,
      "2025": 3446,
      "decay": 3447,
      "certaint": 3448,
      "analy": 3449,
      "wave": 3450,
      "catch": 3451,
      "feature": 3452,
      "avail": 3453,
      "ping": 3454,
      "content": 3455,
      "settlement": 3456,
      "traditional": 3457,
      "cra": 3458,
      "select": 3459,
      "agreement": 3460,
      "ied": 3461,
      "ata": 3462,
      "push": 3463,
      "preser": 3464,
      "whole": 3465,
      "sufficient": 3466,
      "accuracy": 3467,
      "Mark": 3468,
      "algorith": 3469,
      "domain": 3470,
      "shape": 3471,
      "recon": 3472,
      "consum": 3473,
      "requirement": 3474,
      "abilities": 3475,
      "round": 3476,
      "guest": 3477,
      "structured": 3478,
      "08": 3479,
      "mir": 3480,
      "pot": 3481,
      "implic": 3482,
      "digital": 3483,
      "mapping": 3484,
      "perfect": 3485,
      "agentic": 3486,
      "law": 3487,
      "trigger": 3488,
      "pt": 3489,
      "ption": 3490,
      "book": 3491,
      "breaks": 3492,
      "ric": 3493,
      "wid": 3494,
      "allows": 3495,
      "rig": 3496,
      "une": 3497,
      "jud": 3498,
      "gover": 3499,
      "stable": 3500,
      "oud": 3501,
      "ifies": 3502,
      "had": 3503,
      "rates": 3504,
      "ante": 3505,
      "aries": 3506,
      "spat": 3507,
      "fast": 3508,
      "interpre": 3509,
      "probability": 3510,
      "simul": 3511,
      "math": 3512,
      "theore": 3513,
      "traject": 3514,
      "struction": 3515,
      "relationship": 3516,
      "beacon": 3517,
      "aw": 3518,
      "advers": 3519,
      "capital": 3520,
      "growth": 3521,
      "bar": 3522,
      "drop": 3523,
      "project": 3524,
      "controll": 3525,
      "band": 3526,
      "compet": 3527,
      "guar": 3528,
      "group": 3529,
      "SS": 3530,
      "adap": 3531,
      "user": 3532,
      "evaluation": 3533,
      "constant": 3534,
      "uine": 3535,
      "meaning": 3536,
      "ression": 3537,
      "bypass": 3538,
      "margin": 3539,
      "fully": 3540,
      "entire": 3541,
      "regul": 3542,
      "integrity": 3543,
      "verifier": 3544,
      "speed": 3545,
      "hit": 3546,
      "ensure": 3547,
      "calc": 3548,
      "special": 3549,
      "consistent": 3550,
      "necessary": 3551,
      "composition": 3552,
      "pho": 3553,
      "silent": 3554,
      "baseline": 3555,
      "coordination": 3556,
      "rid": 3557,
      "SV": 3558,
      "super": 3559,
      "quality": 3560,
      "checked": 3561,
      "AR": 3562,
      "ban": 3563,
      "ilar": 3564,
      "ifically": 3565,
      "delta": 3566,
      "ession": 3567,
      "observation": 3568,
      "dynamics": 3569,
      "platforms": 3570,
      "evolution": 3571,
      "certainty": 3572,
      "agg": 3573,
      "mirr": 3574,
      "guarante": 3575,
      "GP": 3576,
      "Watch": 3577,
      "fall": 3578,
      "mes": 3579,
      "ID": 3580,
      "invari": 3581,
      "invest": 3582,
      "rec": 3583,
      "deleg": 3584,
      "made": 3585,
      "missing": 3586,
      "spatial": 3587,
      "Your": 3588,
      "init": 3589,
      "root": 3590,
      "ties": 3591,
      "calibr": 3592,
      "tokens": 3593,
      "heav": 3594,
      "llig": 3595,
      "indic": 3596,
      "ina": 3597,
      "reve": 3598,
      "total": 3599,
      "intellig": 3600,
      "document": 3601,
      "lif": 3602,
      "entropy": 3603,
      "parameters": 3604,
      "efficiency": 3605,
      "service": 3606,
      "continuous": 3607,
      "yet": 3608,
      "vector": 3609,
      "forcing": 3610,
      "region": 3611,
      "manifest": 3612,
      "atmospheric": 3613,
      "aut": 3614,
      "ale": 3615,
      "deployment": 3616,
      "vant": 3617,
      "runs": 3618,
      "gets": 3619,
      "counter": 3620,
      "tracking": 3621,
      "deli": 3622,
      "asser": 3623,
      "dict": 3624,
      "become": 3625,
      "draw": 3626,
      "fut": 3627,
      "fron": 3628,
      "list": 3629,
      "indu": 3630,
      "validate": 3631,
      "dro": 3632,
      "start": 3633,
      "tograph": 3634,
      "iment": 3635,
      "pose": 3636,
      "divergence": 3637,
      "tation": 3638,
      "ules": 3639,
      "cycle": 3640,
      "proves": 3641,
      "similar": 3642,
      "RAM": 3643,
      "expected": 3644,
      "dri": 3645,
      "iness": 3646,
      "invit": 3647,
      "top": 3648,
      "pricing": 3649,
      "Do": 3650,
      "Sy": 3651,
      "concent": 3652,
      "sym": 3653,
      "take": 3654,
      "verifiable": 3655,
      "coupling": 3656,
      "02": 3657,
      "cir": 3658,
      "contain": 3659,
      "useful": 3660,
      "support": 3661,
      "release": 3662,
      "attestation": 3663,
      "migration": 3664,
      "categ": 3665,
      "tial": 3666,
      "signals": 3667,
      "date": 3668,
      "convers": 3669,
      "bot": 3670,
      "expensive": 3671,
      "neg": 3672,
      "computational": 3673,
      "itation": 3674,
      "web": 3675,
      "holds": 3676,
      "transform": 3677,
      "develop": 3678,
      "gas": 3679,
      "tier": 3680,
      "90": 3681,
      "rup": 3682,
      "rob": 3683,
      "met": 3684,
      "resh": 3685,
      "avoid": 3686,
      "she": 3687,
      "ival": 3688,
      "events": 3689,
      "server": 3690,
      "volume": 3691,
      "instrument": 3692,
      "rand": 3693,
      "exam": 3694,
      "indiv": 3695,
      "forecast": 3696,
      "visible": 3697,
      "proxy": 3698,
      "option": 3699,
      "connect": 3700,
      "vo": 3701,
      "variable": 3702,
      "directly": 3703,
      "index": 3704,
      "vulnerability": 3705,
      "sched": 3706,
      "alth": 3707,
      "genuine": 3708,
      "request": 3709,
      "depends": 3710,
      "labe": 3711,
      "resolve": 3712,
      "Tr": 3713,
      "cust": 3714,
      "histor": 3715,
      "US": 3716,
      "plac": 3717,
      "illion": 3718,
      "position": 3719,
      "sensus": 3720,
      "mask": 3721,
      "tun": 3722,
      "around": 3723,
      "ended": 3724,
      "range": 3725,
      "asset": 3726,
      "igno": 3727,
      "ables": 3728,
      "outside": 3729,
      "velocity": 3730,
      "requirements": 3731,
      "period": 3732,
      "either": 3733,
      "xury": 3734,
      "profile": 3735,
      "abor": 3736,
      "treats": 3737,
      "mediate": 3738,
      "50": 3739,
      "IS": 3740,
      "hal": 3741,
      "late": 3742,
      "atic": 3743,
      "These": 3744,
      "board": 3745,
      "disco": 3746,
      "individual": 3747,
      "wal": 3748,
      "temperature": 3749,
      "predic": 3750,
      "choice": 3751,
      "history": 3752,
      "cryp": 3753,
      "RE": 3754,
      "eous": 3755,
      "ins": 3756,
      "datab": 3757,
      "attention": 3758,
      "developer": 3759,
      "ON": 3760,
      "mut": 3761,
      "mid": 3762,
      "ose": 3763,
      "past": 3764,
      "deep": 3765,
      "scales": 3766,
      "testing": 3767,
      "interest": 3768,
      "claims": 3769,
      "One": 3770,
      "Se": 3771,
      "ery": 3772,
      "ek": 3773,
      "last": 3774,
      "says": 3775,
      "tension": 3776,
      "short": 3777,
      "poss": 3778,
      "features": 3779,
      "reader": 3780,
      "diff": 3781,
      "moved": 3782,
      "errors": 3783,
      "defined": 3784,
      "introduces": 3785,
      "?\"": 3786,
      "fal": 3787,
      "yond": 3788,
      "rap": 3789,
      "abl": 3790,
      "accept": 3791,
      "relies": 3792,
      "manifold": 3793,
      "patch": 3794,
      "assets": 3795,
      "near": 3796,
      "provenance": 3797,
      "intelligence": 3798,
      "stic": 3799,
      "gradi": 3800,
      "pair": 3801,
      "New": 3802,
      "TE": 3803,
      "pur": 3804,
      "pure": 3805,
      "orb": 3806,
      "urther": 3807,
      "oph": 3808,
      "Colony": 3809,
      "autonom": 3810,
      "ub": 3811,
      "atural": 3812,
      "lower": 3813,
      "interface": 3814,
      "checks": 3815,
      "separate": 3816,
      "topology": 3817,
      "ries": 3818,
      "scope": 3819,
      "lines": 3820,
      "ceiling": 3821,
      "measured": 3822,
      "assumes": 3823,
      "false": 3824,
      "gain": 3825,
      "ker": 3826,
      "attribut": 3827,
      "ased": 3828,
      "rable": 3829,
      "safe": 3830,
      "distinct": 3831,
      "years": 3832,
      "broad": 3833,
      "wise": 3834,
      "consensus": 3835,
      "specifically": 3836,
      "nu": 3837,
      "abstra": 3838,
      "curs": 3839,
      "relat": 3840,
      "leak": 3841,
      "prop": 3842,
      "surve": 3843,
      "lag": 3844,
      "size": 3845,
      "costs": 3846,
      "limits": 3847,
      "consistency": 3848,
      "smoo": 3849,
      "future": 3850,
      "cat": 3851,
      "ever": 3852,
      "common": 3853,
      "imate": 3854,
      "doing": 3855,
      "cycl": 3856,
      "establ": 3857,
      "times": 3858,
      "regist": 3859,
      "):": 3860,
      "At": 3861,
      "ns": 3862,
      "ners": 3863,
      "chron": 3864,
      "igate": 3865,
      "residual": 3866,
      "fault": 3867,
      "constrained": 3868,
      "carry": 3869,
      "Without": 3870,
      "era": 3871,
      "transfer": 3872,
      "Po": 3873,
      "eco": 3874,
      "pop": 3875,
      "later": 3876,
      "hallucin": 3877,
      "normal": 3878,
      "ison": 3879,
      "forced": 3880,
      "lands": 3881,
      "coherence": 3882,
      "Sh": 3883,
      "natural": 3884,
      "reward": 3885,
      "until": 3886,
      "bol": 3887,
      "fine": 3888,
      "hid": 3889,
      "happens": 3890,
      "initial": 3891,
      "injection": 3892,
      "stor": 3893,
      "applic": 3894,
      "particip": 3895,
      "TC": 3896,
      "dependent": 3897,
      "flag": 3898,
      "central": 3899,
      "sid": 3900,
      "inside": 3901,
      "portun": 3902,
      "Comp": 3903,
      "robust": 3904,
      "ening": 3905,
      "average": 3906,
      "bus": 3907,
      "mor": 3908,
      "ince": 3909,
      "###": 3910,
      "measuring": 3911,
      "And": 3912,
      "narrow": 3913,
      "database": 3914,
      "AS": 3915,
      "compil": 3916,
      "vious": 3917,
      "disjoint": 3918,
      "derived": 3919,
      "conditions": 3920,
      "random": 3921,
      "Ar": 3922,
      "Tra": 3923,
      "ike": 3924,
      "say": 3925,
      "uncertainty": 3926,
      "share": 3927,
      "organ": 3928,
      "scri": 3929,
      "balance": 3930,
      "reduction": 3931,
      "limited": 3932,
      "dependency": 3933,
      "VE": 3934,
      "VRAM": 3935,
      "alone": 3936,
      "lex": 3937,
      "appe": 3938,
      "someone": 3939,
      "itude": 3940,
      "specialized": 3941,
      "gl": 3942,
      "ium": 3943,
      "kit": 3944,
      "usu": 3945,
      "appl": 3946,
      "many": 3947,
      "distance": 3948,
      "tested": 3949,
      "looks": 3950,
      "execut": 3951,
      "inputs": 3952,
      "define": 3953,
      "www": 3954,
      "ifier": 3955,
      "difference": 3956,
      "communic": 3957,
      "Market": 3958,
      "23": 3959,
      "ze": 3960,
      "ited": 3961,
      "exceed": 3962,
      "chestr": 3963,
      "distributed": 3964,
      "always": 3965,
      "herent": 3966,
      "acc": 3967,
      "ived": 3968,
      "cheap": 3969,
      "maps": 3970,
      "entirely": 3971,
      "ire": 3972,
      "inherent": 3973,
      "ctu": 3974,
      "conver": 3975,
      "shar": 3976,
      "domin": 3977,
      "matters": 3978,
      "wind": 3979,
      "framing": 3980,
      "2024": 3981,
      "knowledge": 3982,
      "RL": 3983,
      "etary": 3984,
      "failed": 3985,
      "publish": 3986,
      "returns": 3987,
      "mentally": 3988,
      "thermal": 3989,
      "cape": 3990,
      "differen": 3991,
      "turns": 3992,
      "\":": 3993,
      "Every": 3994,
      "aus": 3995,
      "states": 3996,
      "pha": 3997,
      "transient": 3998,
      "geometry": 3999,
      "sho": 4000,
      "identify": 4001,
      "heavy": 4002,
      "mer": 4003,
      "ogen": 4004,
      "theoretical": 4005,
      "ird": 4006,
      "amb": 4007,
      "good": 4008,
      "Al": 4009,
      "weak": 4010,
      "resource": 4011,
      "managing": 4012,
      "close": 4013,
      "calcul": 4014,
      "31": 4015,
      "ken": 4016,
      "mist": 4017,
      "beyond": 4018,
      "diag": 4019,
      "satis": 4020,
      "Le": 4021,
      "arding": 4022,
      "compar": 4023,
      "reads": 4024,
      "clock": 4025,
      "direction": 4026,
      "skill": 4027,
      "Ap": 4028,
      "ET": 4029,
      "KV": 4030,
      "maxim": 4031,
      "expans": 4032,
      "anyone": 4033,
      "sensit": 4034,
      "craft": 4035,
      "consumer": 4036,
      "iet": 4037,
      "raw": 4038,
      "istics": 4039,
      "word": 4040,
      "else": 4041,
      "clear": 4042,
      "ports": 4043,
      "original": 4044,
      "decoupling": 4045,
      "Lo": 4046,
      "ey": 4047,
      "van": 4048,
      "though": 4049,
      "seen": 4050,
      "emerg": 4051,
      "component": 4052,
      "ave": 4053,
      "ably": 4054,
      "princ": 4055,
      "conversation": 4056,
      "cies": 4057,
      "stamp": 4058,
      "lip": 4059,
      "increase": 4060,
      "fundamentally": 4061,
      "monitoring": 4062,
      "workflows": 4063,
      "automated": 4064,
      "null": 4065,
      "Code": 4066,
      "ech": 4067,
      "orchestr": 4068,
      "entry": 4069,
      "etic": 4070,
      "auto": 4071,
      "trajectory": 4072,
      "mirror": 4073,
      "sw": 4074,
      "sound": 4075,
      "overhead": 4076,
      "named": 4077,
      "emb": 4078,
      "describing": 4079,
      "careless": 4080,
      "Go": 4081,
      "allor": 4082,
      "substr": 4083,
      "potential": 4084,
      "OS": 4085,
      "elect": 4086,
      "reference": 4087,
      "coverage": 4088,
      "nobody": 4089,
      "tasks": 4090,
      "Mallor": 4091,
      "pus": 4092,
      "predictable": 4093,
      "transport": 4094,
      "kitun": 4095,
      "Bo": 4096,
      "mise": 4097,
      "py": 4098,
      "hel": 4099,
      "prediction": 4100,
      "files": 4101,
      "increasing": 4102,
      "practical": 4103,
      "dimensional": 4104,
      "arbit": 4105,
      "stops": 4106,
      "sn": 4107,
      "reed": 4108,
      "trace": 4109,
      "subst": 4110,
      "multiple": 4111,
      "payload": 4112,
      "ai": 4113,
      "rel": 4114,
      "black": 4115,
      "certain": 4116,
      "magn": 4117,
      "strategy": 4118,
      "ierarch": 4119,
      "historical": 4120,
      "cloud": 4121,
      "viol": 4122,
      "metrics": 4123,
      "currently": 4124,
      "methods": 4125,
      "onto": 4126,
      "ica": 4127,
      "working": 4128,
      "commitment": 4129,
      "further": 4130,
      "kind": 4131,
      "lives": 4132,
      "ilib": 4133,
      "ders": 4134,
      "confidence": 4135,
      "including": 4136,
      "hallucination": 4137,
      "sensitivity": 4138,
      "ilibri": 4139,
      "gal": 4140,
      "hop": 4141,
      "tes": 4142,
      "heur": 4143,
      "cogn": 4144,
      "architectural": 4145,
      "coordin": 4146,
      "four": 4147,
      "fresh": 4148,
      "game": 4149,
      "enforce": 4150,
      "detail": 4151,
      "imin": 4152,
      "solar": 4153,
      "kernel": 4154,
      "Mallorca": 4155,
      "Gu": 4156,
      "bad": 4157,
      "vision": 4158,
      "ense": 4159,
      "degra": 4160,
      "feren": 4161,
      "endpoint": 4162,
      "mechanical": 4163,
      "resulting": 4164,
      "simulation": 4165,
      "host": 4166,
      "configuration": 4167,
      "expansion": 4168,
      "anger": 4169,
      "ories": 4170,
      "alpha": 4171,
      "modes": 4172,
      "strong": 4173,
      "implies": 4174,
      "correction": 4175,
      "blind": 4176,
      "optimal": 4177,
      "economic": 4178,
      "propag": 4179,
      "ilibrium": 4180,
      "cut": 4181,
      "moder": 4182,
      "percent": 4183,
      "trap": 4184,
      "ually": 4185,
      "translation": 4186,
      "couples": 4187,
      "practice": 4188,
      "precisely": 4189,
      "negative": 4190,
      "Rese": 4191,
      "site": 4192,
      "spectral": 4193,
      "payment": 4194,
      "binary": 4195,
      "credit": 4196,
      "aggreg": 4197,
      "Research": 4198,
      "theory": 4199,
      "liability": 4200,
      "flight": 4201,
      "observations": 4202,
      "custom": 4203,
      "substrate": 4204,
      "*.": 4205,
      "words": 4206,
      "month": 4207,
      "authority": 4208,
      "location": 4209,
      "available": 4210,
      "relative": 4211,
      "CP": 4212,
      "ML": 4213,
      "RSV": 4214,
      "bon": 4215,
      "wo": 4216,
      "arr": 4217,
      "rout": 4218,
      "effects": 4219,
      "objective": 4220,
      "usually": 4221,
      "RSVP": 4222,
      "nology": 4223,
      "discus": 4224,
      "venue": 4225,
      "green": 4226,
      "driver": 4227,
      "conve": 4228,
      "frameworks": 4229,
      "written": 4230,
      "private": 4231,
      "pick": 4232,
      "delity": 4233,
      "trading": 4234,
      "clusion": 4235,
      "colum": 4236,
      "whose": 4237,
      "folio": 4238,
      "increases": 4239,
      "collapses": 4240,
      "atter": 4241,
      "didn": 4242,
      "burden": 4243,
      "turbul": 4244,
      "gg": 4245,
      "bearing": 4246,
      "absence": 4247,
      "factor": 4248,
      "predictive": 4249,
      "schedul": 4250,
      "hierarch": 4251,
      "rules": 4252,
      "ends": 4253,
      "corpor": 4254,
      "final": 4255,
      "miss": 4256,
      "equilibrium": 4257,
      "guarantee": 4258,
      "..": 4259,
      "hour": 4260,
      "since": 4261,
      "invol": 4262,
      "ences": 4263,
      "iting": 4264,
      "leav": 4265,
      "fort": 4266,
      "construction": 4267,
      "flux": 4268,
      "addresses": 4269,
      "types": 4270,
      "cluster": 4271,
      ":**": 4272,
      "ipl": 4273,
      "mus": 4274,
      "encies": 4275,
      "erial": 4276,
      "ances": 4277,
      "resid": 4278,
      "improve": 4279,
      "plain": 4280,
      "rief": 4281,
      "corpus": 4282,
      "fidelity": 4283,
      "discrete": 4284,
      "versal": 4285,
      "functions": 4286,
      "fluctu": 4287,
      "supply": 4288,
      "properties": 4289,
      "mitted": 4290,
      "jump": 4291,
      "invariant": 4292,
      "development": 4293,
      "label": 4294,
      "emission": 4295,
      "pin": 4296,
      "recent": 4297,
      "accep": 4298,
      "split": 4299,
      "Inte": 4300,
      "seeing": 4301,
      "mium": 4302,
      "nav": 4303,
      "artic": 4304,
      "solved": 4305,
      "correlated": 4306,
      "calibration": 4307,
      "cryptograph": 4308,
      "ff": 4309,
      "fals": 4310,
      "session": 4311,
      "watch": 4312,
      "portfolio": 4313,
      "synchron": 4314,
      "independently": 4315,
      "ske": 4316,
      "tle": 4317,
      "000": 4318,
      "outputs": 4319,
      "AT": 4320,
      "IN": 4321,
      "nature": 4322,
      "alle": 4323,
      "begin": 4324,
      "decid": 4325,
      "subject": 4326,
      "collection": 4327,
      "luxury": 4328,
      "width": 4329,
      "appear": 4330,
      "sit": 4331,
      "sty": 4332,
      "seat": 4333,
      "structures": 4334,
      "processing": 4335,
      "provided": 4336,
      "published": 4337,
      "22": 4338,
      "ER": 4339,
      "tight": 4340,
      "third": 4341,
      "seed": 4342,
      "serve": 4343,
      "shifting": 4344,
      "relevant": 4345,
      "Me": 4346,
      "Plan": 4347,
      "stell": 4348,
      "weddings": 4349,
      "correctness": 4350,
      "Ver": 4351,
      "cases": 4352,
      "ield": 4353,
      "inform": 4354,
      "ancy": 4355,
      "abilistic": 4356,
      "category": 4357,
      "ES": 4358,
      "job": 4359,
      "today": 4360,
      "deb": 4361,
      "week": 4362,
      "lie": 4363,
      "timestamp": 4364,
      "CO": 4365,
      "Cl": 4366,
      "Two": 4367,
      "bers": 4368,
      "eps": 4369,
      "fro": 4370,
      "slow": 4371,
      "ouple": 4372,
      "immediate": 4373,
      "accoun": 4374,
      "extre": 4375,
      "update": 4376,
      "Model": 4377,
      "matching": 4378,
      "recovery": 4379,
      "dataset": 4380,
      "govern": 4381,
      "\",": 4382,
      "iving": 4383,
      "previous": 4384,
      "posit": 4385,
      "reliable": 4386,
      "behavioral": 4387,
      "attempt": 4388,
      "destination": 4389,
      "dle": 4390,
      "ior": 4391,
      "tele": 4392,
      "create": 4393,
      "alignment": 4394,
      "21": 4395,
      "He": 4396,
      "cli": 4397,
      "devi": 4398,
      "section": 4399,
      "adjust": 4400,
      "rier": 4401,
      "dates": 4402,
      "tests": 4403,
      "finan": 4404,
      "generate": 4405,
      "transitions": 4406,
      "probabilistic": 4407,
      "wered": 4408,
      "localized": 4409,
      "processes": 4410,
      "ledger": 4411,
      "assume": 4412,
      "representation": 4413,
      "gradient": 4414,
      "May": 4415,
      "five": 4416,
      "ons": 4417,
      "cell": 4418,
      "expo": 4419,
      "spike": 4420,
      "member": 4421,
      "communication": 4422,
      "ath": 4423,
      "bor": 4424,
      "kill": 4425,
      "promise": 4426,
      "spread": 4427,
      "fam": 4428,
      "identified": 4429,
      "generated": 4430,
      "completion": 4431,
      "numer": 4432,
      "binding": 4433,
      "symbol": 4434,
      "discovery": 4435,
      "ather": 4436,
      "stale": 4437,
      "touch": 4438,
      "ctive": 4439,
      "selves": 4440,
      "services": 4441,
      "closure": 4442,
      "planners": 4443,
      "message": 4444,
      "faster": 4445,
      "allel": 4446,
      "*,": 4447,
      "dies": 4448,
      "replace": 4449,
      "coding": 4450,
      "ray": 4451,
      "timing": 4452,
      "architectures": 4453,
      "instruction": 4454,
      "happen": 4455,
      "adversary": 4456,
      "77": 4457,
      "Be": 4458,
      "June": 4459,
      "becoming": 4460,
      "netic": 4461,
      "derivation": 4462,
      "definition": 4463,
      "faces": 4464,
      "synthetic": 4465,
      "99": 4466,
      "Op": 4467,
      "cr": 4468,
      "mary": 4469,
      "sand": 4470,
      "strict": 4471,
      "boundaries": 4472,
      "lingu": 4473,
      "iveness": 4474,
      "credential": 4475,
      "Q4": 4476,
      "labor": 4477,
      "ret": 4478,
      "concept": 4479,
      "compress": 4480,
      "capabilities": 4481,
      "positive": 4482,
      "integrated": 4483,
      "axis": 4484,
      "broken": 4485,
      "understanding": 4486,
      "storage": 4487,
      "My": 4488,
      "stay": 4489,
      "usal": 4490,
      "traction": 4491,
      "achi": 4492,
      "putation": 4493,
      "layers": 4494,
      "committed": 4495,
      "lukitun": 4496,
      "Air": 4497,
      "Sol": 4498,
      "itution": 4499,
      "dead": 4500,
      "ception": 4501,
      "reliability": 4502,
      "experiment": 4503,
      "implication": 4504,
      "regulatory": 4505,
      "princip": 4506,
      "na": 4507,
      "roll": 4508,
      "rain": 4509,
      "suite": 4510,
      "acts": 4511,
      "series": 4512,
      "regard": 4513,
      "secondary": 4514,
      "cycles": 4515,
      "35": 4516,
      "iter": 4517,
      "mot": 4518,
      "adata": 4519,
      "manual": 4520,
      "half": 4521,
      "modern": 4522,
      "water": 4523,
      "iner": 4524,
      "Which": 4525,
      "ength": 4526,
      "larger": 4527,
      "carries": 4528,
      "sensor": 4529,
      "aircraft": 4530,
      "JS": 4531,
      "lens": 4532,
      "pul": 4533,
      "ending": 4534,
      "stays": 4535,
      "confl": 4536,
      "neural": 4537,
      "prev": 4538,
      "finite": 4539,
      "standing": 4540,
      "flows": 4541,
      "environments": 4542,
      "harness": 4543,
      "metadata": 4544,
      "hidden": 4545,
      "cognitive": 4546,
      "Fin": 4547,
      "aneous": 4548,
      "umb": 4549,
      "systematic": 4550,
      "material": 4551,
      "coherent": 4552,
      "issue": 4553,
      "adapt": 4554,
      "autonomous": 4555,
      "hor": 4556,
      "vac": 4557,
      "stress": 4558,
      "orm": 4559,
      "prote": 4560,
      "parallel": 4561,
      "sample": 4562,
      "regardless": 4563,
      "Bec": 4564,
      "bid": 4565,
      "ost": 4566,
      "coefficient": 4567,
      "below": 4568,
      "team": 4569,
      "akes": 4570,
      "optimizing": 4571,
      "sampling": 4572,
      "attempts": 4573,
      "Because": 4574,
      "press": 4575,
      "themselves": 4576,
      "satisf": 4577,
      "orchestration": 4578,
      "40": 4579,
      "ered": 4580,
      "influ": 4581,
      "imes": 4582,
      "failures": 4583,
      "submitted": 4584,
      "computation": 4585,
      "status": 4586,
      "achiev": 4587,
      "Lu": 4588,
      "}$": 4589,
      "room": 4590,
      "motion": 4591,
      "assist": 4592,
      "import": 4593,
      "regarding": 4594,
      "bounded": 4595,
      "treated": 4596,
      "scen": 4597,
      "quantized": 4598,
      "calls": 4599,
      "algorithm": 4600,
      "stellar": 4601,
      "Ad": 4602,
      "brief": 4603,
      "cad": 4604,
      "hind": 4605,
      "zen": 4606,
      "least": 4607,
      "forward": 4608,
      "produces": 4609,
      "everything": 4610,
      "receipts": 4611,
      "addressed": 4612,
      "K_": 4613,
      "sip": 4614,
      "projection": 4615,
      "uli": 4616,
      "absorb": 4617,
      "optimize": 4618,
      "distributions": 4619,
      "fluid": 4620,
      "magnitude": 4621,
      "telemetry": 4622,
      "95": 4623,
      "ade": 4624,
      "dark": 4625,
      "far": 4626,
      "voc": 4627,
      "vina": 4628,
      "along": 4629,
      "default": 4630,
      "quiet": 4631,
      "actic": 4632,
      "rix": 4633,
      "assess": 4634,
      "operating": 4635,
      "respond": 4636,
      "induced": 4637,
      "attribution": 4638,
      "Ben": 4639,
      "ffer": 4640,
      "urable": 4641,
      "ensem": 4642,
      "shot": 4643,
      "feel": 4644,
      "ount": 4645,
      "trained": 4646,
      "syntax": 4647,
      "vacu": 4648,
      "fill": 4649,
      "incent": 4650,
      "reat": 4651,
      "cean": 4652,
      "unding": 4653,
      "neut": 4654,
      "compression": 4655,
      "libr": 4656,
      "transaction": 4657,
      "guard": 4658,
      "presence": 4659,
      "produced": 4660,
      "vention": 4661,
      "ularity": 4662,
      "3090": 4663,
      "ogle": 4664,
      "asym": 4665,
      "Q4_": 4666,
      "ild": 4667,
      "igation": 4668,
      "promis": 4669,
      "examp": 4670,
      "mismatch": 4671,
      "things": 4672,
      "news": 4673,
      "scores": 4674,
      "introduce": 4675,
      "penal": 4676,
      "empir": 4677,
      "K_M": 4678,
      "Q4_K_M": 4679,
      "ori": 4680,
      "arial": 4681,
      "behind": 4682,
      "unit": 4683,
      "proved": 4684,
      "fields": 4685,
      "attacker": 4686,
      "judgment": 4687,
      "reveal": 4688,
      "27": 4689,
      "soph": 4690,
      "station": 4691,
      "left": 4692,
      "notes": 4693,
      "mention": 4694,
      "string": 4695,
      "comes": 4696,
      "peak": 4697,
      "generator": 4698,
      "handles": 4699,
      "spective": 4700,
      "sophistic": 4701,
      "26": 4702,
      "night": 4703,
      "wide": 4704,
      "visual": 4705,
      "survives": 4706,
      "datasets": 4707,
      "rapid": 4708,
      "extreme": 4709,
      "48": 4710,
      "Prec": 4711,
      "wers": 4712,
      "reputation": 4713,
      "icious": 4714,
      "fork": 4715,
      "best": 4716,
      "bytes": 4717,
      "agement": 4718,
      "divers": 4719,
      "upload": 4720,
      "manag": 4721,
      "community": 4722,
      "argument": 4723,
      "Does": 4724,
      "application": 4725,
      "column": 4726,
      "Not": 4727,
      "Wor": 4728,
      "aa": 4729,
      "hits": 4730,
      "hib": 4731,
      "ove": 4732,
      "insufficient": 4733,
      "rot": 4734,
      "lost": 4735,
      "climate": 4736,
      "trusted": 4737,
      "expert": 4738,
      "includes": 4739,
      "package": 4740,
      "hed": 4741,
      "contribut": 4742,
      "compared": 4743,
      "flat": 4744,
      "flaw": 4745,
      "waste": 4746,
      "approximately": 4747,
      "declared": 4748,
      "simulations": 4749,
      "exposure": 4750,
      "gam": 4751,
      "held": 4752,
      "activity": 4753,
      "dissip": 4754,
      "highly": 4755,
      "checking": 4756,
      "artifacts": 4757,
      "Until": 4758,
      "benchmarks": 4759,
      "diagno": 4760,
      "linguistic": 4761,
      "EE": 4762,
      "From": 4763,
      "node": 4764,
      "spend": 4765,
      "interval": 4766,
      "variables": 4767,
      "relying": 4768,
      "addres": 4769,
      "confident": 4770,
      "solutions": 4771,
      "rigid": 4772,
      "survey": 4773,
      "applied": 4774,
      "comparison": 4775,
      "01": 4776,
      "AL": 4777,
      "Gen": 4778,
      "Is": 4779,
      "ufact": 4780,
      "keeps": 4781,
      "matrix": 4782,
      "presents": 4783,
      "identifies": 4784,
      "showed": 4785,
      "reduce": 4786,
      "bank": 4787,
      "residue": 4788,
      "reports": 4789,
      "envelo": 4790,
      "combin": 4791,
      "asking": 4792,
      "names": 4793,
      "musica": 4794,
      "gers": 4795,
      "replac": 4796,
      "role": 4797,
      "chat": 4798,
      "celer": 4799,
      "comb": 4800,
      "premium": 4801,
      "frag": 4802,
      "refine": 4803,
      "sustainable": 4804,
      "trend": 4805,
      "exceeds": 4806,
      "hou": 4807,
      "mac": 4808,
      "prog": 4809,
      "concrete": 4810,
      "terms": 4811,
      "travel": 4812,
      "signing": 4813,
      "foot": 4814,
      "diffic": 4815,
      "expon": 4816,
      "proposal": 4817,
      "trends": 4818,
      "Trans": 4819,
      "numerical": 4820,
      "29": 4821,
      "Dig": 4822,
      "Fe": 4823,
      "SN": 4824,
      "reproduce": 4825,
      "statement": 4826,
      "structurally": 4827,
      "sensitive": 4828,
      "minimum": 4829,
      "GPU": 4830,
      "circ": 4831,
      "cure": 4832,
      "cos": 4833,
      "tied": 4834,
      "updates": 4835,
      "summar": 4836,
      "emit": 4837,
      "particular": 4838,
      "components": 4839,
      "front": 4840,
      "Ju": 4841,
      "ann": 4842,
      "ancho": 4843,
      "query": 4844,
      "iza": 4845,
      "capable": 4846,
      "experience": 4847,
      "witch": 4848,
      "incident": 4849,
      "drops": 4850,
      "vacuum": 4851,
      "Net": 4852,
      "PC": 4853,
      "ired": 4854,
      "proced": 4855,
      "ople": 4856,
      "format": 4857,
      "preference": 4858,
      "manufact": 4859,
      "matic": 4860,
      "collect": 4861,
      "providing": 4862,
      "instant": 4863,
      "approximation": 4864,
      "mistake": 4865,
      "anchored": 4866,
      "CM": 4867,
      "tual": 4868,
      "reject": 4869,
      "attract": 4870,
      "nov": 4871,
      "nodes": 4872,
      "exchange": 4873,
      "answers": 4874,
      "curve": 4875,
      "astro": 4876,
      "needed": 4877,
      "anything": 4878,
      "description": 4879,
      "RAG": 4880,
      "shock": 4881,
      "financial": 4882,
      "AN": 4883,
      "NO": 4884,
      "sl": 4885,
      "unch": 4886,
      "perturb": 4887,
      "boot": 4888,
      "measurable": 4889,
      "reflect": 4890,
      "primitive": 4891,
      "ton": 4892,
      "few": 4893,
      "guess": 4894,
      "checkpoint": 4895,
      "early": 4896,
      "confirmed": 4897,
      "discipl": 4898,
      "concentration": 4899,
      "tuning": 4900,
      "scenari": 4901,
      "Key": 4902,
      "Tech": 4903,
      "ares": 4904,
      "dual": 4905,
      "slo": 4906,
      "sources": 4907,
      "infl": 4908,
      "inject": 4909,
      "There": 4910,
      "contest": 4911,
      "shad": 4912,
      "networks": 4913,
      "connection": 4914,
      "rigor": 4915,
      "genuinely": 4916,
      "Digital": 4917,
      "GB": 4918,
      "hedge": 4919,
      "mix": 4920,
      "rative": 4921,
      "accur": 4922,
      "permission": 4923,
      "fragment": 4924,
      "vendors": 4925,
      "assumptions": 4926,
      "perfectly": 4927,
      "compiler": 4928,
      "sharp": 4929,
      "sophisticated": 4930,
      "Mi": 4931,
      "corrup": 4932,
      "valu": 4933,
      "reached": 4934,
      "ignores": 4935,
      "ensemble": 4936,
      "empirical": 4937,
      "macro": 4938,
      "jor": 4939,
      "uro": 4940,
      "meet": 4941,
      "verdict": 4942,
      "spent": 4943,
      "archive": 4944,
      "frozen": 4945,
      "',": 4946,
      "Bu": 4947,
      "CVE": 4948,
      "aware": 4949,
      "enter": 4950,
      "ands": 4951,
      "buy": 4952,
      "specification": 4953,
      "existence": 4954,
      "----": 4955,
      "proposed": 4956,
      "magnetic": 4957,
      "tells": 4958,
      "explicitly": 4959,
      "sustainability": 4960,
      "LI": 4961,
      "Open": 4962,
      "liance": 4963,
      "oney": 4964,
      "values": 4965,
      "ismic": 4966,
      "operations": 4967,
      "technology": 4968,
      "methodo": 4969,
      "derivable": 4970,
      "continuity": 4971,
      "automation": 4972,
      "established": 4973,
      "Ear": 4974,
      "dust": 4975,
      "ocean": 4976,
      "remo": 4977,
      "intended": 4978,
      "wealth": 4979,
      "mechanics": 4980,
      "successful": 4981,
      "digest": 4982,
      "sense": 4983,
      "typically": 4984,
      "ferences": 4985,
      "Integr": 4986,
      "FT": 4987,
      "Qu": 4988,
      "rum": 4989,
      "switch": 4990,
      "ently": 4991,
      "basin": 4992,
      "background": 4993,
      "throughput": 4994,
      "functional": 4995,
      "markets": 4996,
      "partition": 4997,
      "institution": 4998,
      "certific": 4999,
      "2606": 5000,
      "reveals": 5001,
      "population": 5002,
      "accum": 5003,
      "client": 5004,
      "230": 5005,
      "Res": 5006,
      "coded": 5007,
      "construct": 5008,
      "intensity": 5009,
      "reser": 5010,
      "spot": 5011,
      "perman": 5012,
      "strugg": 5013,
      "fraction": 5014,
      "lacks": 5015,
      "universal": 5016,
      "confirm": 5017,
      "Even": 5018,
      "plumb": 5019,
      "outcome": 5020,
      "Cont": 5021,
      "ogenous": 5022,
      "heuristic": 5023,
      "prevents": 5024,
      "plumbing": 5025,
      "28": 5026,
      "ele": 5027,
      "eper": 5028,
      "major": 5029,
      "parad": 5030,
      "proving": 5031,
      "decouple": 5032,
      "gran": 5033,
      "risks": 5034,
      "loads": 5035,
      "snap": 5036,
      "sandbox": 5037,
      "Ne": 5038,
      "``": 5039,
      "billion": 5040,
      "cand": 5041,
      "won": 5042,
      "stage": 5043,
      "expos": 5044,
      "adding": 5045,
      "acting": 5046,
      "changed": 5047,
      "scalar": 5048,
      "firm": 5049,
      "elimin": 5050,
      "paths": 5051,
      "learned": 5052,
      "interpret": 5053,
      "System": 5054,
      "abstraction": 5055,
      "landscape": 5056,
      "business": 5057,
      "envelope": 5058,
      "Cur": 5059,
      "onic": 5060,
      "ises": 5061,
      "lean": 5062,
      "ially": 5063,
      "prices": 5064,
      "logs": 5065,
      "effective": 5066,
      "smooth": 5067,
      "portunity": 5068,
      "PO": 5069,
      "sever": 5070,
      "cover": 5071,
      "buffer": 5072,
      "windows": 5073,
      "writing": 5074,
      "legal": 5075,
      "reported": 5076,
      "recogn": 5077,
      "crash": 5078,
      "Mul": 5079,
      "Ob": 5080,
      "bul": 5081,
      "almost": 5082,
      "exogenous": 5083,
      "perspective": 5084,
      "checkable": 5085,
      "measures": 5086,
      "describe": 5087,
      "carbon": 5088,
      "anchors": 5089,
      "smaller": 5090,
      "significantly": 5091,
      "availability": 5092,
      "fluctuations": 5093,
      "Precise": 5094,
      "Py": 5095,
      "SE": 5096,
      "inher": 5097,
      "propose": 5098,
      "transmission": 5099,
      "gue": 5100,
      "operation": 5101,
      "provider": 5102,
      "malicious": 5103,
      "hybrid": 5104,
      "separation": 5105,
      "soft": 5106,
      "iece": 5107,
      "controller": 5108,
      "invitation": 5109,
      "Com": 5110,
      "ov": 5111,
      "thesis": 5112,
      "oring": 5113,
      "itative": 5114,
      "igu": 5115,
      "utes": 5116,
      "regular": 5117,
      "drive": 5118,
      "summary": 5119,
      "semant": 5120,
      "records": 5121,
      "grammar": 5122,
      "maintaining": 5123,
      "challeng": 5124,
      "Aug": 5125,
      "shadow": 5126,
      ".,": 5127,
      "DE": 5128,
      "ME": 5129,
      "cation": 5130,
      "kin": 5131,
      "osing": 5132,
      "restr": 5133,
      "izer": 5134,
      "coming": 5135,
      "comment": 5136,
      "bounds": 5137,
      "commend": 5138,
      "adversarial": 5139,
      "80": 5140,
      "lights": 5141,
      "oss": 5142,
      "pan": 5143,
      "above": 5144,
      "sures": 5145,
      "delay": 5146,
      "people": 5147,
      "elines": 5148,
      "targets": 5149,
      "synthesis": 5150,
      "possible": 5151,
      "footprint": 5152,
      "July": 5153,
      "CI": 5154,
      "IC": 5155,
      "danger": 5156,
      "race": 5157,
      "iform": 5158,
      "concer": 5159,
      "said": 5160,
      "thentic": 5161,
      "isolation": 5162,
      "photo": 5163,
      "Precisely": 5164,
      "37": 5165,
      "AC": 5166,
      "cas": 5167,
      "tree": 5168,
      "arily": 5169,
      "partial": 5170,
      "due": 5171,
      "2023": 5172,
      "basis": 5173,
      "orders": 5174,
      "harder": 5175,
      "estimate": 5176,
      "warm": 5177,
      "library": 5178,
      "Sust": 5179,
      "icon": 5180,
      "debug": 5181,
      "seismic": 5182,
      "plus": 5183,
      "dependence": 5184,
      "identical": 5185,
      "pipelines": 5186,
      "decoupled": 5187,
      "News": 5188,
      "skew": 5189,
      "Sustain": 5190,
      "revision": 5191,
      "erc": 5192,
      "arse": 5193,
      "ils": 5194,
      "explain": 5195,
      "acceler": 5196,
      "pool": 5197,
      "riend": 5198,
      "ghost": 5199,
      "otherwise": 5200,
      "ultaneous": 5201,
      "wallet": 5202,
      "turbulence": 5203,
      "pository": 5204,
      "hedging": 5205,
      "pil": 5206,
      "ring": 5207,
      "yield": 5208,
      "entity": 5209,
      "trip": 5210,
      "authentic": 5211,
      "commod": 5212,
      "hole": 5213,
      "instability": 5214,
      "ieve": 5215,
      "barrier": 5216,
      "governance": 5217,
      "`,": 5218,
      "bir": 5219,
      "length": 5220,
      "stone": 5221,
      "staging": 5222,
      "reng": 5223,
      "dependencies": 5224,
      "backup": 5225,
      "approaches": 5226,
      "spectro": 5227,
      "instructions": 5228,
      "include": 5229,
      "exploit": 5230,
      "embedding": 5231,
      "dissipation": 5232,
      "fle": 5233,
      "rated": 5234,
      "smar": 5235,
      "sian": 5236,
      "——": 5237,
      "ram": 5238,
      "drand": 5239,
      "spectrum": 5240,
      "correctly": 5241,
      "equival": 5242,
      "install": 5243,
      "findings": 5244,
      "persistent": 5245,
      "controlled": 5246,
      "help": 5247,
      "family": 5248,
      "influence": 5249,
      "Multi": 5250,
      "FP": 5251,
      "Same": 5252,
      "reply": 5253,
      "story": 5254,
      "season": 5255,
      "agency": 5256,
      "rial": 5257,
      "phic": 5258,
      "200": 5259,
      "mechanisms": 5260,
      "colony": 5261,
      "movement": 5262,
      "levels": 5263,
      "stopped": 5264,
      "benef": 5265,
      "silence": 5266,
      "proposition": 5267,
      "triggers": 5268,
      "demonstrates": 5269,
      "App": 5270,
      "accepted": 5271,
      "neutral": 5272,
      "64": 5273,
      "LS": 5274,
      "gives": 5275,
      "streng": 5276,
      "vere": 5277,
      "vered": 5278,
      "activ": 5279,
      "simultaneous": 5280,
      "languages": 5281,
      "liter": 5282,
      "necessity": 5283,
      "Spec": 5284,
      "sentence": 5285,
      "contains": 5286,
      "forecasting": 5287,
      "mutable": 5288,
      "31B": 5289,
      "cryptographic": 5290,
      "JSON": 5291,
      "progress": 5292,
      "scan": 5293,
      "inspect": 5294,
      "repository": 5295,
      "determ": 5296,
      "conserv": 5297,
      "uniform": 5298,
      "ades": 5299,
      "ivot": 5300,
      "multil": 5301,
      "detector": 5302,
      "survive": 5303,
      "regional": 5304,
      "galax": 5305,
      "example": 5306,
      "determine": 5307,
      "84": 5308,
      "Data": 5309,
      "Man": 5310,
      "lap": 5311,
      "merg": 5312,
      "repe": 5313,
      "orum": 5314,
      "heat": 5315,
      "prose": 5316,
      "quorum": 5317,
      "tered": 5318,
      "sole": 5319,
      "regimes": 5320,
      "---": 5321,
      "occurs": 5322,
      "radius": 5323,
      "marginal": 5324,
      "silently": 5325,
      "enforcement": 5326,
      "hierarchy": 5327,
      "LE": 5328,
      "OC": 5329,
      "tics": 5330,
      "stabil": 5331,
      "decomposition": 5332,
      "meter": 5333,
      "lose": 5334,
      "trun": 5335,
      "spac": 5336,
      "amount": 5337,
      "validator": 5338,
      "scill": 5339,
      "instance": 5340,
      "clusters": 5341,
      "ambigu": 5342,
      "style": 5343,
      "horiz": 5344,
      "Earth": 5345,
      "candid": 5346,
      "August": 5347,
      "mim": 5348,
      "pivot": 5349,
      "iff": 5350,
      "urity": 5351,
      "modeled": 5352,
      "changing": 5353,
      "solves": 5354,
      "00Z": 5355,
      "teness": 5356,
      "focuses": 5357,
      "captured": 5358,
      "described": 5359,
      "priorit": 5360,
      "middle": 5361,
      "birth": 5362,
      "Sec": 5363,
      "powered": 5364,
      "keys": 5365,
      "numbers": 5366,
      "occur": 5367,
      "selected": 5368,
      "riendly": 5369,
      "came": 5370,
      "pet": 5371,
      "gravit": 5372,
      "regions": 5373,
      "shifted": 5374,
      "Web": 5375,
      "reliance": 5376,
      "dense": 5377,
      "LLMs": 5378,
      "navigate": 5379,
      "aaS": 5380,
      "HF": 5381,
      "dden": 5382,
      "fig": 5383,
      "sees": 5384,
      "iring": 5385,
      "imposs": 5386,
      "observer": 5387,
      "curren": 5388,
      "controls": 5389,
      "rank": 5390,
      "interactions": 5391,
      "delivery": 5392,
      "interesting": 5393,
      "adaptive": 5394,
      "Per": 5395,
      "aero": 5396,
      "money": 5397,
      "sess": 5398,
      "vity": 5399,
      "incorpor": 5400,
      "weather": 5401,
      "compliance": 5402,
      "typed": 5403,
      "pression": 5404,
      "equation": 5405,
      "reaches": 5406,
      "verifying": 5407,
      "allowed": 5408,
      "follows": 5409,
      "delegate": 5410,
      "establish": 5411,
      "cadence": 5412,
      "Apr": 5413,
      "GW": 5414,
      "IT": 5415,
      "Vo": 5416,
      "kes": 5417,
      "mber": 5418,
      "oscill": 5419,
      "v3": 5420,
      "zone": 5421,
      "enh": 5422,
      "ster": 5423,
      "aly": 5424,
      "exhib": 5425,
      "apor": 5426,
      "acle": 5427,
      "derive": 5428,
      "achieve": 5429,
      "highlights": 5430,
      "branch": 5431,
      "goti": 5432,
      "truly": 5433,
      "persistence": 5434,
      "transparen": 5435,
      "leaves": 5436,
      "happened": 5437,
      "bind": 5438,
      "rein": 5439,
      "onal": 5440,
      "modif": 5441,
      "agues": 5442,
      "sudden": 5443,
      "Then": 5444,
      "discre": 5445,
      "creating": 5446,
      "ifying": 5447,
      "industrial": 5448,
      "Once": 5449,
      "analyz": 5450,
      "purely": 5451,
      "75": 5452,
      "Ro": 5453,
      "citation": 5454,
      "void": 5455,
      "health": 5456,
      "deal": 5457,
      "covariance": 5458,
      "versus": 5459,
      "actor": 5460,
      "measurements": 5461,
      "offer": 5462,
      "fitting": 5463,
      "bandwidth": 5464,
      "asserting": 5465,
      "particularly": 5466,
      "65": 5467,
      "batch": 5468,
      "dation": 5469,
      "ots": 5470,
      "vary": 5471,
      "metic": 5472,
      "compromis": 5473,
      "Inter": 5474,
      "diver": 5475,
      "solving": 5476,
      "counts": 5477,
      "owner": 5478,
      "colle": 5479,
      "hydro": 5480,
      "economy": 5481,
      "counterparty": 5482,
      "Verification": 5483,
      "addressee": 5484,
      "fleet": 5485,
      "mma": 5486,
      "page": 5487,
      "threat": 5488,
      "ining": 5489,
      "recompute": 5490,
      "wel": 5491,
      "area": 5492,
      "plu": 5493,
      "acknow": 5494,
      "vised": 5495,
      "increased": 5496,
      "reducing": 5497,
      "estimation": 5498,
      "channels": 5499,
      "script": 5500,
      "inflation": 5501,
      "strength": 5502,
      "DM": 5503,
      "High": 5504,
      "ological": 5505,
      "eness": 5506,
      "ingual": 5507,
      "quer": 5508,
      "strip": 5509,
      "phen": 5510,
      "Why": 5511,
      "completeness": 5512,
      "holding": 5513,
      "execute": 5514,
      "days": 5515,
      "starts": 5516,
      "ecosystem": 5517,
      "portunities": 5518,
      "propagation": 5519,
      "34": 5520,
      "Or": 5521,
      "RT": 5522,
      "given": 5523,
      "negoti": 5524,
      "forms": 5525,
      "signer": 5526,
      "trusting": 5527,
      "clude": 5528,
      "learn": 5529,
      "mitigate": 5530,
      "hypo": 5531,
      "strategies": 5532,
      "programming": 5533,
      "invariants": 5534,
      "aggregate": 5535,
      "procedure": 5536,
      "gravitational": 5537,
      "NS": 5538,
      "RM": 5539,
      "tag": 5540,
      "sector": 5541,
      "coin": 5542,
      "losing": 5543,
      "mole": 5544,
      "atell": 5545,
      "inevit": 5546,
      "physically": 5547,
      "affect": 5548,
      "classification": 5549,
      "recover": 5550,
      "momentum": 5551,
      "narrative": 5552,
      "frontier": 5553,
      "options": 5554,
      "swap": 5555,
      "articles": 5556,
      "discipline": 5557,
      "dated": 5558,
      "mas": 5559,
      "six": 5560,
      "recur": 5561,
      "revers": 5562,
      "toler": 5563,
      "cool": 5564,
      "note": 5565,
      "notic": 5566,
      "render": 5567,
      "signatures": 5568,
      "regress": 5569,
      "2022": 5570,
      "generative": 5571,
      "roughly": 5572,
      "plane": 5573,
      "loops": 5574,
      "choosing": 5575,
      "catches": 5576,
      "reconc": 5577,
      "dropped": 5578,
      "degradation": 5579,
      "$.": 5580,
      "AG": 5581,
      "Cap": 5582,
      "SaaS": 5583,
      "fight": 5584,
      "iqu": 5585,
      "zz": 5586,
      "inger": 5587,
      "dele": 5588,
      "meta": 5589,
      "exerc": 5590,
      "effort": 5591,
      "lineage": 5592,
      "otic": 5593,
      "append": 5594,
      "optimized": 5595,
      "legacy": 5596,
      "reduced": 5597,
      "eventually": 5598,
      "warning": 5599,
      "describes": 5600,
      "reconstruction": 5601,
      "RLHF": 5602,
      "related": 5603,
      "synchronization": 5604,
      "challenges": 5605,
      "colleagues": 5606,
      "LO": 5607,
      "TT": 5608,
      "conds": 5609,
      "byte": 5610,
      "audi": 5611,
      "solver": 5612,
      "solute": 5613,
      "turning": 5614,
      "planet": 5615,
      "passive": 5616,
      "resolved": 5617,
      "posts": 5618,
      "causal": 5619,
      "modal": 5620,
      "personal": 5621,
      "onomy": 5622,
      "isolate": 5623,
      "isolated": 5624,
      "participants": 5625,
      "permanent": 5626,
      "AM": 5627,
      "Mon": 5628,
      "UN": 5629,
      "jit": 5630,
      "rotation": 5631,
      "meant": 5632,
      "vertical": 5633,
      "omen": 5634,
      "decades": 5635,
      "damp": 5636,
      "recorded": 5637,
      "evaluate": 5638,
      "defense": 5639,
      "documentation": 5640,
      "differential": 5641,
      "protect": 5642,
      "asymmetry": 5643,
      "DC": 5644,
      "Des": 5645,
      "piece": 5646,
      "sal": 5647,
      "send": 5648,
      "ats": 5649,
      "ensur": 5650,
      "lets": 5651,
      "ulty": 5652,
      "gether": 5653,
      "steps": 5654,
      "manip": 5655,
      "checker": 5656,
      "command": 5657,
      "actions": 5658,
      "engineer": 5659,
      "earning": 5660,
      "stored": 5661,
      "matches": 5662,
      "coupled": 5663,
      "attested": 5664,
      "implicit": 5665,
      "hours": 5666,
      "debt": 5667,
      "remote": 5668,
      "multilingual": 5669,
      "98": 5670,
      "Each": 5671,
      "Gaus": 5672,
      "II": 5673,
      "bes": 5674,
      "pull": 5675,
      "invent": 5676,
      "represents": 5677,
      "enum": 5678,
      "together": 5679,
      "mpot": 5680,
      "resources": 5681,
      "canon": 5682,
      "plaus": 5683,
      "haven": 5684,
      "regression": 5685,
      "drif": 5686,
      "collision": 5687,
      "captures": 5688,
      "foundation": 5689,
      "examines": 5690,
      "motif": 5691,
      "Bench": 5692,
      "%.": 5693,
      "32": 5694,
      "70": 5695,
      "brit": 5696,
      "sApp": 5697,
      "reactive": 5698,
      "venues": 5699,
      "introducing": 5700,
      "WhatsApp": 5701,
      "witnesses": 5702,
      "geometric": 5703,
      "freshness": 5704,
      "incentive": 5705,
      "Gener": 5706,
      "struggle": 5707,
      "horizon": 5708,
      ".'": 5709,
      "Id": 5710,
      "mill": 5711,
      "secre": 5712,
      "adop": 5713,
      "tire": 5714,
      "fake": 5715,
      "center": 5716,
      "computed": 5717,
      "added": 5718,
      "humans": 5719,
      "osen": 5720,
      "performing": 5721,
      "atmosphere": 5722,
      "GPT": 5723,
      "deliber": 5724,
      "ignore": 5725,
      "replacement": 5726,
      "certificate": 5727,
      "38": 5728,
      "44": 5729,
      "B2": 5730,
      "dress": 5731,
      "easy": 5732,
      "ffic": 5733,
      "men": 5734,
      "sig": 5735,
      "altern": 5736,
      "alog": 5737,
      "ctors": 5738,
      "cha": 5739,
      "acou": 5740,
      "surance": 5741,
      "recorder": 5742,
      "reachable": 5743,
      "trajectories": 5744,
      "invitations": 5745,
      "purpose": 5746,
      "registry": 5747,
      "morpho": 5748,
      "principal": 5749,
      "important": 5750,
      "paradig": 5751,
      "EN": 5752,
      "El": 5753,
      "batter": 5754,
      "iation": 5755,
      "edges": 5756,
      "arith": 5757,
      "moist": 5758,
      "absolute": 5759,
      "tries": 5760,
      "ulative": 5761,
      "door": 5762,
      "disclosure": 5763,
      "operators": 5764,
      "writes": 5765,
      "probes": 5766,
      "biased": 5767,
      "tuned": 5768,
      "broader": 5769,
      "scheduling": 5770,
      "vinaverse": 5771,
      "institutional": 5772,
      "currency": 5773,
      "Gaussian": 5774,
      "Are": 5775,
      "Cor": 5776,
      "Lá": 5777,
      "Pr": 5778,
      "dial": 5779,
      "rase": 5780,
      "reprodu": 5781,
      "oracle": 5782,
      "endpoints": 5783,
      "parse": 5784,
      "upper": 5785,
      "apped": 5786,
      "decisions": 5787,
      "growing": 5788,
      "following": 5789,
      "Engl": 5790,
      "preserve": 5791,
      "algorithms": 5792,
      "maximum": 5793,
      "increasingly": 5794,
      "phenomen": 5795,
      "noticed": 5796,
      "English": 5797,
      "PR": 5798,
      "UTC": 5799,
      "VM": 5800,
      "bio": 5801,
      "eas": 5802,
      "flex": 5803,
      "uary": 5804,
      "assign": 5805,
      "decorrelation": 5806,
      "ilit": 5807,
      "vert": 5808,
      "tel": 5809,
      "ourse": 5810,
      "uel": 5811,
      "strap": 5812,
      "variability": 5813,
      "setup": 5814,
      "science": 5815,
      "focused": 5816,
      "cursive": 5817,
      "sider": 5818,
      "pinned": 5819,
      "quietly": 5820,
      "pilot": 5821,
      "BM": 5822,
      "Lan": 5823,
      "ga": 5824,
      "none": 5825,
      "ture": 5826,
      "usel": 5827,
      "vice": 5828,
      "ford": 5829,
      "ured": 5830,
      "strat": 5831,
      "evapor": 5832,
      "phot": 5833,
      "studies": 5834,
      "prompts": 5835,
      "Agents": 5836,
      "protocols": 5837,
      "queue": 5838,
      "demonstrate": 5839,
      "hitting": 5840,
      "abstract": 5841,
      "surveys": 5842,
      "alongside": 5843,
      "diversity": 5844,
      "ensuring": 5845,
      "moisture": 5846,
      "Ac": 5847,
      "EU": 5848,
      "March": 5849,
      "thon": 5850,
      "invisible": 5851,
      "recommend": 5852,
      "recursive": 5853,
      "itute": 5854,
      "raph": 5855,
      "iry": 5856,
      "contam": 5857,
      "guid": 5858,
      "decide": 5859,
      "monol": 5860,
      "scious": 5861,
      "Any": 5862,
      "ampl": 5863,
      "talk": 5864,
      "contracts": 5865,
      "1000": 5866,
      "ikes": 5867,
      "reconstruct": 5868,
      "life": 5869,
      "examine": 5870,
      "diffusion": 5871,
      "discussion": 5872,
      "attractor": 5873,
      "vereign": 5874,
      "Ask": 5875,
      "CS": 5876,
      "Euro": 5877,
      "sits": 5878,
      "satell": 5879,
      "retry": 5880,
      "chosen": 5881,
      "profiles": 5882,
      "util": 5883,
      "conscious": 5884,
      "abric": 5885,
      "reson": 5886,
      "endor": 5887,
      "Indi": 5888,
      "failing": 5889,
      "validity": 5890,
      "planetary": 5891,
      "launch": 5892,
      "quantum": 5893,
      "quantify": 5894,
      "scheme": 5895,
      "experi": 5896,
      "simpl": 5897,
      "routing": 5898,
      "house": 5899,
      "difficulty": 5900,
      "accurate": 5901,
      "Bit": 5902,
      "Using": 5903,
      "mind": 5904,
      "vot": 5905,
      "wav": 5906,
      "ycle": 5907,
      "allocation": 5908,
      "toff": 5909,
      "poor": 5910,
      "beta": 5911,
      "engines": 5912,
      "goes": 5913,
      "breaking": 5914,
      "environmental": 5915,
      "international": 5916,
      "blockchain": 5917,
      "shaped": 5918,
      "speak": 5919,
      "medium": 5920,
      "privacy": 5921,
      "leading": 5922,
      "improvement": 5923,
      "symbolic": 5924,
      "methodology": 5925,
      "jitter": 5926,
      "Dis": 5927,
      "million": 5928,
      "slip": 5929,
      "deeper": 5930,
      "rage": 5931,
      "resist": 5932,
      "max": 5933,
      "interpol": 5934,
      "closes": 5935,
      "passes": 5936,
      "Real": 5937,
      "cutoff": 5938,
      "virtual": 5939,
      "ropic": 5940,
      "mandate": 5941,
      "coordinate": 5942,
      "bootstrap": 5943,
      "April": 5944,
      "85": 5945,
      "Bay": 5946,
      "az": 5947,
      "incomplete": 5948,
      "onist": 5949,
      "ank": 5950,
      "stake": 5951,
      "route": 5952,
      "mere": 5953,
      "los": 5954,
      "gravity": 5955,
      "takes": 5956,
      "commer": 5957,
      "template": 5958,
      "scient": 5959,
      "planner": 5960,
      "observational": 5961,
      "Reg": 5962,
      "scop": 5963,
      "presented": 5964,
      "256": 5965,
      "radio": 5966,
      "connected": 5967,
      "walk": 5968,
      "converge": 5969,
      "...": 5970,
      "mentioned": 5971,
      "snapshot": 5972,
      "canonical": 5973,
      "acoustic": 5974,
      "39": 5975,
      "Sum": 5976,
      "cris": 5977,
      "table": 5978,
      "ane": 5979,
      "novel": 5980,
      "consu": 5981,
      "extract": 5982,
      "augh": 5983,
      "problems": 5984,
      "idempot": 5985,
      "handling": 5986,
      "integrate": 5987,
      "reduces": 5988,
      "camp": 5989,
      "authorized": 5990,
      "objects": 5991,
      "fetch": 5992,
      "successfully": 5993,
      "aggress": 5994,
      "lifec": 5995,
      "assertion": 5996,
      "transforms": 5997,
      "accounting": 5998,
      "kinetic": 5999,
      "battery": 6000,
      "Frid": 6001,
      "Si": 6002,
      "Sou": 6003,
      "rational": 6004,
      "ulate": 6005,
      "neither": 6006,
      "bots": 6007,
      "fund": 6008,
      "engagement": 6009,
      "constrain": 6010,
      "nonce": 6011,
      "relier": 6012,
      "vantage": 6013,
      "similarity": 6014,
      "developers": 6015,
      "autonomy": 6016,
      "identifying": 6017,
      "deviation": 6018,
      "satisfy": 6019,
      "impossible": 6020,
      "monolith": 6021,
      "Friday": 6022,
      "Imp": 6023,
      "MW": 6024,
      "Plat": 6025,
      "Su": 6026,
      "Sav": 6027,
      "bra": 6028,
      "aler": 6029,
      "itives": 6030,
      "escape": 6031,
      "edia": 6032,
      "arma": 6033,
      "condu": 6034,
      "aude": 6035,
      "fire": 6036,
      "observe": 6037,
      "expand": 6038,
      "validates": 6039,
      "naming": 6040,
      "graphic": 6041,
      "responses": 6042,
      "legit": 6043,
      "equations": 6044,
      "ultural": 6045,
      "deployed": 6046,
      "strategic": 6047,
      "threads": 6048,
      "laws": 6049,
      "voice": 6050,
      "differenti": 6051,
      "vanish": 6052,
      "appears": 6053,
      "Claude": 6054,
      "penalty": 6055,
      "rigorous": 6056,
      "semantics": 6057,
      "paradigm": 6058,
      "$,": 6059,
      "Ma": 6060,
      "QL": 6061,
      "RU": 6062,
      "lig": 6063,
      "squ": 6064,
      "edit": 6065,
      "heter": 6066,
      "degener": 6067,
      "span": 6068,
      "fav": 6069,
      "finance": 6070,
      "solid": 6071,
      "surro": 6072,
      "remaining": 6073,
      "hood": 6074,
      "breakdown": 6075,
      "Tool": 6076,
      "store": 6077,
      "settle": 6078,
      "blocks": 6079,
      "drawn": 6080,
      "gains": 6081,
      "leakage": 6082,
      "normalization": 6083,
      "equivalent": 6084,
      "figure": 6085,
      "plausible": 6086,
      "220": 6087,
      "3v1": 6088,
      "Fir": 6089,
      "Ré": 6090,
      "Sw": 6091,
      "bill": 6092,
      "friendly": 6093,
      "finger": 6094,
      "lt": 6095,
      "native": 6096,
      "anced": 6097,
      "secure": 6098,
      "contrad": 6099,
      "conclusion": 6100,
      "actively": 6101,
      "worse": 6102,
      "Invit": 6103,
      "dule": 6104,
      "respect": 6105,
      "proofs": 6106,
      "evaluated": 6107,
      "Agreed": 6108,
      "particle": 6109,
      "persona": 6110,
      "priority": 6111,
      "unique": 6112,
      "iki": 6113,
      "competitive": 6114,
      "predicted": 6115,
      "orbital": 6116,
      "catastro": 6117,
      "achieved": 6118,
      "compromised": 6119,
      "Bitcoin": 6120,
      "?',": 6121,
      "Car": 6122,
      "SO": 6123,
      "fession": 6124,
      "gates": 6125,
      "rich": 6126,
      "tens": 6127,
      "alter": 6128,
      "exit": 6129,
      "quar": 6130,
      "trail": 6131,
      "overclaim": 6132,
      "providers": 6133,
      "hook": 6134,
      "synt": 6135,
      "primitives": 6136,
      "literature": 6137,
      "mathematically": 6138,
      "interpretation": 6139,
      "mirrors": 6140,
      "indicates": 6141,
      "Both": 6142,
      "sites": 6143,
      "Security": 6144,
      "arithmetic": 6145,
      "Europe": 6146,
      "lifecycle": 6147,
      ");": 6148,
      "67": 6149,
      "Block": 6150,
      "Can": 6151,
      "IM": 6152,
      "Pre": 6153,
      "aver": 6154,
      "duration": 6155,
      "iated": 6156,
      "thin": 6157,
      "invalidate": 6158,
      "abul": 6159,
      "aph": 6160,
      "weigh": 6161,
      "resil": 6162,
      "acqu": 6163,
      "lier": 6164,
      "traffic": 6165,
      "optical": 6166,
      "fair": 6167,
      "thermo": 6168,
      "preprint": 6169,
      "overlap": 6170,
      "ifiable": 6171,
      "polar": 6172,
      "analog": 6173,
      "2605": 6174,
      "statistics": 6175,
      "economics": 6176,
      "delegates": 6177,
      "inherently": 6178,
      "Google": 6179,
      "Hub": 6180,
      "Ser": 6181,
      "Tren": 6182,
      "Where": 6183,
      "bil": 6184,
      "infinite": 6185,
      "ised": 6186,
      "unknown": 6187,
      "extra": 6188,
      "adoption": 6189,
      "image": 6190,
      "assoc": 6191,
      "ached": 6192,
      "ifiers": 6193,
      "validated": 6194,
      "artific": 6195,
      "scar": 6196,
      "everyone": 6197,
      "maintenance": 6198,
      "talking": 6199,
      "skip": 6200,
      "Chat": 6201,
      "arbitr": 6202,
      "convex": 6203,
      "convective": 6204,
      "diagnostic": 6205,
      "simultaneously": 6206,
      "fighting": 6207,
      "div": 6208,
      "thous": 6209,
      "leave": 6210,
      "deg": 6211,
      "contra": 6212,
      "opportunity": 6213,
      "viable": 6214,
      "upstream": 6215,
      "realized": 6216,
      "finish": 6217,
      "producer": 6218,
      "operate": 6219,
      "passing": 6220,
      "others": 6221,
      "waiting": 6222,
      "allowing": 6223,
      "portion": 6224,
      "proposes": 6225,
      "cleanly": 6226,
      "stars": 6227,
      "Deep": 6228,
      "leads": 6229,
      "sentiment": 6230,
      "potentially": 6231,
      "acceptable": 6232,
      "dominant": 6233,
      "Python": 6234,
      "160": 6235,
      "42": 6236,
      "500": 6237,
      "96": 6238,
      "Dó": 6239,
      "IR": 6240,
      "Red": 6241,
      "Ste": 6242,
      "cular": 6243,
      "fuel": 6244,
      "liveness": 6245,
      "mun": 6246,
      "vation": 6247,
      "yes": 6248,
      "oration": 6249,
      "lease": 6250,
      "conclude": 6251,
      "ago": 6252,
      "agreed": 6253,
      "contact": 6254,
      "eliza": 6255,
      "nonlinear": 6256,
      "observable": 6257,
      "couldn": 6258,
      "weighted": 6259,
      "introduced": 6260,
      "accountability": 6261,
      "video": 6262,
      "burst": 6263,
      "projects": 6264,
      "smoothing": 6265,
      "falsifier": 6266,
      "Observ": 6267,
      "Asked": 6268,
      "AO": 6269,
      "EC": 6270,
      "NV": 6271,
      "VR": 6272,
      "hide": 6273,
      "km": 6274,
      "tend": 6275,
      "atives": 6276,
      "orient": 6277,
      "escal": 6278,
      "module": 6279,
      "immutable": 6280,
      "istribut": 6281,
      "irrelevant": 6282,
      "izations": 6283,
      "grades": 6284,
      "Exori": 6285,
      "terminal": 6286,
      "hyper": 6287,
      "privile": 6288,
      "correlations": 6289,
      "masking": 6290,
      "Luxury": 6291,
      "assessment": 6292,
      "several": 6293,
      "aught": 6294,
      "catastrophic": 6295,
      "Fo": 6296,
      "Par": 6297,
      "Retic": 6298,
      "TS": 6299,
      "Val": 6300,
      "hot": 6301,
      "mint": 6302,
      "insp": 6303,
      "replay": 6304,
      "robot": 6305,
      "provision": 6306,
      "gaps": 6307,
      "cript": 6308,
      "defines": 6309,
      "2603": 6310,
      "transformer": 6311,
      "sheet": 6312,
      "gradients": 6313,
      "thought": 6314,
      "embed": 6315,
      "stationary": 6316,
      "managed": 6317,
      "exercise": 6318,
      "abulary": 6319,
      "contrast": 6320,
      "Reticuli": 6321,
      "ique": 6322,
      "entify": 6323,
      "sell": 6324,
      "cope": 6325,
      "plant": 6326,
      "redund": 6327,
      "sovereign": 6328,
      "funding": 6329,
      "generates": 6330,
      "subsequ": 6331,
      "semi": 6332,
      "hoc": 6333,
      "questions": 6334,
      "chains": 6335,
      "stock": 6336,
      "criter": 6337,
      "certification": 6338,
      "retriev": 6339,
      "thinking": 6340,
      "argue": 6341,
      "calculation": 6342,
      "eliminate": 6343,
      "dangerous": 6344,
      "useless": 6345,
      "lossy": 6346,
      "()": 6347,
      "47": 6348,
      "56": 6349,
      "CE": 6350,
      "Dec": 6351,
      "^{": 6352,
      "cible": 6353,
      "done": 6354,
      "sav": 6355,
      "ubl": 6356,
      "replic": 6357,
      "ana": 6358,
      "isot": 6359,
      "esian": 6360,
      "notification": 6361,
      "white": 6362,
      "outage": 6363,
      "dings": 6364,
      "anti": 6365,
      "traces": 6366,
      "ounding": 6367,
      "minutes": 6368,
      "monot": 6369,
      "tooling": 6370,
      "centric": 6371,
      "suggested": 6372,
      "daily": 6373,
      "refut": 6374,
      "dynamical": 6375,
      "finds": 6376,
      "messy": 6377,
      "competition": 6378,
      "concentrated": 6379,
      "exposes": 6380,
      "Sustainable": 6381,
      "scopic": 6382,
      "degeneracy": 6383,
      "First": 6384,
      "97": 6385,
      "Brid": 6386,
      "SD": 6387,
      "Sch": 6388,
      "nal": 6389,
      "wrap": 6390,
      "iny": 6391,
      "relay": 6392,
      "anom": 6393,
      "depart": 6394,
      "seconds": 6395,
      "wearing": 6396,
      "spikes": 6397,
      "stranger": 6398,
      "irrevers": 6399,
      "users": 6400,
      "compan": 6401,
      "ifications": 6402,
      "former": 6403,
      "worker": 6404,
      "correspond": 6405,
      "transformation": 6406,
      "paid": 6407,
      "optimizer": 6408,
      "reflection": 6409,
      "practition": 6410,
      "modular": 6411,
      "ashboard": 6412,
      "detected": 6413,
      "recip": 6414,
      "indicator": 6415,
      "drivers": 6416,
      "strictly": 6417,
      "vocabulary": 6418,
      "scenario": 6419,
      "galaxy": 6420,
      "varying": 6421,
      "arbitrary": 6422,
      "Bus": 6423,
      "EM": 6424,
      "IP": 6425,
      "NFT": 6426,
      "RI": 6427,
      "aign": 6428,
      "dou": 6429,
      "got": 6430,
      "income": 6431,
      "rewrite": 6432,
      "nois": 6433,
      "lot": 6434,
      "beli": 6435,
      "approved": 6436,
      "compens": 6437,
      "generic": 6438,
      "subsid": 6439,
      "operates": 6440,
      "remained": 6441,
      "memor": 6442,
      "views": 6443,
      "charge": 6444,
      "attempting": 6445,
      "demonstrated": 6446,
      "microstructure": 6447,
      "investment": 6448,
      "concern": 6449,
      "Vogue": 6450,
      "iques": 6451,
      "heterogen": 6452,
      "87": 6453,
      "Che": 6454,
      "Did": 6455,
      "SH": 6456,
      "ama": 6457,
      "avi": 6458,
      "dantic": 6459,
      "gated": 6460,
      "pec": 6461,
      "rink": 6462,
      "si": 6463,
      "tage": 6464,
      "recomput": 6465,
      "ancing": 6466,
      "stated": 6467,
      "esis": 6468,
      "arm": 6469,
      "demo": 6470,
      "sea": 6471,
      "chasing": 6472,
      "lob": 6473,
      "loses": 6474,
      "beam": 6475,
      "triv": 6476,
      "ignoring": 6477,
      "calling": 6478,
      "coring": 6479,
      "cording": 6480,
      "ester": 6481,
      "created": 6482,
      "wasn": 6483,
      "approval": 6484,
      "tempor": 6485,
      "apply": 6486,
      "google": 6487,
      "homo": 6488,
      "media": 6489,
      "shipped": 6490,
      "wants": 6491,
      "estimates": 6492,
      "judge": 6493,
      "applies": 6494,
      "electron": 6495,
      "arbitrage": 6496,
      "slope": 6497,
      "brittle": 6498,
      "campaign": 6499,
      "120": 6500,
      "FR": 6501,
      "OR": 6502,
      "brow": 6503,
      "mapped": 6504,
      "reset": 6505,
      "icity": 6506,
      "propri": 6507,
      "units": 6508,
      "eta": 6509,
      "symp": 6510,
      "formul": 6511,
      "haust": 6512,
      "extension": 6513,
      "aked": 6514,
      "subtle": 6515,
      "cleared": 6516,
      "quantitative": 6517,
      "classifier": 6518,
      "hermes": 6519,
      "setting": 6520,
      "forcement": 6521,
      "silicon": 6522,
      "ratic": 6523,
      "Eng": 6524,
      "discr": 6525,
      "nearly": 6526,
      "months": 6527,
      "begins": 6528,
      "Saventify": 6529,
      "ED": 6530,
      "Mem": 6531,
      "PD": 6532,
      "Run": 6533,
      "SL": 6534,
      "hig": 6535,
      "pm": 6536,
      "rating": 6537,
      "attire": 6538,
      "ensures": 6539,
      "tour": 6540,
      "hest": 6541,
      "assem": 6542,
      "aged": 6543,
      "west": 6544,
      "shrink": 6545,
      "perce": 6546,
      "ighter": 6547,
      "byproduct": 6548,
      "comfort": 6549,
      "intermediate": 6550,
      "intervention": 6551,
      "upgrade": 6552,
      "misses": 6553,
      "getting": 6554,
      "bles": 6555,
      "applying": 6556,
      "scr": 6557,
      "optimizes": 6558,
      "ixel": 6559,
      "packages": 6560,
      "centralized": 6561,
      "automat": 6562,
      "iteration": 6563,
      "Current": 6564,
      "cooling": 6565,
      "monolithic": 6566,
      "degree": 6567,
      "subsequent": 6568,
      "57": 6569,
      "AA": 6570,
      "All": 6571,
      "Right": 6572,
      "caught": 6573,
      "give": 6574,
      "karma": 6575,
      "tor": 6576,
      "ule": 6577,
      "renew": 6578,
      "ission": 6579,
      "rote": 6580,
      "ouch": 6581,
      "qual": 6582,
      "compat": 6583,
      "expiry": 6584,
      "variations": 6585,
      "sequences": 6586,
      "lane": 6587,
      "visibility": 6588,
      "standardized": 6589,
      "focusing": 6590,
      "weighting": 6591,
      "defining": 6592,
      "mitt": 6593,
      "priced": 6594,
      "preserves": 6595,
      "guarantees": 6596,
      "turbulent": 6597,
      "namo": 6598,
      "refinement": 6599,
      "seasonal": 6600,
      "plugin": 6601,
      "hypothesis": 6602,
      "Design": 6603,
      "Trends": 6604,
      "noisy": 6605,
      "proprietary": 6606,
      "highest": 6607,
      "210": 6608,
      "JW": 6609,
      "Stru": 6610,
      "cosmo": 6611,
      "unified": 6612,
      "explan": 6613,
      "exhaust": 6614,
      "ollar": 6615,
      "shares": 6616,
      "logies": 6617,
      "updated": 6618,
      "disclosed": 6619,
      "genesis": 6620,
      "grows": 6621,
      "empty": 6622,
      "filtering": 6623,
      "indeed": 6624,
      "governed": 6625,
      "catalog": 6626,
      "leaving": 6627,
      "coefficients": 6628,
      "tolerance": 6629,
      "satellite": 6630,
      "Struct": 6631,
      "33": 6632,
      "3D": 6633,
      "AD": 6634,
      "Mar": 6635,
      "Whe": 6636,
      "_id": 6637,
      "civ": 6638,
      "pap": 6639,
      "pts": 6640,
      "espec": 6641,
      "cold": 6642,
      "conven": 6643,
      "convention": 6644,
      "advantage": 6645,
      "actors": 6646,
      "sharing": 6647,
      "doi": 6648,
      "2020": 6649,
      "requiring": 6650,
      "grams": 6651,
      "really": 6652,
      "2021": 6653,
      "idea": 6654,
      "posed": 6655,
      "looked": 6656,
      "precip": 6657,
      "ordering": 6658,
      "ashion": 6659,
      "freeze": 6660,
      "angle": 6661,
      "discourse": 6662,
      "meaningful": 6663,
      "requests": 6664,
      "custo": 6665,
      "saying": 6666,
      "Researchers": 6667,
      "principle": 6668,
      "debugging": 6669,
      "Langu": 6670,
      "Bayesian": 6671,
      "consumption": 6672,
      "aggressive": 6673,
      "artificial": 6674,
      "especially": 6675,
      "49": 6676,
      "CAP": 6677,
      "Fá": 6678,
      "Hy": 6679,
      "VV": 6680,
      "hi": 6681,
      "sight": 6682,
      "vow": 6683,
      "retic": 6684,
      "atom": 6685,
      "belong": 6686,
      "amend": 6687,
      "evident": 6688,
      "manages": 6689,
      "brand": 6690,
      "asked": 6691,
      "refusal": 6692,
      "fold": 6693,
      "paying": 6694,
      "machines": 6695,
      "aligned": 6696,
      "links": 6697,
      "adaptation": 6698,
      "heavily": 6699,
      "nuance": 6700,
      "applications": 6701,
      "disjointness": 6702,
      "emergent": 6703,
      "heuristics": 6704,
      "details": 6705,
      "Models": 6706,
      "manufacturing": 6707,
      "perturbation": 6708,
      "mimic": 6709,
      "crisis": 6710,
      "legitimate": 6711,
      "fingerprint": 6712,
      "Business": 6713,
      "reticuli": 6714,
      "86": 6715,
      "Bax": 6716,
      "Ge": 6717,
      "LT": 6718,
      "La": 6719,
      "big": 6720,
      "cru": 6721,
      "lates": 6722,
      "mical": 6723,
      "ptic": 6724,
      "remon": 6725,
      "thered": 6726,
      "enco": 6727,
      "road": 6728,
      "heating": 6729,
      "converg": 6730,
      "exception": 6731,
      "formed": 6732,
      "2019": 6733,
      "durable": 6734,
      "having": 6735,
      "grounding": 6736,
      "collabor": 6737,
      "Stand": 6738,
      "periods": 6739,
      "investig": 6740,
      "insight": 6741,
      "ASA": 6742,
      "fragile": 6743,
      "Buil": 6744,
      "smart": 6745,
      "ownership": 6746,
      "Str": 6747,
      "SQL": 6748,
      "Ty": 6749,
      "Vir": 6750,
      "cup": 6751,
      "factual": 6752,
      "hur": 6753,
      "wrote": 6754,
      "如是": 6755,
      "平安": 6756,
      "endo": 6757,
      "stall": 6758,
      "ingest": 6759,
      "profession": 6760,
      "susp": 6761,
      "express": 6762,
      "adds": 6763,
      "gemma": 6764,
      "paraph": 6765,
      "prise": 6766,
      "timeout": 6767,
      "volution": 6768,
      "researcher": 6769,
      "handoff": 6770,
      "polit": 6771,
      "integrating": 6772,
      "refute": 6773,
      "rows": 6774,
      "bridal": 6775,
      "priors": 6776,
      "places": 6777,
      "randomness": 6778,
      "corruption": 6779,
      "Quant": 6780,
      "candidate": 6781,
      "acknowledge": 6782,
      "Base": 6783,
      "DO": 6784,
      "Ef": 6785,
      "Other": 6786,
      "PA": 6787,
      "Sc": 6788,
      "eth": 6789,
      "fed": 6790,
      "his": 6791,
      "toms": 6792,
      "seal": 6793,
      "seam": 6794,
      "cele": 6795,
      "propo": 6796,
      "extraction": 6797,
      "ists": 6798,
      "sphere": 6799,
      "chemical": 6800,
      "readable": 6801,
      "dynamo": 6802,
      "grant": 6803,
      "generating": 6804,
      "asks": 6805,
      "voltage": 6806,
      "ibly": 6807,
      "ruin": 6808,
      "tracks": 6809,
      "live_": 6810,
      "auditing": 6811,
      "products": 6812,
      "issues": 6813,
      "distinguishable": 6814,
      "falls": 6815,
      "manifests": 6816,
      "hallucinated": 6817,
      "Guest": 6818,
      "granular": 6819,
      "exhibit": 6820,
      "Whether": 6821,
      "400": 6822,
      "9f": 6823,
      "Gem": 6824,
      "Global": 6825,
      "Part": 6826,
      "ae": 6827,
      "nic": 6828,
      "slight": 6829,
      "rer": 6830,
      "Their": 6831,
      "ulated": 6832,
      "auction": 6833,
      "faul": 6834,
      "clause": 6835,
      "prun": 6836,
      "Indust": 6837,
      "omission": 6838,
      "export": 6839,
      "monu": 6840,
      "latter": 6841,
      "posite": 6842,
      "marketing": 6843,
      "Under": 6844,
      "minimize": 6845,
      "guests": 6846,
      "circu": 6847,
      "electric": 6848,
      "retention": 6849,
      "merged": 6850,
      "diverge": 6851,
      "alternative": 6852,
      "associated": 6853,
      "civil": 6854,
      "papers": 6855,
      "endogen": 6856,
      "130": 6857,
      "AF": 6858,
      "GH": 6859,
      "bed": 6860,
      "gone": 6861,
      "revenue": 6862,
      "opposite": 6863,
      "specified": 6864,
      "elastic": 6865,
      "Exp": 6866,
      "choose": 6867,
      "cade": 6868,
      "heads": 6869,
      "necessarily": 6870,
      "reporting": 6871,
      "automate": 6872,
      "Space": 6873,
      "confirms": 6874,
      "regulator": 6875,
      "photograph": 6876,
      "possess": 6877,
      "Post": 6878,
      "AND": 6879,
      "```": 6880,
      "panel": 6881,
      "transparency": 6882,
      "conduct": 6883,
      "homogen": 6884,
      "live_monitor": 6885,
      "Gemma": 6886,
      "402": 6887,
      "88": 6888,
      "LA": 6889,
      "SM": 6890,
      "bif": 6891,
      "lab": 6892,
      "scoring": 6893,
      "alters": 6894,
      "ars": 6895,
      "defect": 6896,
      "programs": 6897,
      "iments": 6898,
      "urations": 6899,
      "neigh": 6900,
      "parties": 6901,
      "extended": 6902,
      "interact": 6903,
      "closing": 6904,
      "observability": 6905,
      "legible": 6906,
      "versions": 6907,
      "tails": 6908,
      "placement": 6909,
      "samples": 6910,
      "survival": 6911,
      "assuming": 6912,
      "algorithmic": 6913,
      "predicate": 6914,
      "CO2": 6915,
      "accounts": 6916,
      "compressed": 6917,
      "feels": 6918,
      "contribution": 6919,
      "scenarios": 6920,
      "benefit": 6921,
      "prioritize": 6922,
      "waves": 6923,
      "scientific": 6924,
      "correspondence": 6925,
      "temporary": 6926,
      "discrimin": 6927,
      "36": 6928,
      "Graph": 6929,
      "IEE": 6930,
      "Rep": 6931,
      "Sche": 6932,
      "Tre": 6933,
      "bond": 6934,
      "dashboard": 6935,
      "dollar": 6936,
      "sour": 6937,
      "stal": 6938,
      "stakes": 6939,
      "ites": 6940,
      "asp": 6941,
      "rarely": 6942,
      "quad": 6943,
      "actu": 6944,
      "poison": 6945,
      "inel": 6946,
      "lied": 6947,
      "logistics": 6948,
      "disrup": 6949,
      "funded": 6950,
      "proven": 6951,
      "surfaces": 6952,
      "basic": 6953,
      "lookup": 6954,
      "epist": 6955,
      "computing": 6956,
      "observing": 6957,
      "respons": 6958,
      "evaluating": 6959,
      "Some": 6960,
      "sky": 6961,
      "Develo": 6962,
      "keeping": 6963,
      "minimal": 6964,
      "substitute": 6965,
      "combined": 6966,
      "cosmic": 6967,
      "bulk": 6968,
      "spacing": 6969,
      "commercial": 6970,
      "embedded": 6971,
      "precipitation": 6972,
      "Del": 6973,
      "Over": 6974,
      "Scal": 6975,
      "UI": 6976,
      "ema": 6977,
      "theater": 6978,
      "height": 6979,
      "death": 6980,
      "ceremon": 6981,
      "atever": 6982,
      "quot": 6983,
      "pointer": 6984,
      "cket": 6985,
      "among": 6986,
      "finally": 6987,
      "solv": 6988,
      "tick": 6989,
      "firms": 6990,
      "locally": 6991,
      "passed": 6992,
      "offers": 6993,
      "Exec": 6994,
      "graphy": 6995,
      "reaching": 6996,
      "occup": 6997,
      "continue": 6998,
      "mitigation": 6999,
      "24GB": 7000,
      "draft": 7001,
      "ateral": 7002,
      "declar": 7003,
      "simulate": 7004,
      "schedule": 7005,
      "accident": 7006,
      "gamma": 7007,
      "fragmentation": 7008,
      "sessions": 7009,
      "Lá4": 7010,
      "favor": 7011,
      "IEEE": 7012,
      "Bar": 7013,
      "CV": 7014,
      "Det": 7015,
      "Jan": 7016,
      "Mult": 7017,
      "`.": 7018,
      "cited": 7019,
      "dam": 7020,
      "loud": 7021,
      "ology": 7022,
      "uzz": 7023,
      "ini": 7024,
      "revalidate": 7025,
      "isition": 7026,
      "rail": 7027,
      "notice": 7028,
      "advan": 7029,
      "whatever": 7030,
      "Three": 7031,
      "signs": 7032,
      "intersection": 7033,
      "crew": 7034,
      "testim": 7035,
      "gov": 7036,
      "going": 7037,
      "lax": 7038,
      "earlier": 7039,
      "knows": 7040,
      "factors": 7041,
      "equity": 7042,
      "experiments": 7043,
      "determined": 7044,
      "taxonomy": 7045,
      "returned": 7046,
      "biases": 7047,
      "crypto": 7048,
      "organization": 7049,
      "cryptographically": 7050,
      "debate": 7051,
      "expertise": 7052,
      "fragmented": 7053,
      "commodity": 7054,
      "resistance": 7055,
      "BaxCode": 7056,
      "300": 7057,
      "45": 7058,
      "DR": 7059,
      "Im": 7060,
      "Li": 7061,
      "MCP": 7062,
      "NG": 7063,
      "NT": 7064,
      "bly": 7065,
      "cm": 7066,
      "fabric": 7067,
      "relax": 7068,
      "enforces": 7069,
      "ortho": 7070,
      "alysis": 7071,
      "entral": 7072,
      "forge": 7073,
      "became": 7074,
      "spheric": 7075,
      "poly": 7076,
      "gered": 7077,
      "lihood": 7078,
      "parts": 7079,
      "tting": 7080,
      "cheaper": 7081,
      "buys": 7082,
      "disk": 7083,
      "colonist": 7084,
      "scatter": 7085,
      "loading": 7086,
      "Report": 7087,
      "emic": 7088,
      "ropical": 7089,
      "ships": 7090,
      "Uni": 7091,
      "stochasticity": 7092,
      "estimator": 7093,
      "completely": 7094,
      "issuer": 7095,
      "deliver": 7096,
      "dictates": 7097,
      "Good": 7098,
      "emissions": 7099,
      "experimental": 7100,
      "slice": 7101,
      "Integration": 7102,
      "confirmation": 7103,
      "queries": 7104,
      "menu": 7105,
      "experiences": 7106,
      "interpolation": 7107,
      "paraphrase": 7108,
      "monument": 7109,
      "endogenous": 7110,
      "bifur": 7111,
      ".)": 7112,
      "GET": 7113,
      "Hum": 7114,
      "Ly": 7115,
      "PM": 7116,
      "Pe": 7117,
      "Ph": 7118,
      "Sim": 7119,
      "Sep": 7120,
      "Time": 7121,
      "Zh": 7122,
      "_hash": 7123,
      "rise": 7124,
      "ud": 7125,
      "vance": 7126,
      "references": 7127,
      "ising": 7128,
      "decre": 7129,
      "proportion": 7130,
      "untested": 7131,
      "spin": 7132,
      "compose": 7133,
      "**.": 7134,
      "systemat": 7135,
      "vibe": 7136,
      "interfaces": 7137,
      "integer": 7138,
      "passeng": 7139,
      "launder": 7140,
      "restart": 7141,
      "defend": 7142,
      "located": 7143,
      "destro": 7144,
      "connectivity": 7145,
      "ambda": 7146,
      "Local": 7147,
      "customer": 7148,
      "Opportunities": 7149,
      "Technology": 7150,
      "accumulation": 7151,
      "Management": 7152,
      "molecular": 7153,
      "Eliza": 7154,
      "contamination": 7155,
      "discussions": 7156,
      "European": 7157,
      "acquisition": 7158,
      "(\"": 7159,
      "Ab": 7160,
      "Er": 7161,
      "Now": 7162,
      "PS": 7163,
      "fat": 7164,
      "pes": 7165,
      "tid": 7166,
      "tically": 7167,
      "went": 7168,
      "wild": 7169,
      "dered": 7170,
      "decoded": 7171,
      "segment": 7172,
      "coarse": 7173,
      "rails": 7174,
      "expl": 7175,
      "intention": 7176,
      "advert": 7177,
      "sparse": 7178,
      "shown": 7179,
      "parser": 7180,
      "preferences": 7181,
      "soc": 7182,
      "intermitt": 7183,
      "creation": 7184,
      "identification": 7185,
      "likelihood": 7186,
      "claimed": 7187,
      "offline": 7188,
      "shouldn": 7189,
      "steady": 7190,
      "collapsing": 7191,
      "ferred": 7192,
      "drag": 7193,
      "conditional": 7194,
      "issued": 7195,
      "jointly": 7196,
      "correlate": 7197,
      "domains": 7198,
      "takeaway": 7199,
      "vote": 7200,
      "emerging": 7201,
      "payloads": 7202,
      "scheduler": 7203,
      "involving": 7204,
      "navig": 7205,
      "decided": 7206,
      "informed": 7207,
      "Findings": 7208,
      "perturbations": 7209,
      "switching": 7210,
      "millise": 7211,
      "sigma": 7212,
      "^{-": 7213,
      "testimony": 7214,
      "->": 7215,
      ".@": 7216,
      "Dav": 7217,
      "MM": 7218,
      "Mic": 7219,
      "NL": 7220,
      "card": 7221,
      "fits": 7222,
      "jour": 7223,
      "zones": 7224,
      "inclusion": 7225,
      "reh": 7226,
      "repair": 7227,
      "online": 7228,
      "ened": 7229,
      "offic": 7230,
      "decor": 7231,
      "unk": 7232,
      "unless": 7233,
      "admin": 7234,
      "according": 7235,
      "teles": 7236,
      "lips": 7237,
      "compromise": 7238,
      "workspace": 7239,
      "finished": 7240,
      "completed": 7241,
      "aims": 7242,
      "claiming": 7243,
      "additional": 7244,
      "Rece": 7245,
      "offset": 7246,
      "offering": 7247,
      "showing": 7248,
      "derivative": 7249,
      "succeed": 7250,
      "techniques": 7251,
      "included": 7252,
      "facilit": 7253,
      "dimensions": 7254,
      "persists": 7255,
      "radiation": 7256,
      "projected": 7257,
      "SVG": 7258,
      "shell": 7259,
      "stronger": 7260,
      "hierarchical": 7261,
      "absorbing": 7262,
      "guessing": 7263,
      "cascade": 7264,
      "reinforcement": 7265,
      "idempotent": 7266,
      "Swift": 7267,
      "syntactic": 7268,
      "trivial": 7269,
      "Standard": 7270,
      "46": 7271,
      "lor": 7272,
      "ox": 7273,
      "pixel": 7274,
      "indistinguishable": 7275,
      "repo": 7276,
      "revised": 7277,
      "excess": 7278,
      "exori": 7279,
      "expression": 7280,
      "api": 7281,
      "teach": 7282,
      "usive": 7283,
      "worst": 7284,
      "Those": 7285,
      "redshift": 7286,
      "ipedia": 7287,
      "preced": 7288,
      "graded": 7289,
      "fract": 7290,
      "turing": 7291,
      "handed": 7292,
      "Retry": 7293,
      "afford": 7294,
      "litch": 7295,
      "necessit": 7296,
      "representations": 7297,
      "characterization": 7298,
      "understands": 7299,
      "ikipedia": 7300,
      "documents": 7301,
      "Autom": 7302,
      "degrades": 7303,
      "CPU": 7304,
      "Here": 7305,
      "kills": 7306,
      "rollback": 7307,
      "shocks": 7308,
      "injected": 7309,
      "enhance": 7310,
      "morphology": 7311,
      "epistemic": 7312,
      "David": 7313,
      "89": 7314,
      "CH": 7315,
      "EX": 7316,
      "Gal": 7317,
      "Lang": 7318,
      "Vendor": 7319,
      "cil": 7320,
      "cash": 7321,
      "flip": 7322,
      "fashion": 7323,
      "jiki": 7324,
      "pi": 7325,
      "tit": 7326,
      "isite": 7327,
      "entail": 7328,
      "asma": 7329,
      "noted": 7330,
      "improved": 7331,
      "essential": 7332,
      "poch": 7333,
      "fee": 7334,
      "faith": 7335,
      "requisite": 7336,
      "item": 7337,
      "graphs": 7338,
      "classes": 7339,
      "classical": 7340,
      "learns": 7341,
      "settings": 7342,
      "assumed": 7343,
      "Spain": 7344,
      "leader": 7345,
      "preserved": 7346,
      "books": 7347,
      "Sybil": 7348,
      "bottoms": 7349,
      "computationally": 7350,
      "ophys": 7351,
      "hallucinate": 7352,
      "reserve": 7353,
      "inevitable": 7354,
      "damping": 7355,
      "Industry": 7356,
      "circuit": 7357,
      "110": 7358,
      "Af": 7359,
      "CT": 7360,
      "DI": 7361,
      "FI": 7362,
      "Ger": 7363,
      "Git": 7364,
      "NN": 7365,
      "Nor": 7366,
      "Please": 7367,
      "Rec": 7368,
      "TH": 7369,
      "_by": 7370,
      "baked": 7371,
      "eks": 7372,
      "rss": 7373,
      "x402": 7374,
      "icated": 7375,
      "array": 7376,
      "enters": 7377,
      "vectors": 7378,
      "imal": 7379,
      "yout": 7380,
      "boo": 7381,
      "bub": 7382,
      "funds": 7383,
      "guide": 7384,
      "ported": 7385,
      "filters": 7386,
      "behaviors": 7387,
      "licence": 7388,
      "shapes": 7389,
      "pushed": 7390,
      "preservation": 7391,
      "documented": 7392,
      "categor": 7393,
      "predicting": 7394,
      "hallucinating": 7395,
      "dominated": 7396,
      "coordinated": 7397,
      "involves": 7398,
      "involved": 7399,
      "exponential": 7400,
      "Systems": 7401,
      "modified": 7402,
      "enumer": 7403,
      "practitioners": 7404,
      "explanation": 7405,
      "Schema": 7406,
      "Receip": 7407,
      "2v1": 7408,
      "AB": 7409,
      "DP": 7410,
      "cit": 7411,
      "emul": 7412,
      "gi": 7413,
      "ires": 7414,
      "sv": 7415,
      "swe": 7416,
      "thro": 7417,
      "copy": 7418,
      "veto": 7419,
      "agion": 7420,
      "unt": 7421,
      "untrusted": 7422,
      "intr": 7423,
      "perception": 7424,
      "traded": 7425,
      "ried": 7426,
      "ride": 7427,
      "cks": 7428,
      "contagion": 7429,
      "capturing": 7430,
      "regex": 7431,
      "producing": 7432,
      "existed": 7433,
      "seeks": 7434,
      "engineers": 7435,
      "multipl": 7436,
      "Analysis": 7437,
      "balancing": 7438,
      "directory": 7439,
      "prompting": 7440,
      "evaluator": 7441,
      "2602": 7442,
      "2604": 7443,
      "configurations": 7444,
      "website": 7445,
      "participant": 7446,
      "scripts": 7447,
      "vocation": 7448,
      "replaced": 7449,
      "SNR": 7450,
      "collective": 7451,
      "FP16": 7452,
      "activation": 7453,
      "conservation": 7454,
      "negotiation": 7455,
      "square": 7456,
      "Blockchain": 7457,
      "analogy": 7458,
      "AV": 7459,
      "Dest": 7460,
      "Ev": 7461,
      "Ga": 7462,
      "Har": 7463,
      "SK": 7464,
      "WN": 7465,
      "din": 7466,
      "glitch": 7467,
      "kle": 7468,
      "md": 7469,
      "ude": 7470,
      "inver": 7471,
      "remove": 7472,
      "orbit": 7473,
      "raises": 7474,
      "weeks": 7475,
      "ading": 7476,
      "accre": 7477,
      "ety": 7478,
      "compound": 7479,
      "umin": 7480,
      "phil": 7481,
      "prerequisite": 7482,
      "fires": 7483,
      "omin": 7484,
      "absent": 7485,
      "poll": 7486,
      "mostly": 7487,
      "performs": 7488,
      "practices": 7489,
      "landing": 7490,
      "auditable": 7491,
      "honesty": 7492,
      "productivity": 7493,
      "explore": 7494,
      "topological": 7495,
      "groups": 7496,
      "topic": 7497,
      "executed": 7498,
      "violation": 7499,
      "jumps": 7500,
      "Planning": 7501,
      "previously": 7502,
      "World": 7503,
      "combination": 7504,
      "annual": 7505,
      "elements": 7506,
      "recipient": 7507,
      "cosmological": 7508,
      "Language": 7509,
      "revalidate_by": 7510,
      "Em": 7511,
      "Jo": 7512,
      "Know": 7513,
      "Ru": 7514,
      "Sub": 7515,
      "Test": 7516,
      "cum": 7517,
      "crow": 7518,
      "diction": 7519,
      "hes": 7520,
      "hab": 7521,
      "sch": 7522,
      "sun": 7523,
      "inary": 7524,
      "innov": 7525,
      "refin": 7526,
      "ont": 7527,
      "esthe": 7528,
      "unestablished": 7529,
      "exts": 7530,
      "intu": 7531,
      "outcomes": 7532,
      "phon": 7533,
      "disper": 7534,
      "frames": 7535,
      "aking": 7536,
      "marked": 7537,
      "served": 7538,
      "pointing": 7539,
      "blur": 7540,
      "tending": 7541,
      "laz": 7542,
      "emer": 7543,
      "techno": 7544,
      "rang": 7545,
      "suppres": 7546,
      "accountable": 7547,
      "attacks": 7548,
      "dimensionality": 7549,
      "asyn": 7550,
      "detectable": 7551,
      "selector": 7552,
      "calibrated": 7553,
      "lifting": 7554,
      "labeled": 7555,
      "pairs": 7556,
      "purported": 7557,
      "satisfi": 7558,
      "arrived": 7559,
      "retro": 7560,
      "exposed": 7561,
      "literals": 7562,
      "appendix": 7563,
      "audio": 7564,
      "quarter": 7565,
      "monotonic": 7566,
      "Memory": 7567,
      "atomic": 7568,
      "celebr": 7569,
      "9f2": 7570,
      "solvency": 7571,
      "orthog": 7572,
      "\")": 7573,
      "Coun": 7574,
      "FC": 7575,
      "Have": 7576,
      "Just": 7577,
      "Learning": 7578,
      "NASA": 7579,
      "Pol": 7580,
      "Source": 7581,
      "Use": 7582,
      "fuzz": 7583,
      "kine": 7584,
      "npm": 7585,
      "p2": 7586,
      "orption": 7587,
      "ingestion": 7588,
      "ico": 7589,
      "ract": 7590,
      "beat": 7591,
      "spo": 7592,
      "tem": 7593,
      "doc": 7594,
      "redistribut": 7595,
      "diverse": 7596,
      "hasn": 7597,
      "tamp": 7598,
      "serves": 7599,
      "blast": 7600,
      "twice": 7601,
      "thored": 7602,
      "designing": 7603,
      "implementations": 7604,
      "certify": 7605,
      "draf": 7606,
      "triggered": 7607,
      "universe": 7608,
      "walls": 7609,
      "robustness": 7610,
      "article": 7611,
      "famil": 7612,
      "exponent": 7613,
      "manufacture": 7614,
      "rejected": 7615,
      "solely": 7616,
      "truncation": 7617,
      "flexibility": 7618,
      "resonance": 7619,
      "India": 7620,
      "Virtual": 7621,
      "%,": 7622,
      ")$": 7623,
      "1v1": 7624,
      "4v1": 7625,
      "8v1": 7626,
      "Ass": 7627,
      "Free": 7628,
      "ION": 7629,
      "Tur": 7630,
      "Ux": 7631,
      "WH": 7632,
      "ht": 7633,
      "mu": 7634,
      "vices": 7635,
      "anisot": 7636,
      "iso": 7637,
      "icted": 7638,
      "lever": 7639,
      "procure": 7640,
      "abund": 7641,
      "exo": 7642,
      "weake": 7643,
      "images": 7644,
      "improves": 7645,
      "quick": 7646,
      "trades": 7647,
      "workload": 7648,
      "illusion": 7649,
      "Intern": 7650,
      "diverg": 7651,
      "bling": 7652,
      "validating": 7653,
      "saw": 7654,
      "closer": 7655,
      "schemas": 7656,
      "shipping": 7657,
      "dedicated": 7658,
      "wait": 7659,
      "Conf": 7660,
      "limitations": 7661,
      "instruments": 7662,
      "restim": 7663,
      "targeted": 7664,
      "particles": 7665,
      "starting": 7666,
      "speech": 7667,
      "approximations": 7668,
      "saturation": 7669,
      "messages": 7670,
      "analytics": 7671,
      "sufficiently": 7672,
      "shear": 7673,
      "True": 7674,
      "Trad": 7675,
      "substant": 7676,
      "achieves": 7677,
      "assistant": 7678,
      "difficult": 7679,
      "granularity": 7680,
      "reconcile": 7681,
      "phenomenon": 7682,
      "poorly": 7683,
      "munic": 7684,
      "Bridal": 7685,
      "esterday": 7686,
      "Delta": 7687,
      "svg": 7688,
      "weakest": 7689,
      "CC": 7690,
      "Cred": 7691,
      "FS": 7692,
      "Further": 7693,
      "OM": 7694,
      "Rev": 7695,
      "Te": 7696,
      "brain": 7697,
      "epoch": 7698,
      "lived": 7699,
      "ml": 7700,
      "rhy": 7701,
      "enforced": 7702,
      "orts": 7703,
      "arity": 7704,
      "nostic": 7705,
      "urious": 7706,
      "spurious": 7707,
      "inef": 7708,
      "authored": 7709,
      "peer": 7710,
      "yourself": 7711,
      "drives": 7712,
      "differently": 7713,
      "handled": 7714,
      "receive": 7715,
      "breach": 7716,
      "sync": 7717,
      "performed": 7718,
      "caused": 7719,
      "payoff": 7720,
      "197": 7721,
      "evolving": 7722,
      "warf": 7723,
      "employ": 7724,
      "ilingual": 7725,
      "residuals": 7726,
      "TCH": 7727,
      "informative": 7728,
      "conflict": 7729,
      "flawed": 7730,
      "fragility": 7731,
      "acceleration": 7732,
      "manipulation": 7733,
      "deliberately": 7734,
      "resilience": 7735,
      "refuted": 7736,
      "Black": 7737,
      "DNS": 7738,
      "EVM": 7739,
      "Gro": 7740,
      "Gree": 7741,
      "LU": 7742,
      "Non": 7743,
      "UV": 7744,
      "WP": 7745,
      "_grade": 7746,
      "cc": 7747,
      "emotion": 7748,
      "iew": 7749,
      "pancy": 7750,
      "nob": 7751,
      "conv": 7752,
      "ulations": 7753,
      "serial": 7754,
      "imply": 7755,
      "creep": 7756,
      "searches": 7757,
      "willing": 7758,
      "polling": 7759,
      "sequential": 7760,
      "fixes": 7761,
      "locked": 7762,
      "missions": 7763,
      "policies": 7764,
      "smolag": 7765,
      "characteristics": 7766,
      "analyze": 7767,
      "symmetry": 7768,
      "register": 7769,
      "skills": 7770,
      "hope": 7771,
      "summaries": 7772,
      "valuation": 7773,
      "inherits": 7774,
      "conservative": 7775,
      "recursion": 7776,
      "inventory": 7777,
      "convexity": 7778,
      "entailment": 7779,
      "Destination": 7780,
      "accretion": 7781,
      "69": 7782,
      "AU": 7783,
      "BE": 7784,
      "MT": 7785,
      "Mer": 7786,
      "fers": 7787,
      "lambda": 7788,
      "vouch": 7789,
      "ene": 7790,
      "rol": 7791,
      "roles": 7792,
      "proxim": 7793,
      "conversion": 7794,
      "unpredictable": 7795,
      "tric": 7796,
      "stron": 7797,
      "geophys": 7798,
      "2004": 7799,
      "vibes": 7800,
      "specifications": 7801,
      "timeline": 7802,
      "builds": 7803,
      "versity": 7804,
      "suggestion": 7805,
      "receives": 7806,
      "Retri": 7807,
      "knowing": 7808,
      "chose": 7809,
      "partner": 7810,
      "poster": 7811,
      "largest": 7812,
      "standards": 7813,
      "127": 7814,
      "amplit": 7815,
      "targeting": 7816,
      "2607": 7817,
      "witnessed": 7818,
      "exploitation": 7819,
      "declare": 7820,
      "pushes": 7821,
      "widening": 7822,
      "relationships": 7823,
      "USDC": 7824,
      "interested": 7825,
      "predictions": 7826,
      "cuts": 7827,
      "definitions": 7828,
      "Optim": 7829,
      "pulse": 7830,
      "materials": 7831,
      "Work": 7832,
      "regularization": 7833,
      "trunc": 7834,
      "ambiguous": 7835,
      "incorporate": 7836,
      "analyzed": 7837,
      "rendering": 7838,
      "reproducible": 7839,
      "recommendations": 7840,
      "surrounding": 7841,
      "retrieved": 7842,
      "Otherwise": 7843,
      "Human": 7844,
      "systematically": 7845,
      "boolean": 7846,
      "Furthermore": 7847,
      "*:": 7848,
      "Ko": 7849,
      "Low": 7850,
      "SA": 7851,
      "ZK": 7852,
      "cultural": 7853,
      "eleg": 7854,
      "jet": 7855,
      "scre": 7856,
      "incorrect": 7857,
      "ortion": 7858,
      "icts": 7859,
      "device": 7860,
      "profit": 7861,
      "expose": 7862,
      "adj": 7863,
      "imm": 7864,
      "canary": 7865,
      "outure": 7866,
      "called": 7867,
      "soil": 7868,
      "interference": 7869,
      "obvious": 7870,
      "curv": 7871,
      "expired": 7872,
      "needing": 7873,
      "absorption": 7874,
      "subset": 7875,
      "save": 7876,
      "templates": 7877,
      "home": 7878,
      "relied": 7879,
      "ranking": 7880,
      "classic": 7881,
      "suppression": 7882,
      "modules": 7883,
      "airframe": 7884,
      "Hotel": 7885,
      "tradeoff": 7886,
      "honestly": 7887,
      "tradition": 7888,
      "gmented": 7889,
      "facing": 7890,
      "State": 7891,
      "Span": 7892,
      "linked": 7893,
      "delegation": 7894,
      "labels": 7895,
      "Planner": 7896,
      "Opportunity": 7897,
      "protection": 7898,
      "Network": 7899,
      "frozen_grade": 7900,
      "recognize": 7901,
      "repeat": 7902,
      "ambiguity": 7903,
      "tensor": 7904,
      "recomputes": 7905,
      "comfortable": 7906,
      "slightly": 7907,
      "pruning": 7908,
      "ceremony": 7909,
      "Multilingual": 7910,
      "sweep": 7911,
      "procurement": 7912,
      "6v1": 7913,
      "94": 7914,
      "Di": 7915,
      "Sign": 7916,
      "Sup": 7917,
      "Sem": 7918,
      "WE": 7919,
      "echo": 7920,
      "ored": 7921,
      "pace": 7922,
      "ert": 7923,
      "ange": 7924,
      "ionian": 7925,
      "leaf": 7926,
      "letting": 7927,
      "covers": 7928,
      "ilation": 7929,
      "mp3": 7930,
      "unde": 7931,
      "weap": 7932,
      "quas": 7933,
      "feas": 7934,
      "opin": 7935,
      "workers": 7936,
      "pretending": 7937,
      "upcoming": 7938,
      "disagreement": 7939,
      "decar": 7940,
      "forever": 7941,
      "suppress": 7942,
      "supposed": 7943,
      "collapsed": 7944,
      "implementing": 7945,
      "developed": 7946,
      "maintains": 7947,
      "volatile": 7948,
      "faced": 7949,
      "warr": 7950,
      "iee": 7951,
      "bypasses": 7952,
      "periodic": 7953,
      "discover": 7954,
      "helps": 7955,
      "timestamped": 7956,
      "borrow": 7957,
      "replacing": 7958,
      "circulation": 7959,
      "accurately": 7960,
      "Specifically": 7961,
      "aerosol": 7962,
      "oscillation": 7963,
      "discrepancy": 7964,
      "General": 7965,
      "secret": 7966,
      "adopted": 7967,
      "slippage": 7968,
      "inspection": 7969,
      "browser": 7970,
      "assembly": 7971,
      "Type": 7972,
      "neighbor": 7973,
      "Receipt": 7974,
      "intrins": 7975,
      "A3": 7976,
      "Ed": 7977,
      "GR": 7978,
      "MI": 7979,
      "Out": 7980,
      "PV": 7981,
      "Pred": 7982,
      "Sof": 7983,
      "Tay": 7984,
      "Yes": 7985,
      "aque": 7986,
      "cab": 7987,
      "gith": 7988,
      "v4": 7989,
      "inversion": 7990,
      "insurance": 7991,
      "encoding": 7992,
      "defaul": 7993,
      "coal": 7994,
      "ilities": 7995,
      "mete": 7996,
      "trial": 7997,
      "shallow": 7998,
      "strings": 7999
    },
    "merges": [
      [
        "t",
        "h"
      ],
      [
        "i",
        "n"
      ],
      [
        "r",
        "e"
      ],
      [
        "th",
        "e"
      ],
      [
        "o",
        "n"
      ],
      [
        "a",
        "t"
      ],
      [
        "e",
        "n"
      ],
      [
        "e",
        "r"
      ],
      [
        "a",
        "n"
      ],
      [
        "s",
        "t"
      ],
      [
        "o",
        "r"
      ],
      [
        "a",
        "l"
      ],
      [
        "i",
        "s"
      ],
      [
        "i",
        "t"
      ],
      [
        "in",
        "g"
      ],
      [
        "i",
        "on"
      ],
      [
        "e",
        "s"
      ],
      [
        "e",
        "d"
      ],
      [
        "i",
        "c"
      ],
      [
        "a",
        "r"
      ],
      [
        "r",
        "o"
      ],
      [
        "t",
        "o"
      ],
      [
        "o",
        "u"
      ],
      [
        "en",
        "t"
      ],
      [
        "c",
        "t"
      ],
      [
        "o",
        "f"
      ],
      [
        "h",
        "e"
      ],
      [
        "a",
        "s"
      ],
      [
        "l",
        "e"
      ],
      [
        "d",
        "e"
      ],
      [
        "s",
        "e"
      ],
      [
        "an",
        "d"
      ],
      [
        "at",
        "ion"
      ],
      [
        "c",
        "o"
      ],
      [
        "c",
        "h"
      ],
      [
        "i",
        "l"
      ],
      [
        "m",
        "e"
      ],
      [
        "c",
        "e"
      ],
      [
        "r",
        "a"
      ],
      [
        "n",
        "o"
      ],
      [
        "v",
        "e"
      ],
      [
        "l",
        "y"
      ],
      [
        "l",
        "o"
      ],
      [
        "i",
        "f"
      ],
      [
        "f",
        "or"
      ],
      [
        "i",
        "g"
      ],
      [
        "T",
        "he"
      ],
      [
        "b",
        "e"
      ],
      [
        "p",
        "ro"
      ],
      [
        "m",
        "o"
      ],
      [
        "u",
        "t"
      ],
      [
        "c",
        "on"
      ],
      [
        "a",
        "b"
      ],
      [
        "v",
        "er"
      ],
      [
        "th",
        "at"
      ],
      [
        "a",
        "g"
      ],
      [
        "m",
        "p"
      ],
      [
        "it",
        "y"
      ],
      [
        "u",
        "n"
      ],
      [
        "s",
        "u"
      ],
      [
        "e",
        "x"
      ],
      [
        "i",
        "d"
      ],
      [
        "a",
        "p"
      ],
      [
        "o",
        "l"
      ],
      [
        "no",
        "t"
      ],
      [
        "in",
        "t"
      ],
      [
        "w",
        "e"
      ],
      [
        "at",
        "e"
      ],
      [
        "re",
        "s"
      ],
      [
        "a",
        "d"
      ],
      [
        "i",
        "m"
      ],
      [
        "u",
        "r"
      ],
      [
        "m",
        "ent"
      ],
      [
        "a",
        "c"
      ],
      [
        "q",
        "u"
      ],
      [
        "t",
        "r"
      ],
      [
        "a",
        "re"
      ],
      [
        "i",
        "st"
      ],
      [
        "s",
        "p"
      ],
      [
        "u",
        "st"
      ],
      [
        "y",
        "ou"
      ],
      [
        "a",
        "ct"
      ],
      [
        "e",
        "t"
      ],
      [
        "u",
        "l"
      ],
      [
        "a",
        "y"
      ],
      [
        "t",
        "e"
      ],
      [
        "s",
        "h"
      ],
      [
        "w",
        "h"
      ],
      [
        "d",
        "o"
      ],
      [
        "u",
        "re"
      ],
      [
        "t",
        "er"
      ],
      [
        "i",
        "th"
      ],
      [
        "de",
        "l"
      ],
      [
        "i",
        "ve"
      ],
      [
        "es",
        "s"
      ],
      [
        "p",
        "er"
      ],
      [
        "m",
        "a"
      ],
      [
        "p",
        "o"
      ],
      [
        "ig",
        "h"
      ],
      [
        "i",
        "v"
      ],
      [
        "n",
        "e"
      ],
      [
        "w",
        "ith"
      ],
      [
        "ic",
        "al"
      ],
      [
        "st",
        "r"
      ],
      [
        "mo",
        "del"
      ],
      [
        "c",
        "an"
      ],
      [
        "b",
        "ut"
      ],
      [
        "ro",
        "m"
      ],
      [
        "f",
        "e"
      ],
      [
        "p",
        "l"
      ],
      [
        "f",
        "rom"
      ],
      [
        "ct",
        "ion"
      ],
      [
        "i",
        "r"
      ],
      [
        "i",
        "z"
      ],
      [
        "g",
        "e"
      ],
      [
        "ou",
        "t"
      ],
      [
        "e",
        "c"
      ],
      [
        "u",
        "s"
      ],
      [
        "ig",
        "n"
      ],
      [
        "st",
        "e"
      ],
      [
        "w",
        "or"
      ],
      [
        "in",
        "e"
      ],
      [
        "co",
        "mp"
      ],
      [
        "T",
        "h"
      ],
      [
        "o",
        "w"
      ],
      [
        "re",
        "n"
      ],
      [
        "il",
        "ity"
      ],
      [
        "b",
        "y"
      ],
      [
        "d",
        "ing"
      ],
      [
        "l",
        "i"
      ],
      [
        "an",
        "t"
      ],
      [
        "a",
        "u"
      ],
      [
        "k",
        "e"
      ],
      [
        "t",
        "ra"
      ],
      [
        "ag",
        "ent"
      ],
      [
        "o",
        "p"
      ],
      [
        "s",
        "y"
      ],
      [
        "if",
        "ic"
      ],
      [
        "t",
        "i"
      ],
      [
        "ab",
        "le"
      ],
      [
        "on",
        "e"
      ],
      [
        "re",
        "d"
      ],
      [
        "en",
        "ce"
      ],
      [
        "r",
        "i"
      ],
      [
        "f",
        "a"
      ],
      [
        "en",
        "d"
      ],
      [
        "c",
        "l"
      ],
      [
        "co",
        "m"
      ],
      [
        "t",
        "s"
      ],
      [
        "the",
        "r"
      ],
      [
        "l",
        "d"
      ],
      [
        "c",
        "al"
      ],
      [
        "I",
        "f"
      ],
      [
        "ou",
        "n"
      ],
      [
        "an",
        "s"
      ],
      [
        "d",
        "er"
      ],
      [
        "str",
        "u"
      ],
      [
        "u",
        "m"
      ],
      [
        "c",
        "k"
      ],
      [
        "p",
        "ar"
      ],
      [
        "a",
        "m"
      ],
      [
        "*",
        "*"
      ],
      [
        "e",
        "ct"
      ],
      [
        "for",
        "m"
      ],
      [
        "e",
        "v"
      ],
      [
        "wor",
        "k"
      ],
      [
        "ar",
        "d"
      ],
      [
        "ou",
        "r"
      ],
      [
        "j",
        "ust"
      ],
      [
        "ab",
        "ility"
      ],
      [
        "a",
        "in"
      ],
      [
        "th",
        "is"
      ],
      [
        "p",
        "h"
      ],
      [
        "i",
        "al"
      ],
      [
        "il",
        "l"
      ],
      [
        "s",
        "ign"
      ],
      [
        "I",
        "t"
      ],
      [
        "i",
        "p"
      ],
      [
        "ch",
        "an"
      ],
      [
        "ste",
        "m"
      ],
      [
        "ag",
        "e"
      ],
      [
        "be",
        "t"
      ],
      [
        "as",
        "s"
      ],
      [
        "con",
        "t"
      ],
      [
        "lo",
        "w"
      ],
      [
        "u",
        "al"
      ],
      [
        "sy",
        "stem"
      ],
      [
        "c",
        "or"
      ],
      [
        "w",
        "he"
      ],
      [
        "a",
        "me"
      ],
      [
        "c",
        "y"
      ],
      [
        "l",
        "l"
      ],
      [
        "en",
        "s"
      ],
      [
        "b",
        "le"
      ],
      [
        "2",
        "0"
      ],
      [
        "c",
        "es"
      ],
      [
        "p",
        "re"
      ],
      [
        "er",
        "s"
      ],
      [
        "Th",
        "is"
      ],
      [
        "at",
        "ed"
      ],
      [
        "t",
        "t"
      ],
      [
        "i",
        "es"
      ],
      [
        "b",
        "o"
      ],
      [
        "c",
        "he"
      ],
      [
        "it",
        "ion"
      ],
      [
        "igh",
        "t"
      ],
      [
        "ar",
        "ch"
      ],
      [
        "sp",
        "ec"
      ],
      [
        "ar",
        "y"
      ],
      [
        "ac",
        "k"
      ],
      [
        "p",
        "r"
      ],
      [
        "I",
        "n"
      ],
      [
        "an",
        "ce"
      ],
      [
        "stru",
        "ct"
      ],
      [
        "v",
        "i"
      ],
      [
        "al",
        "l"
      ],
      [
        "it",
        "s"
      ],
      [
        "d",
        "at"
      ],
      [
        "e",
        "st"
      ],
      [
        "lo",
        "g"
      ],
      [
        "s",
        "o"
      ],
      [
        "d",
        "u"
      ],
      [
        "h",
        "a"
      ],
      [
        "ex",
        "t"
      ],
      [
        "re",
        "qu"
      ],
      [
        "s",
        "er"
      ],
      [
        "d",
        "i"
      ],
      [
        "i",
        "mp"
      ],
      [
        "int",
        "er"
      ],
      [
        "f",
        "i"
      ],
      [
        "de",
        "p"
      ],
      [
        "d",
        "es"
      ],
      [
        "g",
        "ra"
      ],
      [
        "a",
        "ch"
      ],
      [
        "b",
        "u"
      ],
      [
        "ation",
        "s"
      ],
      [
        "u",
        "p"
      ],
      [
        "t",
        "ion"
      ],
      [
        "m",
        "ar"
      ],
      [
        "at",
        "es"
      ],
      [
        "m",
        "an"
      ],
      [
        "do",
        "es"
      ],
      [
        "d",
        "ist"
      ],
      [
        "we",
        "en"
      ],
      [
        "v",
        "al"
      ],
      [
        "ren",
        "t"
      ],
      [
        "bet",
        "ween"
      ],
      [
        "c",
        "ess"
      ],
      [
        "d",
        "is"
      ],
      [
        "re",
        "ad"
      ],
      [
        "W",
        "h"
      ],
      [
        "p",
        "s"
      ],
      [
        "is",
        "e"
      ],
      [
        "th",
        "an"
      ],
      [
        "fa",
        "il"
      ],
      [
        "whe",
        "re"
      ],
      [
        "ou",
        "ld"
      ],
      [
        "h",
        "as"
      ],
      [
        "g",
        "en"
      ],
      [
        "s",
        "s"
      ],
      [
        "or",
        "y"
      ],
      [
        "c",
        "ap"
      ],
      [
        "h",
        "igh"
      ],
      [
        "o",
        "b"
      ],
      [
        "oun",
        "d"
      ],
      [
        "tr",
        "ans"
      ],
      [
        "m",
        "at"
      ],
      [
        "c",
        "re"
      ],
      [
        "t",
        "a"
      ],
      [
        "c",
        "ur"
      ],
      [
        "as",
        "e"
      ],
      [
        "in",
        "d"
      ],
      [
        "on",
        "g"
      ],
      [
        "#",
        "#"
      ],
      [
        "in",
        "to"
      ],
      [
        "re",
        "g"
      ],
      [
        "st",
        "ate"
      ],
      [
        "spec",
        "ific"
      ],
      [
        "or",
        "t"
      ],
      [
        "sh",
        "if"
      ],
      [
        "re",
        "al"
      ],
      [
        "e",
        "f"
      ],
      [
        "g",
        "h"
      ],
      [
        "t",
        "y"
      ],
      [
        "h",
        "ow"
      ],
      [
        "f",
        "ra"
      ],
      [
        "dat",
        "a"
      ],
      [
        "ti",
        "me"
      ],
      [
        "y",
        "s"
      ],
      [
        "w",
        "as"
      ],
      [
        "w",
        "ay"
      ],
      [
        "f",
        "o"
      ],
      [
        "f",
        "un"
      ],
      [
        "en",
        "cy"
      ],
      [
        "g",
        "u"
      ],
      [
        "ver",
        "y"
      ],
      [
        "o",
        "m"
      ],
      [
        "o",
        "ver"
      ],
      [
        "se",
        "l"
      ],
      [
        "d",
        "if"
      ],
      [
        "au",
        "se"
      ],
      [
        "ur",
        "al"
      ],
      [
        "l",
        "ine"
      ],
      [
        "s",
        "ion"
      ],
      [
        "s",
        "ing"
      ],
      [
        "o",
        "t"
      ],
      [
        "ut",
        "ion"
      ],
      [
        "d",
        "y"
      ],
      [
        "W",
        "e"
      ],
      [
        "p",
        "res"
      ],
      [
        "te",
        "st"
      ],
      [
        "ou",
        "s"
      ],
      [
        "pro",
        "v"
      ],
      [
        "20",
        "2"
      ],
      [
        "or",
        "s"
      ],
      [
        "on",
        "ly"
      ],
      [
        "a",
        "k"
      ],
      [
        "iz",
        "ation"
      ],
      [
        "h",
        "tt"
      ],
      [
        "dep",
        "end"
      ],
      [
        "/",
        "/"
      ],
      [
        "htt",
        "ps"
      ],
      [
        "ic",
        "e"
      ],
      [
        ":",
        "//"
      ],
      [
        "ic",
        "h"
      ],
      [
        "de",
        "c"
      ],
      [
        "mar",
        "k"
      ],
      [
        "f",
        "l"
      ],
      [
        "u",
        "e"
      ],
      [
        "st",
        "ra"
      ],
      [
        "at",
        "ing"
      ],
      [
        "a",
        "st"
      ],
      [
        "r",
        "un"
      ],
      [
        "f",
        "in"
      ],
      [
        "do",
        "w"
      ],
      [
        "c",
        "ause"
      ],
      [
        "m",
        "is"
      ],
      [
        "ic",
        "s"
      ],
      [
        "if",
        "i"
      ],
      [
        "ser",
        "v"
      ],
      [
        "p",
        "e"
      ],
      [
        "s",
        "ame"
      ],
      [
        "m",
        "in"
      ],
      [
        "p",
        "ut"
      ],
      [
        "requ",
        "i"
      ],
      [
        "ed",
        "ding"
      ],
      [
        "sel",
        "f"
      ],
      [
        "mo",
        "re"
      ],
      [
        "our",
        "ces"
      ],
      [
        "wh",
        "at"
      ],
      [
        "che",
        "ck"
      ],
      [
        "o",
        "k"
      ],
      [
        "re",
        "e"
      ],
      [
        "ha",
        "ve"
      ],
      [
        "s",
        "ol"
      ],
      [
        "n",
        "ing"
      ],
      [
        "ble",
        "m"
      ],
      [
        "be",
        "cause"
      ],
      [
        "g",
        "r"
      ],
      [
        "act",
        "ual"
      ],
      [
        "pro",
        "blem"
      ],
      [
        "ex",
        "p"
      ],
      [
        "t",
        "ing"
      ],
      [
        "0",
        "0"
      ],
      [
        "ar",
        "i"
      ],
      [
        "un",
        "der"
      ],
      [
        "th",
        "ing"
      ],
      [
        "cor",
        "re"
      ],
      [
        "i",
        "de"
      ],
      [
        "po",
        "int"
      ],
      [
        "ne",
        "ed"
      ],
      [
        "m",
        "on"
      ],
      [
        "su",
        "r"
      ],
      [
        "id",
        "ent"
      ],
      [
        "sign",
        "al"
      ],
      [
        "t",
        "im"
      ],
      [
        "r",
        "it"
      ],
      [
        "the",
        "y"
      ],
      [
        "s",
        "cal"
      ],
      [
        "wh",
        "en"
      ],
      [
        "pro",
        "du"
      ],
      [
        "a",
        "v"
      ],
      [
        "g",
        "et"
      ],
      [
        "i",
        "le"
      ],
      [
        "the",
        "se"
      ],
      [
        "Y",
        "ou"
      ],
      [
        "gen",
        "er"
      ],
      [
        "wh",
        "ich"
      ],
      [
        "is",
        "m"
      ],
      [
        "j",
        "ect"
      ],
      [
        "ific",
        "ation"
      ],
      [
        "S",
        "ources"
      ],
      [
        "me",
        "chan"
      ],
      [
        "ab",
        "s"
      ],
      [
        "dif",
        "fe"
      ],
      [
        "fe",
        "ct"
      ],
      [
        "bu",
        "il"
      ],
      [
        "b",
        "l"
      ],
      [
        "int",
        "e"
      ],
      [
        "se",
        "arch"
      ],
      [
        "or",
        "g"
      ],
      [
        "b",
        "r"
      ],
      [
        "en",
        "g"
      ],
      [
        "is",
        "h"
      ],
      [
        "ab",
        "out"
      ],
      [
        "l",
        "at"
      ],
      [
        "t",
        "w"
      ],
      [
        "no",
        "w"
      ],
      [
        "d",
        "s"
      ],
      [
        "me",
        "as"
      ],
      [
        "su",
        "b"
      ],
      [
        "you",
        "r"
      ],
      [
        "iz",
        "ed"
      ],
      [
        "li",
        "ke"
      ],
      [
        "b",
        "as"
      ],
      [
        "is",
        "ion"
      ],
      [
        "model",
        "s"
      ],
      [
        "th",
        "o"
      ],
      [
        "r",
        "is"
      ],
      [
        "to",
        "ol"
      ],
      [
        "c",
        "oun"
      ],
      [
        "a",
        "ce"
      ],
      [
        "r",
        "y"
      ],
      [
        "n",
        "ess"
      ],
      [
        "l",
        "ay"
      ],
      [
        "ro",
        "ss"
      ],
      [
        "as",
        "k"
      ],
      [
        "ma",
        "in"
      ],
      [
        "con",
        "stra"
      ],
      [
        "p",
        "ort"
      ],
      [
        "w",
        "ill"
      ],
      [
        "comp",
        "le"
      ],
      [
        "v",
        "ari"
      ],
      [
        "b",
        "ound"
      ],
      [
        "t",
        "ic"
      ],
      [
        "co",
        "st"
      ],
      [
        "ro",
        "u"
      ],
      [
        "me",
        "tr"
      ],
      [
        "t",
        "ur"
      ],
      [
        "m",
        "ust"
      ],
      [
        "d",
        "r"
      ],
      [
        "se",
        "t"
      ],
      [
        "c",
        "ent"
      ],
      [
        "f",
        "ic"
      ],
      [
        "t",
        "re"
      ],
      [
        "rou",
        "gh"
      ],
      [
        "w",
        "ard"
      ],
      [
        "po",
        "s"
      ],
      [
        "with",
        "out"
      ],
      [
        "val",
        "id"
      ],
      [
        "struct",
        "ure"
      ],
      [
        "be",
        "com"
      ],
      [
        "a",
        "im"
      ],
      [
        "p",
        "a"
      ],
      [
        "mo",
        "v"
      ],
      [
        "if",
        "y"
      ],
      [
        "o",
        "per"
      ],
      [
        "ter",
        "n"
      ],
      [
        "ra",
        "ther"
      ],
      [
        "struct",
        "ural"
      ],
      [
        "com",
        "m"
      ],
      [
        "res",
        "s"
      ],
      [
        "Th",
        "at"
      ],
      [
        "ris",
        "k"
      ],
      [
        "ver",
        "s"
      ],
      [
        "f",
        "ir"
      ],
      [
        "er",
        "r"
      ],
      [
        "is",
        "n"
      ],
      [
        "b",
        "ack"
      ],
      [
        "ow",
        "n"
      ],
      [
        "ri",
        "but"
      ],
      [
        "at",
        "ive"
      ],
      [
        "at",
        "or"
      ],
      [
        "ical",
        "ly"
      ],
      [
        "t",
        "ed"
      ],
      [
        "ren",
        "ce"
      ],
      [
        "e",
        "l"
      ],
      [
        "s",
        "a"
      ],
      [
        "g",
        "ro"
      ],
      [
        "at",
        "ure"
      ],
      [
        "ve",
        "l"
      ],
      [
        "w",
        "edding"
      ],
      [
        "ap",
        "pro"
      ],
      [
        "fail",
        "ure"
      ],
      [
        "fo",
        "re"
      ],
      [
        "Wh",
        "en"
      ],
      [
        "ge",
        "st"
      ],
      [
        "cl",
        "aim"
      ],
      [
        "ne",
        "w"
      ],
      [
        "f",
        "ul"
      ],
      [
        "te",
        "mp"
      ],
      [
        "ation",
        "al"
      ],
      [
        "u",
        "res"
      ],
      [
        "mechan",
        "ism"
      ],
      [
        "th",
        "rough"
      ],
      [
        "ment",
        "s"
      ],
      [
        "A",
        "I"
      ],
      [
        "n",
        "on"
      ],
      [
        "ap",
        "p"
      ],
      [
        "co",
        "l"
      ],
      [
        "dist",
        "ribut"
      ],
      [
        "t",
        "en"
      ],
      [
        "mo",
        "ve"
      ],
      [
        "fun",
        "ction"
      ],
      [
        "the",
        "n"
      ],
      [
        "mark",
        "et"
      ],
      [
        "ph",
        "ys"
      ],
      [
        "st",
        "and"
      ],
      [
        "becom",
        "es"
      ],
      [
        "it",
        "self"
      ],
      [
        "i",
        "ent"
      ],
      [
        "as",
        "on"
      ],
      [
        "wh",
        "o"
      ],
      [
        "h",
        "ol"
      ],
      [
        "ent",
        "ial"
      ],
      [
        "g",
        "o"
      ],
      [
        "can",
        "not"
      ],
      [
        "c",
        "lo"
      ],
      [
        "c",
        "le"
      ],
      [
        "act",
        "ly"
      ],
      [
        "ar",
        "t"
      ],
      [
        "n",
        "am"
      ],
      [
        "lo",
        "ok"
      ],
      [
        "s",
        "c"
      ],
      [
        "ist",
        "ic"
      ],
      [
        "no",
        "ise"
      ],
      [
        "diffe",
        "rent"
      ],
      [
        "c",
        "ed"
      ],
      [
        "con",
        "d"
      ],
      [
        "lay",
        "er"
      ],
      [
        "e",
        "p"
      ],
      [
        "lo",
        "cal"
      ],
      [
        "x",
        "iv"
      ],
      [
        "l",
        "ong"
      ],
      [
        "agent",
        "s"
      ],
      [
        "comp",
        "ut"
      ],
      [
        "it",
        "e"
      ],
      [
        "n",
        "et"
      ],
      [
        "at",
        "ch"
      ],
      [
        "e",
        "very"
      ],
      [
        "su",
        "g"
      ],
      [
        "pl",
        "an"
      ],
      [
        "w",
        "in"
      ],
      [
        "202",
        "6"
      ],
      [
        "sug",
        "gest"
      ],
      [
        "ic",
        "t"
      ],
      [
        "op",
        "tim"
      ],
      [
        "ar",
        "xiv"
      ],
      [
        "u",
        "se"
      ],
      [
        "v",
        "ol"
      ],
      [
        "bas",
        "ed"
      ],
      [
        "pro",
        "cess"
      ],
      [
        "re",
        "search"
      ],
      [
        "an",
        "y"
      ],
      [
        "i",
        "o"
      ],
      [
        "f",
        "low"
      ],
      [
        "ex",
        "ist"
      ],
      [
        "st",
        "at"
      ],
      [
        "constra",
        "int"
      ],
      [
        "F",
        "or"
      ],
      [
        "cont",
        "ro"
      ],
      [
        "ob",
        "serv"
      ],
      [
        "m",
        "ul"
      ],
      [
        "h",
        "and"
      ],
      [
        "c",
        "er"
      ],
      [
        "su",
        "l"
      ],
      [
        "shif",
        "t"
      ],
      [
        "g",
        "ap"
      ],
      [
        "des",
        "ign"
      ],
      [
        "actual",
        "ly"
      ],
      [
        "p",
        "ass"
      ],
      [
        "re",
        "ly"
      ],
      [
        "re",
        "main"
      ],
      [
        "ef",
        "fect"
      ],
      [
        "meas",
        "ure"
      ],
      [
        "e",
        "ld"
      ],
      [
        "ev",
        "al"
      ],
      [
        "re",
        "ce"
      ],
      [
        "p",
        "u"
      ],
      [
        "iz",
        "e"
      ],
      [
        "fra",
        "me"
      ],
      [
        "se",
        "e"
      ],
      [
        "ad",
        "d"
      ],
      [
        "w",
        "er"
      ],
      [
        "er",
        "g"
      ],
      [
        "re",
        "ason"
      ],
      [
        "p",
        "ol"
      ],
      [
        "re",
        "sul"
      ],
      [
        "ve",
        "lo"
      ],
      [
        "act",
        "ion"
      ],
      [
        "su",
        "m"
      ],
      [
        "p",
        "red"
      ],
      [
        "1",
        "0"
      ],
      [
        "h",
        "ard"
      ],
      [
        "tw",
        "o"
      ],
      [
        "l",
        "a"
      ],
      [
        "tr",
        "ust"
      ],
      [
        "su",
        "re"
      ],
      [
        "sing",
        "le"
      ],
      [
        "i",
        "ble"
      ],
      [
        "s",
        "ide"
      ],
      [
        "distribut",
        "ion"
      ],
      [
        "ex",
        "ec"
      ],
      [
        "it",
        "ect"
      ],
      [
        "me",
        "m"
      ],
      [
        "imp",
        "le"
      ],
      [
        "prov",
        "id"
      ],
      [
        "st",
        "ill"
      ],
      [
        "h",
        "um"
      ],
      [
        "does",
        "n"
      ],
      [
        "ent",
        "s"
      ],
      [
        "tr",
        "i"
      ],
      [
        "inte",
        "gr"
      ],
      [
        "ag",
        "ain"
      ],
      [
        "arch",
        "itect"
      ],
      [
        "lo",
        "ad"
      ],
      [
        "err",
        "or"
      ],
      [
        "di",
        "re"
      ],
      [
        "g",
        "er"
      ],
      [
        "l",
        "ation"
      ],
      [
        "b",
        "er"
      ],
      [
        "un",
        "d"
      ],
      [
        "l",
        "es"
      ],
      [
        "mo",
        "st"
      ],
      [
        "pre",
        "c"
      ],
      [
        ")",
        "."
      ],
      [
        "st",
        "u"
      ],
      [
        "iv",
        "es"
      ],
      [
        "R",
        "e"
      ],
      [
        "o",
        "ther"
      ],
      [
        "al",
        "ly"
      ],
      [
        "d",
        "a"
      ],
      [
        "se",
        "qu"
      ],
      [
        "au",
        "th"
      ],
      [
        "of",
        "f"
      ],
      [
        "w",
        "ould"
      ],
      [
        "le",
        "vel"
      ],
      [
        "win",
        "dow"
      ],
      [
        "eng",
        "ine"
      ],
      [
        "e",
        "m"
      ],
      [
        "ver",
        "ifi"
      ],
      [
        "est",
        "ion"
      ],
      [
        "fi",
        "x"
      ],
      [
        "are",
        "d"
      ],
      [
        "se",
        "m"
      ],
      [
        "in",
        "depend"
      ],
      [
        "ac",
        "ross"
      ],
      [
        "o",
        "s"
      ],
      [
        "pa",
        "th"
      ],
      [
        "l",
        "ess"
      ],
      [
        "shif",
        "ts"
      ],
      [
        "l",
        "an"
      ],
      [
        "co",
        "de"
      ],
      [
        "b",
        "re"
      ],
      [
        "e",
        "w"
      ],
      [
        "again",
        "st"
      ],
      [
        "ou",
        "pl"
      ],
      [
        "lo",
        "op"
      ],
      [
        "-",
        "-"
      ],
      [
        "cur",
        "rent"
      ],
      [
        "dow",
        "n"
      ],
      [
        "trans",
        "ition"
      ],
      [
        "an",
        "al"
      ],
      [
        "ap",
        "er"
      ],
      [
        "cont",
        "ext"
      ],
      [
        "l",
        "ed"
      ],
      [
        "e",
        "ar"
      ],
      [
        "fa",
        "ce"
      ],
      [
        "l",
        "im"
      ],
      [
        "res",
        "p"
      ],
      [
        "v",
        "1"
      ],
      [
        "k",
        "now"
      ],
      [
        "scal",
        "e"
      ],
      [
        "frame",
        "work"
      ],
      [
        "co",
        "ll"
      ],
      [
        "ver",
        "ification"
      ],
      [
        "fi",
        "eld"
      ],
      [
        "X",
        "iv"
      ],
      [
        "c",
        "u"
      ],
      [
        "qu",
        "ant"
      ],
      [
        "B",
        "ut"
      ],
      [
        "s",
        "co"
      ],
      [
        "ar",
        "Xiv"
      ],
      [
        "sh",
        "ould"
      ],
      [
        "ur",
        "ing"
      ],
      [
        "hum",
        "an"
      ],
      [
        "to",
        "ward"
      ],
      [
        "be",
        "fore"
      ],
      [
        "p",
        "at"
      ],
      [
        "chan",
        "ge"
      ],
      [
        "s",
        "im"
      ],
      [
        "rece",
        "ip"
      ],
      [
        "it",
        "ies"
      ],
      [
        "ma",
        "k"
      ],
      [
        "E",
        "x"
      ],
      [
        "s",
        "ist"
      ],
      [
        "h",
        "o"
      ],
      [
        "sp",
        "ace"
      ],
      [
        "qu",
        "estion"
      ],
      [
        "i",
        "b"
      ],
      [
        "tur",
        "n"
      ],
      [
        "gra",
        "ph"
      ],
      [
        "in",
        "ation"
      ],
      [
        "tra",
        "in"
      ],
      [
        "v",
        "ir"
      ],
      [
        "mul",
        "ti"
      ],
      [
        "tre",
        "at"
      ],
      [
        "c",
        "us"
      ],
      [
        "ce",
        "p"
      ],
      [
        "le",
        "ct"
      ],
      [
        "sh",
        "ow"
      ],
      [
        "re",
        "li"
      ],
      [
        "it",
        "al"
      ],
      [
        "whe",
        "ther"
      ],
      [
        "The",
        "y"
      ],
      [
        "M",
        "o"
      ],
      [
        "be",
        "ing"
      ],
      [
        "w",
        "rit"
      ],
      [
        "the",
        "ir"
      ],
      [
        "m",
        "ay"
      ],
      [
        "A",
        "n"
      ],
      [
        "m",
        "ass"
      ],
      [
        "lo",
        "ck"
      ],
      [
        "at",
        "t"
      ],
      [
        "so",
        "me"
      ],
      [
        "resp",
        "on"
      ],
      [
        "contro",
        "l"
      ],
      [
        "le",
        "g"
      ],
      [
        "c",
        "ing"
      ],
      [
        "log",
        "ic"
      ],
      [
        "re",
        "f"
      ],
      [
        "bre",
        "ak"
      ],
      [
        "w",
        "are"
      ],
      [
        ")",
        ","
      ],
      [
        "ex",
        "actly"
      ],
      [
        "g",
        "es"
      ],
      [
        "v",
        "ent"
      ],
      [
        "the",
        "m"
      ],
      [
        "pat",
        "tern"
      ],
      [
        "our",
        "ce"
      ],
      [
        "in",
        "k"
      ],
      [
        "sy",
        "n"
      ],
      [
        "fir",
        "st"
      ],
      [
        "res",
        "ol"
      ],
      [
        "it",
        "ive"
      ],
      [
        "fe",
        "rence"
      ],
      [
        "c",
        "ri"
      ],
      [
        "a",
        "f"
      ],
      [
        "n",
        "ext"
      ],
      [
        "re",
        "cor"
      ],
      [
        "to",
        "k"
      ],
      [
        "b",
        "al"
      ],
      [
        "reason",
        "ing"
      ],
      [
        "id",
        "ence"
      ],
      [
        "f",
        "act"
      ],
      [
        "v",
        "is"
      ],
      [
        "p",
        "aper"
      ],
      [
        "form",
        "ation"
      ],
      [
        "coun",
        "t"
      ],
      [
        "f",
        "il"
      ],
      [
        "ro",
        "p"
      ],
      [
        "ter",
        "min"
      ],
      [
        "ch",
        "ain"
      ],
      [
        "con",
        "f"
      ],
      [
        "net",
        "work"
      ],
      [
        "ul",
        "ar"
      ],
      [
        "appro",
        "ach"
      ],
      [
        "stu",
        "dy"
      ],
      [
        "m",
        "ed"
      ],
      [
        "suggest",
        "s"
      ],
      [
        "he",
        "re"
      ],
      [
        "requi",
        "re"
      ],
      [
        "r",
        "ate"
      ],
      [
        "er",
        "o"
      ],
      [
        "sp",
        "ect"
      ],
      [
        "ch",
        "o"
      ],
      [
        "vir",
        "on"
      ],
      [
        "par",
        "t"
      ],
      [
        "wh",
        "ile"
      ],
      [
        "corre",
        "ct"
      ],
      [
        "e",
        "qu"
      ],
      [
        "ste",
        "ad"
      ],
      [
        "ter",
        "s"
      ],
      [
        "s",
        "che"
      ],
      [
        "st",
        "re"
      ],
      [
        "out",
        "put"
      ],
      [
        "r",
        "ight"
      ],
      [
        "dire",
        "ct"
      ],
      [
        "tra",
        "ct"
      ],
      [
        "pr",
        "im"
      ],
      [
        "f",
        "ol"
      ],
      [
        ".",
        "\""
      ],
      [
        "te",
        "ch"
      ],
      [
        "us",
        "ing"
      ],
      [
        "de",
        "te"
      ],
      [
        "fl",
        "u"
      ],
      [
        "l",
        "ing"
      ],
      [
        "ens",
        "ion"
      ],
      [
        "r",
        "an"
      ],
      [
        "en",
        "viron"
      ],
      [
        "par",
        "ame"
      ],
      [
        "log",
        "y"
      ],
      [
        "T",
        "o"
      ],
      [
        "t",
        "ask"
      ],
      [
        "man",
        "age"
      ],
      [
        "sequ",
        "ence"
[...]
