{
  "version": "1.0",
  "truncation": null,
  "padding": null,
  "added_tokens": [
    {
      "id": 0,
      "content": "[UNK]",
      "single_word": false,
      "lstrip": false,
      "rstrip": false,
      "normalized": false,
      "special": true
    },
    {
      "id": 1,
      "content": "[PAD]",
      "single_word": false,
      "lstrip": false,
      "rstrip": false,
      "normalized": false,
      "special": true
    },
    {
      "id": 2,
      "content": "[BOS]",
      "single_word": false,
      "lstrip": false,
      "rstrip": false,
      "normalized": false,
      "special": true
    },
    {
      "id": 3,
      "content": "[EOS]",
      "single_word": false,
      "lstrip": false,
      "rstrip": false,
      "normalized": false,
      "special": true
    }
  ],
  "normalizer": null,
  "pre_tokenizer": {
    "type": "WhitespaceSplit"
  },
  "post_processor": null,
  "decoder": null,
  "model": {
    "type": "BPE",
    "dropout": null,
    "unk_token": "[UNK]",
    "continuing_subword_prefix": null,
    "end_of_word_suffix": null,
    "fuse_unk": false,
    "byte_fallback": false,
    "ignore_merges": false,
    "vocab": {
      "[UNK]": 0,
      "[PAD]": 1,
      "[BOS]": 2,
      "[EOS]": 3,
      "!": 4,
      "\"": 5,
      "#": 6,
      "$": 7,
      "%": 8,
      "&": 9,
      "'": 10,
      "(": 11,
      ")": 12,
      "*": 13,
      "+": 14,
      ",": 15,
      "-": 16,
      ".": 17,
      "/": 18,
      "0": 19,
      "1": 20,
      "2": 21,
      "3": 22,
      "4": 23,
      "5": 24,
      "6": 25,
      "7": 26,
      "8": 27,
      "9": 28,
      ":": 29,
      ";": 30,
      "<": 31,
      "=": 32,
      ">": 33,
      "?": 34,
      "@": 35,
      "A": 36,
      "B": 37,
      "C": 38,
      "D": 39,
      "E": 40,
      "F": 41,
      "G": 42,
      "H": 43,
      "I": 44,
      "J": 45,
      "K": 46,
      "L": 47,
      "M": 48,
      "N": 49,
      "O": 50,
      "P": 51,
      "Q": 52,
      "R": 53,
      "S": 54,
      "T": 55,
      "U": 56,
      "V": 57,
      "W": 58,
      "X": 59,
      "Y": 60,
      "Z": 61,
      "[": 62,
      "\\": 63,
      "]": 64,
      "^": 65,
      "_": 66,
      "`": 67,
      "a": 68,
      "b": 69,
      "c": 70,
      "d": 71,
      "e": 72,
      "f": 73,
      "g": 74,
      "h": 75,
      "i": 76,
      "j": 77,
      "k": 78,
      "l": 79,
      "m": 80,
      "n": 81,
      "o": 82,
      "p": 83,
      "q": 84,
      "r": 85,
      "s": 86,
      "t": 87,
      "u": 88,
      "v": 89,
      "w": 90,
      "x": 91,
      "y": 92,
      "z": 93,
      "{": 94,
      "|": 95,
      "}": 96,
      "~": 97,
      "£": 98,
      "¥": 99,
      "§": 100,
      "°": 101,
      "±": 102,
      "²": 103,
      "³": 104,
      "¶": 105,
      "·": 106,
      "¹": 107,
      "»": 108,
      "È": 109,
      "×": 110,
      "Ú": 111,
      "Ü": 112,
      "ß": 113,
      "à": 114,
      "á": 115,
      "ã": 116,
      "ä": 117,
      "å": 118,
      "æ": 119,
      "ç": 120,
      "è": 121,
      "é": 122,
      "ê": 123,
      "ë": 124,
      "ì": 125,
      "í": 126,
      "î": 127,
      "ï": 128,
      "ñ": 129,
      "ó": 130,
      "ô": 131,
      "õ": 132,
      "ö": 133,
      "ù": 134,
      "ú": 135,
      "ü": 136,
      "ý": 137,
      "ā": 138,
      "ă": 139,
      "ć": 140,
      "Č": 141,
      "č": 142,
      "ē": 143,
      "ī": 144,
      "ı": 145,
      "ľ": 146,
      "Ł": 147,
      "ł": 148,
      "ń": 149,
      "ō": 150,
      "Ő": 151,
      "ő": 152,
      "ş": 153,
      "š": 154,
      "ũ": 155,
      "ū": 156,
      "ż": 157,
      "ǎ": 158,
      "ɣ": 159,
      "ɪ": 160,
      "Δ": 161,
      "Θ": 162,
      "Λ": 163,
      "ή": 164,
      "α": 165,
      "β": 166,
      "γ": 167,
      "ε": 168,
      "η": 169,
      "θ": 170,
      "λ": 171,
      "μ": 172,
      "ν": 173,
      "ρ": 174,
      "σ": 175,
      "τ": 176,
      "φ": 177,
      "χ": 178,
      "ω": 179,
      "ב": 180,
      "ה": 181,
      "ז": 182,
      "ם": 183,
      "ע": 184,
      "ר": 185,
      "ש": 186,
      "ת": 187,
      "ᵢ": 188,
      "ἀ": 189,
      "‐": 190,
      "‑": 191,
      "–": 192,
      "—": 193,
      "‘": 194,
      "’": 195,
      "“": 196,
      "”": 197,
      "„": 198,
      "•": 199,
      "…": 200,
      "‰": 201,
      "⁶": 202,
      "⁻": 203,
      "₁": 204,
      "₃": 205,
      "₇": 206,
      "€": 207,
      "₹": 208,
      "←": 209,
      "↑": 210,
      "→": 211,
      "↓": 212,
      "↔": 213,
      "∀": 214,
      "∅": 215,
      "∈": 216,
      "−": 217,
      "∘": 218,
      "∝": 219,
      "∩": 220,
      "≈": 221,
      "≠": 222,
      "≤": 223,
      "≥": 224,
      "≪": 225,
      "⊥": 226,
      "⋂": 227,
      "⋃": 228,
      "─": 229,
      "└": 230,
      "├": 231,
      "┤": 232,
      "▶": 233,
      "♪": 234,
      "⚡": 235,
      "✅": 236,
      "✓": 237,
      "✗": 238,
      "✨": 239,
      "❌": 240,
      "⟺": 241,
      "⭐": 242,
      "ⱼ": 243,
      "、": 244,
      "。": 245,
      "《": 246,
      "》": 247,
      "「": 248,
      "」": 249,
      "『": 250,
      "』": 251,
      "あ": 252,
      "い": 253,
      "う": 254,
      "え": 255,
      "お": 256,
      "か": 257,
      "が": 258,
      "き": 259,
      "く": 260,
      "け": 261,
      "げ": 262,
      "こ": 263,
      "さ": 264,
      "し": 265,
      "す": 266,
      "ず": 267,
      "そ": 268,
      "た": 269,
      "だ": 270,
      "ち": 271,
      "っ": 272,
      "つ": 273,
      "づ": 274,
      "て": 275,
      "で": 276,
      "と": 277,
      "ど": 278,
      "な": 279,
      "に": 280,
      "の": 281,
      "は": 282,
      "ば": 283,
      "ぶ": 284,
      "べ": 285,
      "ほ": 286,
      "ぼ": 287,
      "ま": 288,
      "み": 289,
      "め": 290,
      "も": 291,
      "や": 292,
      "よ": 293,
      "ら": 294,
      "り": 295,
      "る": 296,
      "れ": 297,
      "わ": 298,
      "を": 299,
      "ん": 300,
      "ア": 301,
      "ィ": 302,
      "イ": 303,
      "ウ": 304,
      "ェ": 305,
      "エ": 306,
      "オ": 307,
      "ク": 308,
      "グ": 309,
      "ゲ": 310,
      "コ": 311,
      "ゴ": 312,
      "サ": 313,
      "ザ": 314,
      "シ": 315,
      "ジ": 316,
      "ス": 317,
      "ズ": 318,
      "セ": 319,
      "ゼ": 320,
      "ソ": 321,
      "タ": 322,
      "チ": 323,
      "ッ": 324,
      "テ": 325,
      "デ": 326,
      "ト": 327,
      "ド": 328,
      "ナ": 329,
      "ニ": 330,
      "ノ": 331,
      "ハ": 332,
      "バ": 333,
      "パ": 334,
      "フ": 335,
      "プ": 336,
      "ム": 337,
      "ヤ": 338,
      "ュ": 339,
      "ユ": 340,
      "ラ": 341,
      "リ": 342,
      "ル": 343,
      "ロ": 344,
      "ン": 345,
      "・": 346,
      "ー": 347,
      "一": 348,
      "七": 349,
      "万": 350,
      "三": 351,
      "上": 352,
      "下": 353,
      "不": 354,
      "与": 355,
      "丑": 356,
      "且": 357,
      "世": 358,
      "丘": 359,
      "业": 360,
      "东": 361,
      "丢": 362,
      "两": 363,
      "严": 364,
      "丧": 365,
      "个": 366,
      "中": 367,
      "丰": 368,
      "临": 369,
      "为": 370,
      "主": 371,
      "丽": 372,
      "举": 373,
      "么": 374,
      "义": 375,
      "之": 376,
      "乎": 377,
      "乐": 378,
      "乘": 379,
      "乙": 380,
      "也": 381,
      "习": 382,
      "书": 383,
      "乱": 384,
      "了": 385,
      "予": 386,
      "争": 387,
      "事": 388,
      "二": 389,
      "于": 390,
      "云": 391,
      "互": 392,
      "五": 393,
      "些": 394,
      "交": 395,
      "亥": 396,
      "亦": 397,
      "产": 398,
      "享": 399,
      "亲": 400,
      "人": 401,
      "什": 402,
      "仁": 403,
      "仅": 404,
      "今": 405,
      "仍": 406,
      "从": 407,
      "仓": 408,
      "仕": 409,
      "他": 410,
      "付": 411,
      "代": 412,
      "令": 413,
      "以": 414,
      "仪": 415,
      "们": 416,
      "仮": 417,
      "仰": 418,
      "件": 419,
      "价": 420,
      "任": 421,
      "份": 422,
      "休": 423,
      "众": 424,
      "优": 425,
      "伙": 426,
      "会": 427,
      "伞": 428,
      "伟": 429,
      "传": 430,
      "伤": 431,
      "伴": 432,
      "似": 433,
      "但": 434,
      "位": 435,
      "低": 436,
      "住": 437,
      "体": 438,
      "何": 439,
      "作": 440,
      "你": 441,
      "佳": 442,
      "使": 443,
      "來": 444,
      "例": 445,
      "侏": 446,
      "依": 447,
      "価": 448,
      "侧": 449,
      "侯": 450,
      "便": 451,
      "保": 452,
      "信": 453,
      "修": 454,
      "俱": 455,
      "個": 456,
      "們": 457,
      "倒": 458,
      "候": 459,
      "倡": 460,
      "値": 461,
      "倦": 462,
      "值": 463,
      "假": 464,
      "偏": 465,
      "做": 466,
      "停": 467,
      "偶": 468,
      "偿": 469,
      "備": 470,
      "储": 471,
      "傪": 472,
      "傻": 473,
      "像": 474,
      "儒": 475,
      "儿": 476,
      "允": 477,
      "元": 478,
      "充": 479,
      "先": 480,
      "光": 481,
      "免": 482,
      "入": 483,
      "內": 484,
      "全": 485,
      "兩": 486,
      "八": 487,
      "公": 488,
      "六": 489,
      "兮": 490,
      "共": 491,
      "关": 492,
      "兴": 493,
      "其": 494,
      "典": 495,
      "兽": 496,
      "内": 497,
      "円": 498,
      "冈": 499,
      "册": 500,
      "再": 501,
      "写": 502,
      "军": 503,
      "农": 504,
      "决": 505,
      "冻": 506,
      "准": 507,
      "几": 508,
      "出": 509,
      "击": 510,
      "函": 511,
      "分": 512,
      "切": 513,
      "划": 514,
      "列": 515,
      "则": 516,
      "创": 517,
      "初": 518,
      "判": 519,
      "別": 520,
      "利": 521,
      "别": 522,
      "到": 523,
      "制": 524,
      "刷": 525,
      "刻": 526,
      "則": 527,
      "前": 528,
      "剩": 529,
      "創": 530,
      "力": 531,
      "劝": 532,
      "办": 533,
      "功": 534,
      "加": 535,
      "务": 536,
      "动": 537,
      "劳": 538,
      "動": 539,
      "募": 540,
      "勢": 541,
      "包": 542,
      "化": 543,
      "匪": 544,
      "匹": 545,
      "区": 546,
      "十": 547,
      "千": 548,
      "半": 549,
      "协": 550,
      "卑": 551,
      "卒": 552,
      "協": 553,
      "单": 554,
      "南": 555,
      "博": 556,
      "占": 557,
      "卫": 558,
      "危": 559,
      "即": 560,
      "却": 561,
      "卷": 562,
      "历": 563,
      "厌": 564,
      "厚": 565,
      "原": 566,
      "去": 567,
      "县": 568,
      "参": 569,
      "又": 570,
      "友": 571,
      "双": 572,
      "反": 573,
      "发": 574,
      "叔": 575,
      "取": 576,
      "受": 577,
      "变": 578,
      "口": 579,
      "古": 580,
      "句": 581,
      "另": 582,
      "只": 583,
      "叫": 584,
      "可": 585,
      "台": 586,
      "叱": 587,
      "史": 588,
      "叶": 589,
      "号": 590,
      "司": 591,
      "各": 592,
      "合": 593,
      "同": 594,
      "名": 595,
      "后": 596,
      "吐": 597,
      "向": 598,
      "吗": 599,
      "君": 600,
      "吞": 601,
      "否": 602,
      "吧": 603,
      "含": 604,
      "听": 605,
      "吹": 606,
      "吾": 607,
      "告": 608,
      "呢": 609,
      "周": 610,
      "味": 611,
      "呼": 612,
      "命": 613,
      "和": 614,
      "咤": 615,
      "咪": 616,
      "咮": 617,
      "咸": 618,
      "哀": 619,
      "品": 620,
      "哄": 621,
      "哉": 622,
      "响": 623,
      "哪": 624,
      "哲": 625,
      "唐": 626,
      "唯": 627,
      "唱": 628,
      "商": 629,
      "啊": 630,
      "問": 631,
      "善": 632,
      "喊": 633,
      "喜": 634,
      "單": 635,
      "営": 636,
      "喻": 637,
      "嘉": 638,
      "器": 639,
      "噪": 640,
      "囚": 641,
      "四": 642,
      "回": 643,
      "因": 644,
      "团": 645,
      "固": 646,
      "国": 647,
      "图": 648,
      "囿": 649,
      "土": 650,
      "圣": 651,
      "在": 652,
      "地": 653,
      "场": 654,
      "圾": 655,
      "坏": 656,
      "块": 657,
      "坛": 658,
      "垃": 659,
      "型": 660,
      "城": 661,
      "域": 662,
      "基": 663,
      "堂": 664,
      "堪": 665,
      "報": 666,
      "場": 667,
      "堵": 668,
      "塑": 669,
      "塔": 670,
      "境": 671,
      "墙": 672,
      "墨": 673,
      "士": 674,
      "壬": 675,
      "壮": 676,
      "声": 677,
      "売": 678,
      "处": 679,
      "备": 680,
      "変": 681,
      "复": 682,
      "夕": 683,
      "外": 684,
      "多": 685,
      "够": 686,
      "夠": 687,
      "大": 688,
      "天": 689,
      "太": 690,
      "夫": 691,
      "失": 692,
      "头": 693,
      "奇": 694,
      "套": 695,
      "女": 696,
      "好": 697,
      "如": 698,
      "妙": 699,
      "始": 700,
      "姓": 701,
      "姿": 702,
      "威": 703,
      "娈": 704,
      "婉": 705,
      "媾": 706,
      "子": 707,
      "孔": 708,
      "字": 709,
      "存": 710,
      "孟": 711,
      "季": 712,
      "学": 713,
      "它": 714,
      "守": 715,
      "安": 716,
      "完": 717,
      "宏": 718,
      "官": 719,
      "定": 720,
      "宝": 721,
      "实": 722,
      "审": 723,
      "客": 724,
      "室": 725,
      "宫": 726,
      "害": 727,
      "宴": 728,
      "家": 729,
      "容": 730,
      "宽": 731,
      "宿": 732,
      "寇": 733,
      "富": 734,
      "寒": 735,
      "察": 736,
      "實": 737,
      "对": 738,
      "寻": 739,
      "导": 740,
      "寿": 741,
      "封": 742,
      "射": 743,
      "将": 744,
      "專": 745,
      "尊": 746,
      "對": 747,
      "導": 748,
      "小": 749,
      "少": 750,
      "尔": 751,
      "尘": 752,
      "尝": 753,
      "就": 754,
      "尺": 755,
      "尽": 756,
      "尾": 757,
      "局": 758,
      "层": 759,
      "居": 760,
      "屋": 761,
      "展": 762,
      "層": 763,
      "山": 764,
      "岁": 765,
      "岂": 766,
      "峨": 767,
      "崩": 768,
      "嵌": 769,
      "巍": 770,
      "工": 771,
      "巧": 772,
      "差": 773,
      "己": 774,
      "已": 775,
      "巴": 776,
      "市": 777,
      "布": 778,
      "帆": 779,
      "师": 780,
      "帝": 781,
      "带": 782,
      "帮": 783,
      "帶": 784,
      "帷": 785,
      "常": 786,
      "幄": 787,
      "幕": 788,
      "干": 789,
      "平": 790,
      "年": 791,
      "并": 792,
      "幸": 793,
      "幽": 794,
      "广": 795,
      "庄": 796,
      "序": 797,
      "应": 798,
      "底": 799,
      "府": 800,
      "度": 801,
      "座": 802,
      "庭": 803,
      "庶": 804,
      "延": 805,
      "廷": 806,
      "建": 807,
      "开": 808,
      "异": 809,
      "弃": 810,
      "弄": 811,
      "式": 812,
      "弑": 813,
      "引": 814,
      "弟": 815,
      "张": 816,
      "弱": 817,
      "強": 818,
      "强": 819,
      "彌": 820,
      "归": 821,
      "当": 822,
      "形": 823,
      "彩": 824,
      "彼": 825,
      "往": 826,
      "征": 827,
      "径": 828,
      "待": 829,
      "很": 830,
      "律": 831,
      "後": 832,
      "徒": 833,
      "得": 834,
      "從": 835,
      "御": 836,
      "復": 837,
      "微": 838,
      "德": 839,
      "心": 840,
      "必": 841,
      "忍": 842,
      "志": 843,
      "忘": 844,
      "応": 845,
      "快": 846,
      "念": 847,
      "怀": 848,
      "态": 849,
      "怎": 850,
      "怒": 851,
      "思": 852,
      "性": 853,
      "总": 854,
      "息": 855,
      "恰": 856,
      "恶": 857,
      "悖": 858,
      "您": 859,
      "情": 860,
      "惊": 861,
      "惩": 862,
      "想": 863,
      "惹": 864,
      "愁": 865,
      "意": 866,
      "愚": 867,
      "感": 868,
      "愣": 869,
      "愿": 870,
      "態": 871,
      "慢": 872,
      "慣": 873,
      "慧": 874,
      "慰": 875,
      "懂": 876,
      "戈": 877,
      "成": 878,
      "我": 879,
      "或": 880,
      "战": 881,
      "截": 882,
      "户": 883,
      "房": 884,
      "所": 885,
      "手": 886,
      "才": 887,
      "打": 888,
      "扩": 889,
      "扫": 890,
      "扬": 891,
      "扰": 892,
      "扶": 893,
      "批": 894,
      "找": 895,
      "承": 896,
      "技": 897,
      "把": 898,
      "投": 899,
      "抖": 900,
      "抚": 901,
      "护": 902,
      "报": 903,
      "抽": 904,
      "拆": 905,
      "拉": 906,
      "拍": 907,
      "拒": 908,
      "招": 909,
      "拜": 910,
      "拠": 911,
      "择": 912,
      "括": 913,
      "拳": 914,
      "持": 915,
      "指": 916,
      "按": 917,
      "振": 918,
      "捉": 919,
      "捕": 920,
      "损": 921,
      "换": 922,
      "捨": 923,
      "据": 924,
      "授": 925,
      "掉": 926,
      "掌": 927,
      "排": 928,
      "探": 929,
      "接": 930,
      "控": 931,
      "推": 932,
      "描": 933,
      "提": 934,
      "換": 935,
      "握": 936,
      "揭": 937,
      "搜": 938,
      "搬": 939,
      "摆": 940,
      "摇": 941,
      "撑": 942,
      "撞": 943,
      "撤": 944,
      "播": 945,
      "擇": 946,
      "操": 947,
      "擬": 948,
      "支": 949,
      "收": 950,
      "改": 951,
      "攻": 952,
      "放": 953,
      "故": 954,
      "效": 955,
      "敌": 956,
      "敗": 957,
      "教": 958,
      "敢": 959,
      "敬": 960,
      "数": 961,
      "整": 962,
      "敵": 963,
      "文": 964,
      "斋": 965,
      "斗": 966,
      "料": 967,
      "断": 968,
      "斯": 969,
      "新": 970,
      "斷": 971,
      "方": 972,
      "於": 973,
      "施": 974,
      "旁": 975,
      "旃": 976,
      "旅": 977,
      "族": 978,
      "无": 979,
      "日": 980,
      "旧": 981,
      "旨": 982,
      "早": 983,
      "时": 984,
      "明": 985,
      "昏": 986,
      "易": 987,
      "星": 988,
      "映": 989,
      "昭": 990,
      "是": 991,
      "显": 992,
      "時": 993,
      "普": 994,
      "景": 995,
      "智": 996,
      "暗": 997,
      "暴": 998,
      "曰": 999,
      "曲": 1000,
      "更": 1001,
      "曹": 1002,
      "曾": 1003,
      "替": 1004,
      "最": 1005,
      "會": 1006,
      "有": 1007,
      "服": 1008,
      "望": 1009,
      "朝": 1010,
      "期": 1011,
      "未": 1012,
      "本": 1013,
      "术": 1014,
      "机": 1015,
      "朽": 1016,
      "杀": 1017,
      "权": 1018,
      "杆": 1019,
      "杉": 1020,
      "杏": 1021,
      "材": 1022,
      "村": 1023,
      "条": 1024,
      "来": 1025,
      "杯": 1026,
      "東": 1027,
      "板": 1028,
      "极": 1029,
      "构": 1030,
      "析": 1031,
      "林": 1032,
      "果": 1033,
      "架": 1034,
      "柏": 1035,
      "柔": 1036,
      "柞": 1037,
      "查": 1038,
      "柴": 1039,
      "标": 1040,
      "栈": 1041,
      "栏": 1042,
      "树": 1043,
      "校": 1044,
      "样": 1045,
      "核": 1046,
      "根": 1047,
      "格": 1048,
      "框": 1049,
      "案": 1050,
      "桑": 1051,
      "梁": 1052,
      "检": 1053,
      "楚": 1054,
      "楯": 1055,
      "極": 1056,
      "概": 1057,
      "構": 1058,
      "槛": 1059,
      "標": 1060,
      "模": 1061,
      "樣": 1062,
      "横": 1063,
      "機": 1064,
      "次": 1065,
      "欢": 1066,
      "欲": 1067,
      "歇": 1068,
      "歌": 1069,
      "歓": 1070,
      "止": 1071,
      "正": 1072,
      "此": 1073,
      "步": 1074,
      "武": 1075,
      "歧": 1076,
      "死": 1077,
      "残": 1078,
      "段": 1079,
      "殿": 1080,
      "毋": 1081,
      "母": 1082,
      "每": 1083,
      "比": 1084,
      "民": 1085,
      "气": 1086,
      "氣": 1087,
      "求": 1088,
      "汉": 1089,
      "汝": 1090,
      "決": 1091,
      "汽": 1092,
      "沉": 1093,
      "沒": 1094,
      "沙": 1095,
      "沛": 1096,
      "没": 1097,
      "沧": 1098,
      "河": 1099,
      "油": 1100,
      "治": 1101,
      "沾": 1102,
      "泄": 1103,
      "法": 1104,
      "注": 1105,
      "泰": 1106,
      "洁": 1107,
      "洗": 1108,
      "洛": 1109,
      "活": 1110,
      "派": 1111,
      "流": 1112,
      "测": 1113,
      "浑": 1114,
      "浓": 1115,
      "浮": 1116,
      "海": 1117,
      "消": 1118,
      "涯": 1119,
      "淀": 1120,
      "淋": 1121,
      "淡": 1122,
      "淫": 1123,
      "深": 1124,
      "淳": 1125,
      "混": 1126,
      "清": 1127,
      "済": 1128,
      "渊": 1129,
      "渡": 1130,
      "渴": 1131,
      "游": 1132,
      "湑": 1133,
      "湿": 1134,
      "源": 1135,
      "準": 1136,
      "溯": 1137,
      "滋": 1138,
      "滑": 1139,
      "满": 1140,
      "滤": 1141,
      "漂": 1142,
      "漆": 1143,
      "漏": 1144,
      "演": 1145,
      "漫": 1146,
      "潮": 1147,
      "濡": 1148,
      "火": 1149,
      "灭": 1150,
      "灯": 1151,
      "炫": 1152,
      "点": 1153,
      "為": 1154,
      "烂": 1155,
      "烈": 1156,
      "焉": 1157,
      "無": 1158,
      "然": 1159,
      "煌": 1160,
      "照": 1161,
      "燕": 1162,
      "營": 1163,
      "爬": 1164,
      "爱": 1165,
      "片": 1166,
      "牌": 1167,
      "牡": 1168,
      "物": 1169,
      "特": 1170,
      "状": 1171,
      "犹": 1172,
      "狀": 1173,
      "独": 1174,
      "猎": 1175,
      "獨": 1176,
      "率": 1177,
      "王": 1178,
      "玩": 1179,
      "环": 1180,
      "现": 1181,
      "現": 1182,
      "球": 1183,
      "理": 1184,
      "琴": 1185,
      "環": 1186,
      "瓶": 1187,
      "甚": 1188,
      "生": 1189,
      "產": 1190,
      "用": 1191,
      "田": 1192,
      "由": 1193,
      "画": 1194,
      "界": 1195,
      "留": 1196,
      "番": 1197,
      "當": 1198,
      "疙": 1199,
      "疼": 1200,
      "疾": 1201,
      "病": 1202,
      "瘩": 1203,
      "発": 1204,
      "登": 1205,
      "發": 1206,
      "百": 1207,
      "的": 1208,
      "皆": 1209,
      "皇": 1210,
      "皮": 1211,
      "益": 1212,
      "盖": 1213,
      "盛": 1214,
      "盟": 1215,
      "目": 1216,
      "直": 1217,
      "相": 1218,
      "盾": 1219,
      "看": 1220,
      "真": 1221,
      "着": 1222,
      "矛": 1223,
      "矣": 1224,
      "知": 1225,
      "短": 1226,
      "矮": 1227,
      "矰": 1228,
      "码": 1229,
      "破": 1230,
      "础": 1231,
      "硕": 1232,
      "硬": 1233,
      "确": 1234,
      "碍": 1235,
      "碎": 1236,
      "確": 1237,
      "礎": 1238,
      "示": 1239,
      "礼": 1240,
      "社": 1241,
      "祀": 1242,
      "祋": 1243,
      "神": 1244,
      "祭": 1245,
      "祸": 1246,
      "禁": 1247,
      "福": 1248,
      "离": 1249,
      "禽": 1250,
      "私": 1251,
      "种": 1252,
      "科": 1253,
      "秒": 1254,
      "秦": 1255,
      "秩": 1256,
      "积": 1257,
      "称": 1258,
      "移": 1259,
      "程": 1260,
      "稍": 1261,
      "種": 1262,
      "稽": 1263,
      "穩": 1264,
      "空": 1265,
      "穿": 1266,
      "突": 1267,
      "窃": 1268,
      "立": 1269,
      "竖": 1270,
      "站": 1271,
      "竞": 1272,
      "端": 1273,
      "竹": 1274,
      "笑": 1275,
      "笔": 1276,
      "第": 1277,
      "等": 1278,
      "答": 1279,
      "策": 1280,
      "筹": 1281,
      "签": 1282,
      "简": 1283,
      "算": 1284,
      "管": 1285,
      "箭": 1286,
      "篇": 1287,
      "築": 1288,
      "籍": 1289,
      "类": 1290,
      "粹": 1291,
      "精": 1292,
      "糊": 1293,
      "系": 1294,
      "約": 1295,
      "級": 1296,
      "索": 1297,
      "累": 1298,
      "組": 1299,
      "経": 1300,
      "結": 1301,
      "給": 1302,
      "統": 1303,
      "經": 1304,
      "継": 1305,
      "続": 1306,
      "緣": 1307,
      "縛": 1308,
      "繁": 1309,
      "繞": 1310,
      "繼": 1311,
      "續": 1312,
      "红": 1313,
      "级": 1314,
      "纪": 1315,
      "纯": 1316,
      "纵": 1317,
      "纶": 1318,
      "纷": 1319,
      "线": 1320,
      "组": 1321,
      "细": 1322,
      "终": 1323,
      "经": 1324,
      "结": 1325,
      "给": 1326,
      "绝": 1327,
      "统": 1328,
      "继": 1329,
      "续": 1330,
      "维": 1331,
      "编": 1332,
      "缘": 1333,
      "缛": 1334,
      "缩": 1335,
      "缺": 1336,
      "网": 1337,
      "罔": 1338,
      "罕": 1339,
      "罚": 1340,
      "置": 1341,
      "美": 1342,
      "群": 1343,
      "義": 1344,
      "習": 1345,
      "翼": 1346,
      "耀": 1347,
      "老": 1348,
      "考": 1349,
      "者": 1350,
      "耆": 1351,
      "而": 1352,
      "耳": 1353,
      "聊": 1354,
      "联": 1355,
      "聚": 1356,
      "聪": 1357,
      "股": 1358,
      "肯": 1359,
      "育": 1360,
      "肴": 1361,
      "背": 1362,
      "胡": 1363,
      "胸": 1364,
      "能": 1365,
      "脑": 1366,
      "脚": 1367,
      "脸": 1368,
      "臆": 1369,
      "臣": 1370,
      "自": 1371,
      "至": 1372,
      "致": 1373,
      "與": 1374,
      "舍": 1375,
      "舝": 1376,
      "舞": 1377,
      "良": 1378,
      "色": 1379,
      "艺": 1380,
      "节": 1381,
      "芯": 1382,
      "花": 1383,
      "芾": 1384,
      "苏": 1385,
      "苑": 1386,
      "苗": 1387,
      "苛": 1388,
      "若": 1389,
      "苦": 1390,
      "英": 1391,
      "范": 1392,
      "草": 1393,
      "荒": 1394,
      "荟": 1395,
      "荡": 1396,
      "荫": 1397,
      "落": 1398,
      "著": 1399,
      "葬": 1400,
      "蓬": 1401,
      "蔚": 1402,
      "蕉": 1403,
      "蕹": 1404,
      "薪": 1405,
      "藏": 1406,
      "藤": 1407,
      "虎": 1408,
      "處": 1409,
      "虚": 1410,
      "號": 1411,
      "虽": 1412,
      "蛮": 1413,
      "蜕": 1414,
      "蝴": 1415,
      "蝶": 1416,
      "血": 1417,
      "行": 1418,
      "补": 1419,
      "表": 1420,
      "衰": 1421,
      "袋": 1422,
      "被": 1423,
      "裂": 1424,
      "装": 1425,
      "補": 1426,
      "裡": 1427,
      "西": 1428,
      "要": 1429,
      "覆": 1430,
      "見": 1431,
      "規": 1432,
      "観": 1433,
      "覺": 1434,
      "觀": 1435,
      "见": 1436,
      "观": 1437,
      "规": 1438,
      "视": 1439,
      "觉": 1440,
      "觏": 1441,
      "角": 1442,
      "解": 1443,
      "觥": 1444,
      "触": 1445,
      "言": 1446,
      "計": 1447,
      "討": 1448,
      "記": 1449,
      "設": 1450,
      "許": 1451,
      "訴": 1452,
      "証": 1453,
      "試": 1454,
      "話": 1455,
      "誉": 1456,
      "認": 1457,
      "語": 1458,
      "誤": 1459,
      "說": 1460,
      "説": 1461,
      "誰": 1462,
      "課": 1463,
      "調": 1464,
      "論": 1465,
      "謝": 1466,
      "識": 1467,
      "警": 1468,
      "議": 1469,
      "變": 1470,
      "讓": 1471,
      "计": 1472,
      "认": 1473,
      "让": 1474,
      "训": 1475,
      "议": 1476,
      "记": 1477,
      "讲": 1478,
      "许": 1479,
      "论": 1480,
      "讽": 1481,
      "设": 1482,
      "访": 1483,
      "证": 1484,
      "评": 1485,
      "识": 1486,
      "诉": 1487,
      "诊": 1488,
      "词": 1489,
      "诗": 1490,
      "话": 1491,
      "诞": 1492,
      "该": 1493,
      "语": 1494,
      "诲": 1495,
      "说": 1496,
      "请": 1497,
      "诺": 1498,
      "读": 1499,
      "课": 1500,
      "谁": 1501,
      "调": 1502,
      "谈": 1503,
      "谋": 1504,
      "谏": 1505,
      "谓": 1506,
      "谢": 1507,
      "谬": 1508,
      "谱": 1509,
      "谷": 1510,
      "豆": 1511,
      "象": 1512,
      "貌": 1513,
      "負": 1514,
      "費": 1515,
      "資": 1516,
      "質": 1517,
      "负": 1518,
      "财": 1519,
      "货": 1520,
      "质": 1521,
      "贯": 1522,
      "贱": 1523,
      "贵": 1524,
      "费": 1525,
      "贾": 1526,
      "资": 1527,
      "赋": 1528,
      "赞": 1529,
      "赠": 1530,
      "赤": 1531,
      "走": 1532,
      "起": 1533,
      "越": 1534,
      "趟": 1535,
      "趣": 1536,
      "足": 1537,
      "跑": 1538,
      "跟": 1539,
      "跨": 1540,
      "路": 1541,
      "跳": 1542,
      "践": 1543,
      "身": 1544,
      "較": 1545,
      "輸": 1546,
      "车": 1547,
      "轨": 1548,
      "转": 1549,
      "轮": 1550,
      "软": 1551,
      "轰": 1552,
      "轻": 1553,
      "轼": 1554,
      "载": 1555,
      "辆": 1556,
      "辈": 1557,
      "辉": 1558,
      "辍": 1559,
      "辑": 1560,
      "输": 1561,
      "辔": 1562,
      "辞": 1563,
      "辩": 1564,
      "辰": 1565,
      "边": 1566,
      "辽": 1567,
      "达": 1568,
      "迁": 1569,
      "过": 1570,
      "迎": 1571,
      "运": 1572,
      "近": 1573,
      "还": 1574,
      "这": 1575,
      "进": 1576,
      "远": 1577,
      "连": 1578,
      "述": 1579,
      "追": 1580,
      "退": 1581,
      "送": 1582,
      "适": 1583,
      "选": 1584,
      "透": 1585,
      "递": 1586,
      "逗": 1587,
      "這": 1588,
      "通": 1589,
      "逝": 1590,
      "造": 1591,
      "連": 1592,
      "週": 1593,
      "逻": 1594,
      "遂": 1595,
      "遇": 1596,
      "運": 1597,
      "遍": 1598,
      "過": 1599,
      "道": 1600,
      "達": 1601,
      "遗": 1602,
      "遮": 1603,
      "選": 1604,
      "避": 1605,
      "還": 1606,
      "邊": 1607,
      "邑": 1608,
      "那": 1609,
      "邦": 1610,
      "邪": 1611,
      "邮": 1612,
      "郎": 1613,
      "部": 1614,
      "都": 1615,
      "配": 1616,
      "酒": 1617,
      "酬": 1618,
      "酷": 1619,
      "醒": 1620,
      "采": 1621,
      "里": 1622,
      "重": 1623,
      "野": 1624,
      "量": 1625,
      "金": 1626,
      "錯": 1627,
      "鍵": 1628,
      "钓": 1629,
      "钟": 1630,
      "链": 1631,
      "锁": 1632,
      "锋": 1633,
      "错": 1634,
      "键": 1635,
      "長": 1636,
      "长": 1637,
      "開": 1638,
      "間": 1639,
      "關": 1640,
      "门": 1641,
      "问": 1642,
      "间": 1643,
      "闻": 1644,
      "阅": 1645,
      "阜": 1646,
      "阱": 1647,
      "防": 1648,
      "阳": 1649,
      "阴": 1650,
      "阶": 1651,
      "阻": 1652,
      "阿": 1653,
      "附": 1654,
      "际": 1655,
      "陈": 1656,
      "降": 1657,
      "限": 1658,
      "陕": 1659,
      "陛": 1660,
      "陟": 1661,
      "陣": 1662,
      "险": 1663,
      "陷": 1664,
      "随": 1665,
      "障": 1666,
      "隮": 1667,
      "隱": 1668,
      "难": 1669,
      "雅": 1670,
      "集": 1671,
      "雍": 1672,
      "離": 1673,
      "雨": 1674,
      "需": 1675,
      "震": 1676,
      "露": 1677,
      "青": 1678,
      "静": 1679,
      "靜": 1680,
      "非": 1681,
      "靠": 1682,
      "面": 1683,
      "革": 1684,
      "韩": 1685,
      "音": 1686,
      "頸": 1687,
      "頻": 1688,
      "顆": 1689,
      "題": 1690,
      "類": 1691,
      "顯": 1692,
      "顶": 1693,
      "顷": 1694,
      "顾": 1695,
      "颂": 1696,
      "预": 1697,
      "领": 1698,
      "颈": 1699,
      "频": 1700,
      "颗": 1701,
      "题": 1702,
      "颠": 1703,
      "風": 1704,
      "风": 1705,
      "飘": 1706,
      "飞": 1707,
      "食": 1708,
      "饥": 1709,
      "饮": 1710,
      "馆": 1711,
      "騑": 1712,
      "驅": 1713,
      "驗": 1714,
      "马": 1715,
      "驰": 1716,
      "驶": 1717,
      "驾": 1718,
      "骄": 1719,
      "骋": 1720,
      "验": 1721,
      "骤": 1722,
      "骨": 1723,
      "體": 1724,
      "高": 1725,
      "髡": 1726,
      "鱼": 1727,
      "鲁": 1728,
      "鲜": 1729,
      "鷮": 1730,
      "鸟": 1731,
      "鸡": 1732,
      "鹈": 1733,
      "鹿": 1734,
      "麋": 1735,
      "黄": 1736,
      "默": 1737,
      "點": 1738,
      "齐": 1739,
      "龙": 1740,
      "️": 1741,
      "！": 1742,
      "（": 1743,
      "）": 1744,
      "，": 1745,
      "：": 1746,
      "；": 1747,
      "？": 1748,
      "�": 1749,
      "🌿": 1750,
      "🎤": 1751,
      "🎵": 1752,
      "💳": 1753,
      "📋": 1754,
      "📌": 1755,
      "📚": 1756,
      "📷": 1757,
      "🔊": 1758,
      "🔗": 1759,
      "🔧": 1760,
      "🖖": 1761,
      "🛡": 1762,
      "🛤": 1763,
      "🛰": 1764,
      "🤝": 1765,
      "🤣": 1766,
      "🦋": 1767,
      "🦞": 1768,
      "th": 1769,
      "in": 1770,
      "re": 1771,
      "the": 1772,
      "on": 1773,
      "at": 1774,
      "en": 1775,
      "er": 1776,
      "an": 1777,
      "st": 1778,
      "or": 1779,
      "al": 1780,
      "is": 1781,
      "it": 1782,
      "ing": 1783,
      "ion": 1784,
      "es": 1785,
      "ed": 1786,
      "ic": 1787,
      "ar": 1788,
      "ro": 1789,
      "to": 1790,
      "ou": 1791,
      "ent": 1792,
      "ct": 1793,
      "of": 1794,
      "le": 1795,
      "as": 1796,
      "he": 1797,
      "de": 1798,
      "se": 1799,
      "and": 1800,
      "ation": 1801,
      "co": 1802,
      "il": 1803,
      "ch": 1804,
      "me": 1805,
      "ce": 1806,
      "ra": 1807,
      "lo": 1808,
      "ve": 1809,
      "ly": 1810,
      "if": 1811,
      "no": 1812,
      "for": 1813,
      "ig": 1814,
      "The": 1815,
      "mo": 1816,
      "pro": 1817,
      "be": 1818,
      "con": 1819,
      "ut": 1820,
      "ab": 1821,
      "ver": 1822,
      "ag": 1823,
      "that": 1824,
      "mp": 1825,
      "ity": 1826,
      "un": 1827,
      "su": 1828,
      "ex": 1829,
      "id": 1830,
      "ap": 1831,
      "ol": 1832,
      "int": 1833,
      "not": 1834,
      "we": 1835,
      "ate": 1836,
      "ad": 1837,
      "ment": 1838,
      "res": 1839,
      "ur": 1840,
      "im": 1841,
      "ac": 1842,
      "tr": 1843,
      "qu": 1844,
      "are": 1845,
      "ist": 1846,
      "you": 1847,
      "sp": 1848,
      "et": 1849,
      "s.": 1850,
      "ust": 1851,
      "act": 1852,
      "ul": 1853,
      "te": 1854,
      "sh": 1855,
      "ay": 1856,
      "wh": 1857,
      "ure": 1858,
      "ter": 1859,
      "ow": 1860,
      "del": 1861,
      "ive": 1862,
      "'s": 1863,
      "per": 1864,
      "ith": 1865,
      "ess": 1866,
      "ne": 1867,
      "ma": 1868,
      "igh": 1869,
      "iv": 1870,
      "ical": 1871,
      "str": 1872,
      "with": 1873,
      "model": 1874,
      "can": 1875,
      "po": 1876,
      "rom": 1877,
      "pl": 1878,
      "s,": 1879,
      "ect": 1880,
      "from": 1881,
      "iz": 1882,
      "but": 1883,
      "ir": 1884,
      "ge": 1885,
      "ec": 1886,
      "do": 1887,
      "ste": 1888,
      "ign": 1889,
      "us": 1890,
      "out": 1891,
      "wor": 1892,
      "comp": 1893,
      "ction": 1894,
      "Th": 1895,
      "ine": 1896,
      "ility": 1897,
      "ren": 1898,
      "ding": 1899,
      "li": 1900,
      "ant": 1901,
      "by": 1902,
      "tra": 1903,
      "op": 1904,
      "'t": 1905,
      "ke": 1906,
      "agent": 1907,
      "sy": 1908,
      "au": 1909,
      "ti": 1910,
      "one": 1911,
      "ific": 1912,
      "end": 1913,
      "ri": 1914,
      "able": 1915,
      "red": 1916,
      "ence": 1917,
      "fa": 1918,
      "fe": 1919,
      "cl": 1920,
      "com": 1921,
      "cal": 1922,
      "If": 1923,
      "ld": 1924,
      "oun": 1925,
      "ther": 1926,
      "der": 1927,
      "stru": 1928,
      "**": 1929,
      "man": 1930,
      "ans": 1931,
      "ard": 1932,
      "our": 1933,
      "just": 1934,
      "ck": 1935,
      "ability": 1936,
      "ight": 1937,
      "ain": 1938,
      "ill": 1939,
      "par": 1940,
      "ev": 1941,
      "am": 1942,
      "work": 1943,
      "ph": 1944,
      "ial": 1945,
      "ind": 1946,
      "It": 1947,
      "this": 1948,
      "stem": 1949,
      "sign": 1950,
      "ip": 1951,
      "age": 1952,
      "20": 1953,
      "low": 1954,
      "ces": 1955,
      "chan": 1956,
      "bet": 1957,
      "system": 1958,
      "form": 1959,
      "cont": 1960,
      "whe": 1961,
      "cy": 1962,
      "ble": 1963,
      "cor": 1964,
      "ll": 1965,
      "ual": 1966,
      "pre": 1967,
      "ated": 1968,
      "This": 1969,
      "ame": 1970,
      "bo": 1971,
      "ary": 1972,
      "tt": 1973,
      "ies": 1974,
      "arch": 1975,
      "ass": 1976,
      "In": 1977,
      "spec": 1978,
      "ack": 1979,
      "n't": 1980,
      "ens": 1981,
      "che": 1982,
      "all": 1983,
      "vi": 1984,
      "ition": 1985,
      "ift": 1986,
      "struct": 1987,
      "pr": 1988,
      "um": 1989,
      "dat": 1990,
      "log": 1991,
      "est": 1992,
      "fi": 1993,
      "so": 1994,
      "gra": 1995,
      "ext": 1996,
      "ha": 1997,
      "s:": 1998,
      "inter": 1999,
      "ser": 2000,
      "imp": 2001,
      "dep": 2002,
      "ach": 2003,
      "requ": 2004,
      "ance": 2005,
      "bu": 2006,
      "des": 2007,
      "its": 2008,
      "di": 2009,
      "ff": 2010,
      "tion": 2011,
      "mar": 2012,
      "up": 2013,
      "read": 2014,
      "val": 2015,
      "dis": 2016,
      "does": 2017,
      "rent": 2018,
      "ates": 2019,
      "dist": 2020,
      "ween": 2021,
      "between": 2022,
      "where": 2023,
      "Wh": 2024,
      "fail": 2025,
      "du": 2026,
      "ob": 2027,
      "ers": 2028,
      "gen": 2029,
      "ort": 2030,
      "ound": 2031,
      "ory": 2032,
      "cre": 2033,
      "high": 2034,
      "ss": 2035,
      "trans": 2036,
      "ise": 2037,
      "than": 2038,
      "mat": 2039,
      "cap": 2040,
      "ta": 2041,
      "cur": 2042,
      "##": 2043,
      "ould": 2044,
      "ase": 2045,
      "state": 2046,
      "ong": 2047,
      "into": 2048,
      "reg": 2049,
      "cess": 2050,
      "real": 2051,
      "specific": 2052,
      "has": 2053,
      "shift": 2054,
      "fra": 2055,
      "how": 2056,
      "data": 2057,
      "time": 2058,
      "way": 2059,
      "gh": 2060,
      "fo": 2061,
      "own": 2062,
      "ency": 2063,
      "fun": 2064,
      "gu": 2065,
      "ty": 2066,
      "ot": 2067,
      "very": 2068,
      "over": 2069,
      "om": 2070,
      "202": 2071,
      "ys": 2072,
      "dif": 2073,
      "ural": 2074,
      "ject": 2075,
      "was": 2076,
      "sel": 2077,
      "sion": 2078,
      "ution": 2079,
      "ing.": 2080,
      "ice": 2081,
      "test": 2082,
      "dy": 2083,
      "es.": 2084,
      "ization": 2085,
      "ause": 2086,
      "fl": 2087,
      "pres": 2088,
      "ue": 2089,
      "only": 2090,
      "ich": 2091,
      "prov": 2092,
      "ps:": 2093,
      "htt": 2094,
      "//": 2095,
      "stra": 2096,
      "https:": 2097,
      "https://": 2098,
      "sing": 2099,
      "ak": 2100,
      "mark": 2101,
      "line": 2102,
      "We": 2103,
      "ed.": 2104,
      "fin": 2105,
      "depend": 2106,
      "ous": 2107,
      "edding": 2108,
      "ifi": 2109,
      "serv": 2110,
      "put": 2111,
      "ast": 2112,
      "mis": 2113,
      "ts": 2114,
      "ating": 2115,
      "ations": 2116,
      "min": 2117,
      "ources": 2118,
      "more": 2119,
      "need": 2120,
      "ok": 2121,
      "what": 2122,
      "sol": 2123,
      "dec": 2124,
      "run": 2125,
      "requi": 2126,
      "same": 2127,
      "blem": 2128,
      "pe": 2129,
      "gr": 2130,
      "problem": 2131,
      "self": 2132,
      "00": 2133,
      "exp": 2134,
      "ree": 2135,
      "cause": 2136,
      "ari": 2137,
      "under": 2138,
      "corre": 2139,
      "sur": 2140,
      "ning": 2141,
      "check": 2142,
      "actual": 2143,
      "have": 2144,
      "'re": 2145,
      "eff": 2146,
      "rit": 2147,
      "ident": 2148,
      "signal": 2149,
      "ation.": 2150,
      "tim": 2151,
      "mon": 2152,
      "point": 2153,
      "get": 2154,
      "which": 2155,
      "ator": 2156,
      "scal": 2157,
      "because": 2158,
      "av": 2159,
      "ile": 2160,
      "gener": 2161,
      "these": 2162,
      "when": 2163,
      "ism": 2164,
      "ide": 2165,
      "Sources": 2166,
      "mechan": 2167,
      "now": 2168,
      "abs": 2169,
      ").": 2170,
      "You": 2171,
      "they": 2172,
      "bl": 2173,
      "inte": 2174,
      "tic": 2175,
      "thing": 2176,
      "diffe": 2177,
      "eng": 2178,
      "search": 2179,
      "it's": 2180,
      "buil": 2181,
      "port": 2182,
      "org": 2183,
      "br": 2184,
      "ask": 2185,
      "es,": 2186,
      "set": 2187,
      "ror": 2188,
      "your": 2189,
      "sub": 2190,
      "like": 2191,
      "od": 2192,
      "meas": 2193,
      "bas": 2194,
      "will": 2195,
      "ry": 2196,
      "ative": 2197,
      "tool": 2198,
      "pa": 2199,
      "about": 2200,
      "ris": 2201,
      "lay": 2202,
      "ross": 2203,
      "old": 2204,
      "ish": 2205,
      "tw": 2206,
      "produ": 2207,
      "coun": 2208,
      "constra": 2209,
      "ized": 2210,
      "istic": 2211,
      "bound": 2212,
      "comple": 2213,
      "vari": 2214,
      "ification": 2215,
      "cost": 2216,
      "valid": 2217,
      "metr": 2218,
      "main": 2219,
      "dr": 2220,
      "cent": 2221,
      "tern": 2222,
      "rou": 2223,
      "becom": 2224,
      "high-": 2225,
      "tre": 2226,
      "structure": 2227,
      "ace": 2228,
      "rough": 2229,
      "mov": 2230,
      "tur": 2231,
      "ward": 2232,
      "ict": 2233,
      "ify": 2234,
      "sa": 2235,
      "ision": 2236,
      "structural": 2237,
      "That": 2238,
      "ep": 2239,
      "art": 2240,
      "ness": 2241,
      "oper": 2242,
      "back": 2243,
      "rather": 2244,
      "comm": 2245,
      "risk": 2246,
      "ribut": 2247,
      "isn't": 2248,
      "org/": 2249,
      "fore": 2250,
      "rence": 2251,
      "wedding": 2252,
      "pos": 2253,
      "app": 2254,
      ".org/": 2255,
      "failure": 2256,
      "vel": 2257,
      "2026": 2258,
      "aim": 2259,
      "ically": 2260,
      "vers": 2261,
      "AI": 2262,
      "new": 2263,
      "fir": 2264,
      "ational": 2265,
      "gest": 2266,
      "col": 2267,
      "ature": 2268,
      "temp": 2269,
      "ures": 2270,
      "appro": 2271,
      "on-": 2272,
      "el": 2273,
      "distribut": 2274,
      "When": 2275,
      "mechanism": 2276,
      "gro": 2277,
      "move": 2278,
      "layer": 2279,
      "error": 2280,
      "function": 2281,
      "ten": 2282,
      "market": 2283,
      "through": 2284,
      "becomes": 2285,
      "phys": 2286,
      "stand": 2287,
      "clo": 2288,
      "cond": 2289,
      "ason": 2290,
      "lat": 2291,
      "then": 2292,
      "ential": 2293,
      "without": 2294,
      "ting": 2295,
      "ful": 2296,
      "ite": 2297,
      "look": 2298,
      "ed,": 2299,
      "go": 2300,
      "models": 2301,
      "claim": 2302,
      "itself": 2303,
      "sc": 2304,
      "local": 2305,
      "who": 2306,
      "every": 2307,
      "noise": 2308,
      "cle": 2309,
      "long": 2310,
      "wind": 2311,
      "plan": 2312,
      "xiv": 2313,
      "cannot": 2314,
      "different": 2315,
      "net": 2316,
      "sug": 2317,
      "ress": 2318,
      ".0": 2319,
      "must": 2320,
      "optim": 2321,
      "xiv.org/": 2322,
      "suggest": 2323,
      "nam": 2324,
      "atch": 2325,
      "abs/": 2326,
      "arxiv.org/": 2327,
      "comput": 2328,
      "https://arxiv.org/": 2329,
      "https://arxiv.org/abs/": 2330,
      "constraint": 2331,
      "fix": 2332,
      "research": 2333,
      "stat": 2334,
      "actly": 2335,
      "based": 2336,
      "ient": 2337,
      "flow": 2338,
      "pu": 2339,
      "mul": 2340,
      "ced": 2341,
      "vol": 2342,
      "exist": 2343,
      "design": 2344,
      "gap": 2345,
      "hand": 2346,
      "eld": 2347,
      "contro": 2348,
      "use": 2349,
      "rely": 2350,
      "observ": 2351,
      "ing,": 2352,
      "sul": 2353,
      "pol": 2354,
      "erg": 2355,
      "hu": 2356,
      "lement": 2357,
      "rece": 2358,
      "weight": 2359,
      "For": 2360,
      "still": 2361,
      "cer": 2362,
      "ible": 2363,
      "actually": 2364,
      "effect": 2365,
      "ize": 2366,
      "frame": 2367,
      "measure": 2368,
      "reason": 2369,
      "10": 2370,
      "hard": 2371,
      "it.": 2372,
      "pred": 2373,
      "re-": 2374,
      "velo": 2375,
      "trust": 2376,
      "la": 2377,
      "action": 2378,
      "remain": 2379,
      "ger": 2380,
      "sum": 2381,
      "ics": 2382,
      "resul": 2383,
      "itect": 2384,
      "any": 2385,
      "distribution": 2386,
      "exec": 2387,
      "und": 2388,
      "single": 2389,
      "eval": 2390,
      "provid": 2391,
      "non-": 2392,
      "again": 2393,
      "pass": 2394,
      "architect": 2395,
      "process": 2396,
      "em": 2397,
      "doesn't": 2398,
      "off": 2399,
      "integr": 2400,
      "two": 2401,
      "ew": 2402,
      "auth": 2403,
      "agents": 2404,
      "prec": 2405,
      "human": 2406,
      "ally": 2407,
      "across": 2408,
      "path": 2409,
      "os": 2410,
      "ation,": 2411,
      "mem": 2412,
      "sure": 2413,
      "y.": 2414,
      "most": 2415,
      "stu": 2416,
      "engine": 2417,
      "ors": 2418,
      "context": 2419,
      "ose": 2420,
      "level": 2421,
      "da": 2422,
      "sequ": 2423,
      "window": 2424,
      "vent": 2425,
      "verifi": 2426,
      "sem": 2427,
      "load": 2428,
      "side": 2429,
      "ared": 2430,
      "know": 2431,
      "lation": 2432,
      "loop": 2433,
      "oupl": 2434,
      "face": 2435,
      "lan": 2436,
      "against": 2437,
      "ib": 2438,
      "code": 2439,
      "hold": 2440,
      "can't": 2441,
      "see": 2442,
      "tri": 2443,
      "estion": 2444,
      "aper": 2445,
      "transition": 2446,
      "field": 2447,
      "less": 2448,
      "Re": 2449,
      "resp": 2450,
      "fact": 2451,
      "--": 2452,
      "rop": 2453,
      "coll": 2454,
      "down": 2455,
      "anal": 2456,
      "current": 2457,
      "ear": 2458,
      "cu": 2459,
      "should": 2460,
      "quant": 2461,
      "receip": 2462,
      "But": 2463,
      "v1": 2464,
      "framework": 2465,
      "sist": 2466,
      "add": 2467,
      "scale": 2468,
      "other": 2469,
      "ity.": 2470,
      "before": 2471,
      "Xiv": 2472,
      "arXiv": 2473,
      "pat": 2474,
      "independ": 2475,
      "space": 2476,
      "sim": 2477,
      "ities": 2478,
      "uring": 2479,
      "whether": 2480,
      "ho": 2481,
      "graph": 2482,
      "dire": 2483,
      "bre": 2484,
      "train": 2485,
      "multi": 2486,
      "vir": 2487,
      "simp": 2488,
      "toward": 2489,
      "mak": 2490,
      "ital": 2491,
      "question": 2492,
      "lim": 2493,
      "led": 2494,
      "writ": 2495,
      "ber": 2496,
      "lect": 2497,
      "ments": 2498,
      "att": 2499,
      "reli": 2500,
      "pt": 2501,
      "cus": 2502,
      "They": 2503,
      "treat": 2504,
      "count": 2505,
      "An": 2506,
      "peri": 2507,
      "turn": 2508,
      "respon": 2509,
      "Ex": 2510,
      "logic": 2511,
      "leg": 2512,
      "lock": 2513,
      "Mo": 2514,
      "),": 2515,
      "event": 2516,
      "ware": 2517,
      "syn": 2518,
      "you're": 2519,
      "would": 2520,
      "some": 2521,
      "change": 2522,
      "spect": 2523,
      "present": 2524,
      "pattern": 2525,
      "ink": 2526,
      "shifts": 2527,
      "les": 2528,
      "ference": 2529,
      "ource": 2530,
      "control": 2531,
      "show": 2532,
      "chain": 2533,
      "mass": 2534,
      "receipt": 2535,
      "cri": 2536,
      "sco": 2537,
      "tok": 2538,
      "https://arxiv.org/abs/2": 2539,
      "paper": 2540,
      "next": 2541,
      "their": 2542,
      "right": 2543,
      "being": 2544,
      "bal": 2545,
      "first": 2546,
      "termin": 2547,
      "vis": 2548,
      "itive": 2549,
      "fil": 2550,
      "network": 2551,
      "sche": 2552,
      "approach": 2553,
      "ular": 2554,
      "them": 2555,
      "recor": 2556,
      "correct": 2557,
      "study": 2558,
      "require": 2559,
      "break": 2560,
      "ives": 2561,
      "ment.": 2562,
      "iction": 2563,
      "stead": 2564,
      "ref": 2565,
      "ero": 2566,
      "while": 2567,
      "I'": 2568,
      "verification": 2569,
      "stre": 2570,
      "tract": 2571,
      "viron": 2572,
      "both": 2573,
      "output": 2574,
      "equ": 2575,
      "ination": 2576,
      ".1": 2577,
      "prim": 2578,
      "allow": 2579,
      "verg": 2580,
      "exactly": 2581,
      "resol": 2582,
      "tech": 2583,
      "suggests": 2584,
      "-based": 2585,
      "using": 2586,
      "rate": 2587,
      "dete": 2588,
      "ner": 2589,
      "environ": 2590,
      "sto": 2591,
      "manage": 2592,
      "promp": 2593,
      "chang": 2594,
      "flu": 2595,
      "parame": 2596,
      "ran": 2597,
      "io": 2598,
      "conf": 2599,
      "mental": 2600,
      "part": 2601,
      "wa": 2602,
      "ship": 2603,
      "sequence": 2604,
      "idence": 2605,
      "ca": 2606,
      "clu": 2607,
      "dynam": 2608,
      "post": 2609,
      "here": 2610,
      "plic": 2611,
      "cing": 2612,
      "arXiv:": 2613,
      "To": 2614,
      "stream": 2615,
      "incre": 2616,
      "60": 2617,
      "ension": 2618,
      "sup": 2619,
      "physical": 2620,
      "memory": 2621,
      "cho": 2622,
      "y,": 2623,
      "30": 2624,
      "publ": 2625,
      "den": 2626,
      "lying": 2627,
      "reach": 2628,
      "map": 2629,
      "ted": 2630,
      "plat": 2631,
      "often": 2632,
      "ling": 2633,
      "predict": 2634,
      "class": 2635,
      "num": 2636,
      "beha": 2637,
      "redu": 2638,
      "better": 2639,
      "complex": 2640,
      "Co": 2641,
      "platform": 2642,
      "verify": 2643,
      "parameter": 2644,
      "prob": 2645,
      "force": 2646,
      "ron": 2647,
      "row": 2648,
      "iven": 2649,
      "er.": 2650,
      "stop": 2651,
      "descri": 2652,
      "Con": 2653,
      "ian": 2654,
      "ven": 2655,
      "car": 2656,
      "lar": 2657,
      "So": 2658,
      "execution": 2659,
      "value": 2660,
      "view": 2661,
      "metric": 2662,
      "task": 2663,
      "funda": 2664,
      "ateg": 2665,
      "antic": 2666,
      "len": 2667,
      "meth": 2668,
      "my": 2669,
      "tru": 2670,
      "mission": 2671,
      "drift": 2672,
      "By": 2673,
      "on't": 2674,
      "inst": 2675,
      "distin": 2676,
      "match": 2677,
      "those": 2678,
      "liqu": 2679,
      "ral": 2680,
      "tom": 2681,
      "proof": 2682,
      "pay": 2683,
      "ough": 2684,
      "med": 2685,
      "proper": 2686,
      "matter": 2687,
      "entially": 2688,
      "LM": 2689,
      "xim": 2690,
      "price": 2691,
      "itor": 2692,
      "reasoning": 2693,
      "mean": 2694,
      "behavi": 2695,
      "energ": 2696,
      "her": 2697,
      "record": 2698,
      "ru": 2699,
      "direct": 2700,
      "standard": 2701,
      "prompt": 2702,
      "liquid": 2703,
      "boundary": 2704,
      "frequ": 2705,
      "oc": 2706,
      "version": 2707,
      "mal": 2708,
      "**:": 2709,
      "polic": 2710,
      "one.": 2711,
      "tar": 2712,
      "inform": 2713,
      "input": 2714,
      "1.": 2715,
      "key": 2716,
      "collap": 2717,
      "call": 2718,
      "deriv": 2719,
      "ped": 2720,
      "cial": 2721,
      "focus": 2722,
      "fol": 2723,
      "50": 2724,
      "wit": 2725,
      "could": 2726,
      "order": 2727,
      "langu": 2728,
      "effic": 2729,
      "never": 2730,
      "lear": 2731,
      "second": 2732,
      "af": 2733,
      "ben": 2734,
      "wr": 2735,
      "build": 2736,
      "text": 2737,
      "rodu": 2738,
      "remains": 2739,
      "training": 2740,
      "ult": 2741,
      "oral": 2742,
      "step": 2743,
      "-0": 2744,
      "Ag": 2745,
      "moving": 2746,
      "AP": 2747,
      "implement": 2748,
      "bin": 2749,
      "wrong": 2750,
      "schema": 2751,
      "ord": 2752,
      "abil": 2753,
      "there": 2754,
      "eck": 2755,
      "to-": 2756,
      "rele": 2757,
      "ready": 2758,
      "sens": 2759,
      "report": 2760,
      "architecture": 2761,
      "try": 2762,
      "contin": 2763,
      "lection": 2764,
      "ively": 2765,
      "tail": 2766,
      "defin": 2767,
      "crit": 2768,
      "ulation": 2769,
      "logical": 2770,
      "come": 2771,
      "gram": 2772,
      "energy": 2773,
      "determin": 2774,
      "ering": 2775,
      "mach": 2776,
      "ttlen": 2777,
      "ttleneck": 2778,
      "enti": 2779,
      "maint": 2780,
      "intern": 2781,
      "vergence": 2782,
      "struction": 2783,
      "LLM": 2784,
      "day": 2785,
      "term": 2786,
      "amp": 2787,
      "bottleneck": 2788,
      "object": 2789,
      "surface": 2790,
      "def": 2791,
      "introdu": 2792,
      "limit": 2793,
      "each": 2794,
      "develo": 2795,
      "hardware": 2796,
      "nel": 2797,
      "prevent": 2798,
      "commit": 2799,
      "ia": 2800,
      "used": 2801,
      "token": 2802,
      "lic": 2803,
      "rest": 2804,
      "logy": 2805,
      "author": 2806,
      "loy": 2807,
      "longer": 2808,
      "world": 2809,
      "flo": 2810,
      "evalu": 2811,
      "anch": 2812,
      "sett": 2813,
      "don't": 2814,
      "tax": 2815,
      "2.": 2816,
      "bit": 2817,
      "ctor": 2818,
      "capt": 2819,
      "already": 2820,
      "aud": 2821,
      "requires": 2822,
      "within": 2823,
      "ysis": 2824,
      "brid": 2825,
      "ef": 2826,
      "assu": 2827,
      "answ": 2828,
      "19": 2829,
      "coupl": 2830,
      "RA": 2831,
      "mit": 2832,
      "result": 2833,
      "even": 2834,
      "pra": 2835,
      "tal": 2836,
      "head": 2837,
      "sed": 2838,
      "stability": 2839,
      "sil": 2840,
      "What": 2841,
      "linear": 2842,
      "shared": 2843,
      "keep": 2844,
      "method": 2845,
      "may": 2846,
      "sm": 2847,
      "source": 2848,
      "independent": 2849,
      "did": 2850,
      "multi-": 2851,
      "means": 2852,
      "consist": 2853,
      "pri": 2854,
      "manif": 2855,
      "hy": 2856,
      "e.": 2857,
      "target": 2858,
      "were": 2859,
      "decision": 2860,
      "building": 2861,
      "consequence": 2862,
      "base": 2863,
      "-to-": 2864,
      "ines": 2865,
      "vit": 2866,
      "frequency": 2867,
      "block": 2868,
      "feed": 2869,
      "file": 2870,
      "underlying": 2871,
      "latency": 2872,
      "continu": 2873,
      "separ": 2874,
      "astic": 2875,
      "land": 2876,
      "uc": 2877,
      "via": 2878,
      "ime": 2879,
      "mod": 2880,
      "essentially": 2881,
      "ity,": 2882,
      "12": 2883,
      "make": 2884,
      "son": 2885,
      "ark": 2886,
      "account": 2887,
      "language": 2888,
      "hash": 2889,
      "maintain": 2890,
      "40": 2891,
      "prove": 2892,
      "ifact": 2893,
      "during": 2894,
      ".\"": 2895,
      "semantic": 2896,
      "necess": 2897,
      "let": 2898,
      "cept": 2899,
      "provides": 2900,
      "ded": 2901,
      "analysis": 2902,
      "er,": 2903,
      "makes": 2904,
      "moves": 2905,
      "techn": 2906,
      "policy": 2907,
      "inclu": 2908,
      "itional": 2909,
      "pract": 2910,
      "precision": 2911,
      "hist": 2912,
      "retri": 2913,
      "raw": 2914,
      "ail": 2915,
      "uch": 2916,
      "track": 2917,
      "gin": 2918,
      "ified": 2919,
      "ute": 2920,
      "partic": 2921,
      "live": 2922,
      "might": 2923,
      "represent": 2924,
      "ment,": 2925,
      "Ho": 2926,
      "air": 2927,
      "idual": 2928,
      "truth": 2929,
      "ft": 2930,
      "cross": 2931,
      "ses": 2932,
      "ves": 2933,
      "cert": 2934,
      "liquidity": 2935,
      "thres": 2936,
      "three": 2937,
      "mption": 2938,
      "deploy": 2939,
      "fixed": 2940,
      "pip": 2941,
      "grow": 2942,
      "capability": 2943,
      "monitor": 2944,
      "3.": 2945,
      "hone": 2946,
      "ache": 2947,
      "mic": 2948,
      "er-": 2949,
      "rat": 2950,
      "been": 2951,
      "mag": 2952,
      "artifact": 2953,
      "til": 2954,
      "zero": 2955,
      "indust": 2956,
      "ver,": 2957,
      "ju": 2958,
      "coord": 2959,
      "fet": 2960,
      "sof": 2961,
      "als": 2962,
      "formal": 2963,
      "static": 2964,
      "fundamental": 2965,
      "threshold": 2966,
      "place": 2967,
      "ax": 2968,
      "increas": 2969,
      "operator": 2970,
      "mand": 2971,
      "proto": 2972,
      "contract": 2973,
      "machine": 2974,
      "bi": 2975,
      "pow": 2976,
      "ash": 2977,
      "say": 2978,
      "suc": 2979,
      "evidence": 2980,
      "arXiv:2": 2981,
      "want": 2982,
      "systems": 2983,
      "Agent": 2984,
      "4-": 2985,
      "volat": 2986,
      "audit": 2987,
      "honest": 2988,
      "cover": 2989,
      "why": 2990,
      "-time": 2991,
      "lit": 2992,
      "type": 2993,
      "light": 2994,
      "chmark": 2995,
      "required": 2996,
      "primary": 2997,
      "char": 2998,
      "mode": 2999,
      "ption": 3000,
      "ly.": 3001,
      "found": 3002,
      "izing": 3003,
      "ese": 3004,
      "trig": 3005,
      "ended": 3006,
      "self-": 3007,
      "al.": 3008,
      "edge": 3009,
      "shap": 3010,
      "critical": 3011,
      "response": 3012,
      "Ch": 3013,
      "workflow": 3014,
      "capture": 3015,
      "signific": 3016,
      "systemic": 3017,
      "creates": 3018,
      "Un": 3019,
      "free": 3020,
      "war": 3021,
      "themat": 3022,
      "trade": 3023,
      "after": 3024,
      "vend": 3025,
      "pric": 3026,
      "dig": 3027,
      "ground": 3028,
      "return": 3029,
      "lobal": 3030,
      "ple": 3031,
      "ix": 3032,
      "ick": 3033,
      "conom": 3034,
      "ensity": 3035,
      "infra": 3036,
      "low-": 3037,
      "number": 3038,
      "address": 3039,
      "happ": 3040,
      "geo": 3041,
      "API": 3042,
      "secur": 3043,
      "tical": 3044,
      "enough": 3045,
      "bro": 3046,
      "cred": 3047,
      "witness": 3048,
      "also": 3049,
      "dynamic": 3050,
      "attest": 3051,
      "metry": 3052,
      "small": 3053,
      "hall": 3054,
      "experi": 3055,
      "variance": 3056,
      "year": 3057,
      "floor": 3058,
      "0.": 3059,
      "Wedding": 3060,
      "true": 3061,
      "trad": 3062,
      "lu": 3063,
      "project": 3064,
      "word": 3065,
      "needs": 3066,
      "samp": 3067,
      "massive": 3068,
      "property": 3069,
      "cache": 3070,
      "ration": 3071,
      "sen": 3072,
      "too": 3073,
      "chastic": 3074,
      "og": 3075,
      "not-": 3076,
      "complete": 3077,
      "chall": 3078,
      "itself.": 3079,
      "significant": 3080,
      "ention": 3081,
      "propos": 3082,
      "mathemat": 3083,
      "effectively": 3084,
      "On": 3085,
      "away": 3086,
      "open": 3087,
      "ake": 3088,
      "sk": 3089,
      "clean": 3090,
      "merely": 3091,
      "behavior": 3092,
      "spe": 3093,
      "ffic": 3094,
      "lack": 3095,
      "ww": 3096,
      "finding": 3097,
      "benchmark": 3098,
      "halluc": 3099,
      "aging": 3100,
      "compute": 3101,
      "protocol": 3102,
      "evol": 3103,
      "usion": 3104,
      "problem.": 3105,
      "forman": 3106,
      "agg": 3107,
      "stochastic": 3108,
      "rel": 3109,
      "forces": 3110,
      "agree": 3111,
      "St": 3112,
      "ality": 3113,
      "compos": 3114,
      "distinction": 3115,
      ".com": 3116,
      "vide": 3117,
      "That's": 3118,
      "volatility": 3119,
      "ang": 3120,
      "ivity": 3121,
      "regime": 3122,
      "formance": 3123,
      "drop": 3124,
      "conne": 3125,
      "well": 3126,
      "estim": 3127,
      "internal": 3128,
      "oid": 3129,
      "ving": 3130,
      "loss": 3131,
      "known": 3132,
      "De": 3133,
      "pen": 3134,
      "inc": 3135,
      "changes": 3136,
      "simple": 3137,
      "something": 3138,
      "fac": 3139,
      "expect": 3140,
      "onent": 3141,
      "looking": 3142,
      "start": 3143,
      "attack": 3144,
      "har": 3145,
      "print": 3146,
      "describ": 3147,
      "econom": 3148,
      "ternal": 3149,
      "attemp": 3150,
      "ily": 3151,
      "dim": 3152,
      "resolution": 3153,
      "bias": 3154,
      "capac": 3155,
      "diff": 3156,
      "driven": 3157,
      "condition": 3158,
      "'ve": 3159,
      "program": 3160,
      "that's": 3161,
      "wever,": 3162,
      "firm": 3163,
      "How": 3164,
      "phase": 3165,
      "write": 3166,
      "fr": 3167,
      "bur": 3168,
      "handle": 3169,
      "thread": 3170,
      "ony": 3171,
      "aver": 3172,
      "atures": 3173,
      "loc": 3174,
      "large": 3175,
      "Pro": 3176,
      "case": 3177,
      "anchor": 3178,
      "4.": 3179,
      "uses": 3180,
      "signed": 3181,
      "security": 3182,
      "inference": 3183,
      "mosp": 3184,
      "performance": 3185,
      "built": 3186,
      "infrastructure": 3187,
      "autom": 3188,
      "deterministic": 3189,
      "assumption": 3190,
      "information": 3191,
      "gment": 3192,
      "running": 3193,
      "prior": 3194,
      "global": 3195,
      "While": 3196,
      "solve": 3197,
      "jo": 3198,
      "asset": 3199,
      "signature": 3200,
      "filter": 3201,
      "cohe": 3202,
      "solution": 3203,
      "aren't": 3204,
      "once": 3205,
      "grid": 3206,
      "tools": 3207,
      "quantization": 3208,
      "party": 3209,
      "Exactly": 3210,
      "surv": 3211,
      "ore": 3212,
      "identity": 3213,
      "publish": 3214,
      "nar": 3215,
      "ly,": 3216,
      "const": 3217,
      "correlation": 3218,
      "En": 3219,
      "approxim": 3220,
      "find": 3221,
      "probe": 3222,
      "able.": 3223,
      "as-": 3224,
      "retrieval": 3225,
      "stain": 3226,
      "ages": 3227,
      "tell": 3228,
      "product": 3229,
      "medi": 3230,
      "success": 3231,
      "25": 3232,
      "care": 3233,
      "optimization": 3234,
      "ie": 3235,
      "strateg": 3236,
      "ibility": 3237,
      "commun": 3238,
      "constraints": 3239,
      "aring": 3240,
      "As": 3241,
      "ond": 3242,
      "intent": 3243,
      "region": 3244,
      "typ": 3245,
      "feedback": 3246,
      "emp": 3247,
      "review": 3248,
      "existing": 3249,
      "precise": 3250,
      "Most": 3251,
      "However,": 3252,
      "onom": 3253,
      "correl": 3254,
      "safet": 3255,
      "answer": 3256,
      "technical": 3257,
      "moment": 3258,
      "researchers": 3259,
      "smo": 3260,
      "shows": 3261,
      "follow": 3262,
      "relation": 3263,
      "atmosp": 3264,
      "tware": 3265,
      "ensive": 3266,
      "ingu": 3267,
      "mapp": 3268,
      "ST": 3269,
      "bug": 3270,
      "18": 3271,
      "downstream": 3272,
      "utility": 3273,
      "box": 3274,
      "statist": 3275,
      "we're": 3276,
      "modeling": 3277,
      "industry": 3278,
      "No": 3279,
      "external": 3280,
      "ious": 3281,
      "instead": 3282,
      "temporal": 3283,
      "person": 3284,
      "grade": 3285,
      "interaction": 3286,
      "$\\": 3287,
      "power": 3288,
      "ned": 3289,
      "):": 3290,
      "dimension": 3291,
      "covery": 3292,
      "active": 3293,
      "rend": 3294,
      "generation": 3295,
      "it,": 3296,
      "friction": 3297,
      "dget": 3298,
      "inject": 3299,
      "production": 3300,
      "rule": 3301,
      "assum": 3302,
      "environment": 3303,
      "ied": 3304,
      "play": 3305,
      "Instead": 3306,
      "runtime": 3307,
      "15": 3308,
      "ations.": 3309,
      "explic": 3310,
      "atory": 3311,
      "ched": 3312,
      "acy": 3313,
      "cross-": 3314,
      "mathematical": 3315,
      "ither": 3316,
      "independence": 3317,
      "sus": 3318,
      "ession": 3319,
      "ways": 3320,
      "pressure": 3321,
      "inguish": 3322,
      "Col": 3323,
      "cast": 3324,
      "align": 3325,
      "itu": 3326,
      "reading": 3327,
      "er's": 3328,
      "channel": 3329,
      "heric": 3330,
      "vendor": 3331,
      "social": 3332,
      "constrain": 3333,
      "Exactly.": 3334,
      "-scale": 3335,
      "gre": 3336,
      "argu": 3337,
      "ies.": 3338,
      "validation": 3339,
      "fer": 3340,
      "vul": 3341,
      "que": 3342,
      "able,": 3343,
      "crete": 3344,
      "software": 3345,
      "persist": 3346,
      "simply": 3347,
      "pipe": 3348,
      ".com/": 3349,
      "cry": 3350,
      "star": 3351,
      "minim": 3352,
      "collapse": 3353,
      "think": 3354,
      "sustain": 3355,
      "ric": 3356,
      "lead": 3357,
      "igin": 3358,
      "decoupl": 3359,
      "closed": 3360,
      "11": 3361,
      "origin": 3362,
      "component": 3363,
      "iency": 3364,
      "isol": 3365,
      "disc": 3366,
      "erature": 3367,
      "access": 3368,
      "uni": 3369,
      "understand": 3370,
      "turb": 3371,
      "designed": 3372,
      "gate": 3373,
      "ming": 3374,
      "docu": 3375,
      "decay": 3376,
      "sis": 3377,
      "latent": 3378,
      "co-": 3379,
      "clust": 3380,
      "planning": 3381,
      "management": 3382,
      "explicit": 3383,
      "round": 3384,
      "budget": 3385,
      "explo": 3386,
      "stack": 3387,
      "made": 3388,
      "worth": 3389,
      "izes": 3390,
      "variant": 3391,
      "full": 3392,
      "goal": 3393,
      "measurement": 3394,
      "public": 3395,
      "density": 3396,
      "decl": 3397,
      "perform": 3398,
      "agent's": 3399,
      "transform": 3400,
      "oud": 3401,
      "provide": 3402,
      "tran": 3403,
      "ik": 3404,
      "inde": 3405,
      "synthe": 3406,
      "fect": 3407,
      "gn": 3408,
      "pul": 3409,
      "instru": 3410,
      "corp": 3411,
      "-level": 3412,
      "racy": 3413,
      "vest": 3414,
      "detection": 3415,
      "17": 3416,
      "nor": 3417,
      "issu": 3418,
      "config": 3419,
      "sat": 3420,
      "stay": 3421,
      "weights": 3422,
      "safety": 3423,
      "treating": 3424,
      "gor": 3425,
      "fails": 3426,
      "statistical": 3427,
      "ved": 3428,
      "priv": 3429,
      "choice": 3430,
      "100": 3431,
      "enge": 3432,
      "transp": 3433,
      "ater": 3434,
      "enance": 3435,
      "root": 3436,
      "demand": 3437,
      "trying": 3438,
      "pipeline": 3439,
      "datas": 3440,
      "likely": 3441,
      "challenge": 3442,
      "ank": 3443,
      "topo": 3444,
      "charact": 3445,
      "link": 3446,
      "content": 3447,
      "body": 3448,
      "general": 3449,
      "2026-0": 3450,
      "16": 3451,
      "With": 3452,
      "ier": 3453,
      "v2": 3454,
      "trigger": 3455,
      "pack": 3456,
      "taint": 3457,
      "settlement": 3458,
      "impact": 3459,
      "asy": 3460,
      "cogn": 3461,
      "engineering": 3462,
      "vulner": 3463,
      "dataset": 3464,
      "core": 3465,
      "tribut": 3466,
      "requirement": 3467,
      "efficient": 3468,
      "learning": 3469,
      "bridge": 3470,
      "mess": 3471,
      "ume": 3472,
      "bea": 3473,
      "period": 3474,
      "wall": 3475,
      "selection": 3476,
      "physics": 3477,
      "authors": 3478,
      "release": 3479,
      "indic": 3480,
      "detect": 3481,
      "joint": 3482,
      "much": 3483,
      "such": 3484,
      "accu": 3485,
      "200": 3486,
      "in-": 3487,
      "constant": 3488,
      "ibr": 3489,
      "ceed": 3490,
      "avail": 3491,
      "score": 3492,
      "gorith": 3493,
      "model's": 3494,
      "It's": 3495,
      "depth": 3496,
      "operational": 3497,
      "certaint": 3498,
      "micro": 3499,
      "feature": 3500,
      "guest": 3501,
      "push": 3502,
      "cul": 3503,
      "radi": 3504,
      "convergence": 3505,
      "analy": 3506,
      "wave": 3507,
      "ek": 3508,
      "raft": 3509,
      "ata": 3510,
      "domain": 3511,
      "traditional": 3512,
      "Mark": 3513,
      "recon": 3514,
      "select": 3515,
      "perfect": 3516,
      "2025": 3517,
      "verified": 3518,
      "another": 3519,
      "structured": 3520,
      "support": 3521,
      "abilities": 3522,
      "digital": 3523,
      "capacity": 3524,
      "accuracy": 3525,
      "agentic": 3526,
      "ratio": 3527,
      "mir": 3528,
      "consum": 3529,
      "lies": 3530,
      "had": 3531,
      "rig": 3532,
      "algorith": 3533,
      "prox": 3534,
      "pot": 3535,
      "book": 3536,
      "-not-": 3537,
      "fal": 3538,
      "fit": 3539,
      "ler": 3540,
      "mig": 3541,
      "counter": 3542,
      "ging": 3543,
      "implic": 3544,
      "probability": 3545,
      "gover": 3546,
      "rates": 3547,
      "appl": 3548,
      "observed": 3549,
      "law": 3550,
      "silent": 3551,
      "wid": 3552,
      "ante": 3553,
      "advers": 3554,
      "cas": 3555,
      "dest": 3556,
      "vector": 3557,
      "verse": 3558,
      "fast": 3559,
      "allows": 3560,
      "false": 3561,
      "name": 3562,
      "interpre": 3563,
      "monstr": 3564,
      "long-": 3565,
      "develop": 3566,
      "jud": 3567,
      "character": 3568,
      "une": 3569,
      "band": 3570,
      "spat": 3571,
      "RS": 3572,
      "bar": 3573,
      "math": 3574,
      "ledge": 3575,
      "beacon": 3576,
      "aw": 3577,
      "theore": 3578,
      "compet": 3579,
      "traject": 3580,
      "guar": 3581,
      "relationship": 3582,
      "ately": 3583,
      "controll": 3584,
      ":00": 3585,
      "adap": 3586,
      "ression": 3587,
      "capital": 3588,
      "growth": 3589,
      "ury": 3590,
      "margin": 3591,
      "distinguish": 3592,
      "consistent": 3593,
      "Your": 3594,
      "lish": 3595,
      "special": 3596,
      "entire": 3597,
      "catch": 3598,
      "ensure": 3599,
      "demonstr": 3600,
      "regul": 3601,
      "invariant": 3602,
      "nothing": 3603,
      "delta": 3604,
      "necessary": 3605,
      "composition": 3606,
      "pho": 3607,
      "making": 3608,
      "total": 3609,
      "rid": 3610,
      "entrop": 3611,
      "whole": 3612,
      "meaning": 3613,
      "baseline": 3614,
      "illion": 3615,
      "evolution": 3616,
      "scaling": 3617,
      "fficient": 3618,
      "mirror": 3619,
      "guarante": 3620,
      "GP": 3621,
      "fall": 3622,
      "ilar": 3623,
      "AR": 3624,
      "pp": 3625,
      "init": 3626,
      "simul": 3627,
      "-as-": 3628,
      "ID": 3629,
      "24": 3630,
      "top": 3631,
      "results": 3632,
      "document": 3633,
      "Watch": 3634,
      "vs": 3635,
      "prop": 3636,
      "ence.": 3637,
      "draw": 3638,
      "invest": 3639,
      "deleg": 3640,
      "llig": 3641,
      "manifest": 3642,
      "shape": 3643,
      "spatial": 3644,
      "trend": 3645,
      "calibr": 3646,
      "intellig": 3647,
      "hit": 3648,
      "heav": 3649,
      "tial": 3650,
      "5.": 3651,
      "90": 3652,
      "king": 3653,
      "vant": 3654,
      "veloc": 3655,
      "integration": 3656,
      "hallucin": 3657,
      "hop": 3658,
      "reality": 3659,
      "RAM": 3660,
      "-by": 3661,
      "aut": 3662,
      "wal": 3663,
      "exact": 3664,
      "https://arxiv.org/abs/260": 3665,
      "efficiency": 3666,
      "dict": 3667,
      "ers.": 3668,
      "become": 3669,
      "service": 3670,
      "IS": 3671,
      "per-": 3672,
      "atmospheric": 3673,
      "pose": 3674,
      "Sp": 3675,
      "fut": 3676,
      "data.": 3677,
      "Do": 3678,
      "i-": 3679,
      "list": 3680,
      "ues": 3681,
      "accept": 3682,
      "bypass": 3683,
      "divergence": 3684,
      "including": 3685,
      ",\"": 3686,
      "13": 3687,
      "fron": 3688,
      "tograph": 3689,
      "indu": 3690,
      "expensive": 3691,
      "manifold": 3692,
      "categ": 3693,
      "vo": 3694,
      "ices": 3695,
      "web": 3696,
      "cycle": 3697,
      "14": 3698,
      "Sy": 3699,
      "ate.": 3700,
      "sym": 3701,
      "gets": 3702,
      "similar": 3703,
      "ES": 3704,
      "dri": 3705,
      "neg": 3706,
      "convers": 3707,
      "system.": 3708,
      "uine": 3709,
      "concent": 3710,
      "produce": 3711,
      "cir": 3712,
      "real-time": 3713,
      "ply": 3714,
      "rob": 3715,
      "ifies": 3716,
      "avoid": 3717,
      "gas": 3718,
      "works": 3719,
      "implementation": 3720,
      "rup": 3721,
      "she": 3722,
      "option": 3723,
      "computational": 3724,
      "hol": 3725,
      "ale": 3726,
      "exam": 3727,
      "complexity": 3728,
      "rand": 3729,
      "rap": 3730,
      "resh": 3731,
      "endpoint": 3732,
      "ability.": 3733,
      "visible": 3734,
      "carry": 3735,
      "At": 3736,
      "rec": 3737,
      "index": 3738,
      "indiv": 3739,
      "volume": 3740,
      "I'm": 3741,
      "evaluation": 3742,
      "expected": 3743,
      "around": 3744,
      "ifically": 3745,
      "genuine": 3746,
      "forecast": 3747,
      "labe": 3748,
      "alth": 3749,
      "connect": 3750,
      "6.": 3751,
      "a-": 3752,
      "either": 3753,
      "sched": 3754,
      "atic": 3755,
      "met": 3756,
      "model.": 3757,
      "plac": 3758,
      "position": 3759,
      "continuous": 3760,
      "mut": 3761,
      "mask": 3762,
      "sufficient": 3763,
      "server": 3764,
      "depends": 3765,
      "US": 3766,
      "cust": 3767,
      "iness": 3768,
      "instruction": 3769,
      "igno": 3770,
      "ival": 3771,
      "ies,": 3772,
      "execut": 3773,
      "treats": 3774,
      "histor": 3775,
      "mapping": 3776,
      "Tr": 3777,
      "tun": 3778,
      "reve": 3779,
      "ations,": 3780,
      "ceil": 3781,
      "fault": 3782,
      "preser": 3783,
      "temperature": 3784,
      "attention": 3785,
      "range": 3786,
      "separate": 3787,
      "One": 3788,
      "ever": 3789,
      "hal": 3790,
      "board": 3791,
      "datab": 3792,
      "coordin": 3793,
      "These": 3794,
      "profile": 3795,
      "missing": 3796,
      "history": 3797,
      "individual": 3798,
      "-of": 3799,
      "oph": 3800,
      "?\"": 3801,
      "New": 3802,
      "ON": 3803,
      "deep": 3804,
      "uncertaint": 3805,
      "short": 3806,
      "past": 3807,
      "patch": 3808,
      "stic": 3809,
      "abor": 3810,
      "poss": 3811,
      "tension": 3812,
      "pure": 3813,
      "stable": 3814,
      "orb": 3815,
      "interest": 3816,
      "introduces": 3817,
      "developer": 3818,
      "speed": 3819,
      "31": 3820,
      "features": 3821,
      "pre-": 3822,
      "pair": 3823,
      "useful": 3824,
      "measured": 3825,
      "narrow": 3826,
      "cryp": 3827,
      "-of-": 3828,
      "date": 3829,
      "mes": 3830,
      "yond": 3831,
      "gradi": 3832,
      "provenance": 3833,
      "direction": 3834,
      "relies": 3835,
      "gradient": 3836,
      "session": 3837,
      "atural": 3838,
      "quer": 3839,
      "near": 3840,
      "bot": 3841,
      "validate": 3842,
      "distinct": 3843,
      "pricing": 3844,
      "autonom": 3845,
      ".**": 3846,
      "invit": 3847,
      "take": 3848,
      "contain": 3849,
      "interface": 3850,
      "algorithm": 3851,
      "eous": 3852,
      "igate": 3853,
      "susp": 3854,
      "uration": 3855,
      "state.": 3856,
      "safe": 3857,
      "non-linear": 3858,
      "assumes": 3859,
      "consen": 3860,
      "model,": 3861,
      "consistency": 3862,
      "Se": 3863,
      "gain": 3864,
      "sid": 3865,
      "chron": 3866,
      "rable": 3867,
      "request": 3868,
      "group": 3869,
      "And": 3870,
      "broad": 3871,
      "leak": 3872,
      "size": 3873,
      "ones": 3874,
      "ER": 3875,
      "nu": 3876,
      "xury": 3877,
      "close": 3878,
      "coupling": 3879,
      "(2026-0": 3880,
      "abstra": 3881,
      "you've": 3882,
      "smoo": 3883,
      "future": 3884,
      "AT": 3885,
      "Au": 3886,
      "shar": 3887,
      "cycl": 3888,
      "surve": 3889,
      "verifiable": 3890,
      "patterns": 3891,
      "coherence": 3892,
      "ire": 3893,
      "common": 3894,
      "regist": 3895,
      "Without": 3896,
      "higher": 3897,
      "verifier": 3898,
      "directly": 3899,
      "AS": 3900,
      "Po": 3901,
      "stor": 3902,
      "coordination": 3903,
      "migration": 3904,
      "proves": 3905,
      "needed": 3906,
      "AI-": 3907,
      "integrity": 3908,
      "I'd": 3909,
      "residual": 3910,
      "Market": 3911,
      "VP": 3912,
      "cit": 3913,
      "natural": 3914,
      "applic": 3915,
      "reduction": 3916,
      "late": 3917,
      "attestation": 3918,
      "bol": 3919,
      "hid": 3920,
      "forcing": 3921,
      "chestr": 3922,
      "###": 3923,
      "You're": 3924,
      "fully": 3925,
      "Comp": 3926,
      "carri": 3927,
      "proxy": 3928,
      "initial": 3929,
      "ker": 3930,
      "s\"": 3931,
      "reward": 3932,
      "le.": 3933,
      "week": 3934,
      "imate": 3935,
      "good": 3936,
      "particip": 3937,
      "adapt": 3938,
      "VRAM": 3939,
      "cat": 3940,
      "confirm": 3941,
      "dependent": 3942,
      "instrument": 3943,
      "(2026-08": 3944,
      "ET": 3945,
      "w.": 3946,
      "le,": 3947,
      "portun": 3948,
      "defined": 3949,
      "injection": 3950,
      "database": 3951,
      "forced": 3952,
      "compil": 3953,
      "sub-": 3954,
      "platforms": 3955,
      "says": 3956,
      "green": 3957,
      "robust": 3958,
      "Ar": 3959,
      "share": 3960,
      "measuring": 3961,
      "central": 3962,
      "planet": 3963,
      "vulnerability": 3964,
      "entropy": 3965,
      "Tra": 3966,
      "mor": 3967,
      "mid": 3968,
      "era": 3969,
      "ings": 3970,
      "transfer": 3971,
      "breaks": 3972,
      "user": 3973,
      "tier": 3974,
      "calcul": 3975,
      "factor": 3976,
      "random": 3977,
      "organ": 3978,
      "average": 3979,
      "usu": 3980,
      "quality": 3981,
      "cheap": 3982,
      "disjoint": 3983,
      "correction": 3984,
      "ike": 3985,
      "lex": 3986,
      "super": 3987,
      "appe": 3988,
      "cloud": 3989,
      "scri": 3990,
      "balance": 3991,
      "entirely": 3992,
      "define": 3993,
      "happen": 3994,
      "Sh": 3995,
      "four": 3996,
      "distance": 3997,
      "dependency": 3998,
      "difference": 3999,
      "itude": 4000,
      "specialized": 4001,
      "herent": 4002,
      "vious": 4003,
      "agreement": 4004,
      "communic": 4005,
      "kit": 4006,
      "ners": 4007,
      "acc": 4008,
      "knowledge": 4009,
      "-you": 4010,
      "5-": 4011,
      "ium": 4012,
      "lif": 4013,
      "site": 4014,
      "inherent": 4015,
      "ties": 4016,
      "RL": 4017,
      "rot": 4018,
      "moved": 4019,
      "occur": 4020,
      "www.": 4021,
      "economic": 4022,
      "sw": 4023,
      "exceed": 4024,
      "grad": 4025,
      "KV": 4026,
      "aus": 4027,
      "ogen": 4028,
      "sent": 4029,
      "mentally": 4030,
      "one-": 4031,
      "noise.": 4032,
      "observation": 4033,
      "relative": 4034,
      "ird": 4035,
      "domin": 4036,
      "ken": 4037,
      "s)": 4038,
      "ins": 4039,
      "states": 4040,
      "orchestr": 4041,
      "weak": 4042,
      "ull": 4043,
      "https://www.": 4044,
      "tokens": 4045,
      "always": 4046,
      "sets": 4047,
      "managing": 4048,
      "amb": 4049,
      "allor": 4050,
      "differen": 4051,
      "thermal": 4052,
      "specifically": 4053,
      "derived": 4054,
      "Mallor": 4055,
      "OS": 4056,
      "iet": 4057,
      "transient": 4058,
      "bus": 4059,
      "mist": 4060,
      "ers,": 4061,
      "diag": 4062,
      "identify": 4063,
      "looks": 4064,
      "force-": 4065,
      "theoretical": 4066,
      "Al": 4067,
      "ina": 4068,
      "signal.": 4069,
      "clear": 4070,
      "Code": 4071,
      "velocity": 4072,
      "ub": 4073,
      "arding": 4074,
      "until": 4075,
      "strict": 4076,
      "skill": 4077,
      "constrained": 4078,
      "ave": 4079,
      "ech": 4080,
      "beyond": 4081,
      "we-": 4082,
      "resource": 4083,
      "ansion": 4084,
      "testing": 4085,
      "emerg": 4086,
      "mediate": 4087,
      "rief": 4088,
      "distributed": 4089,
      "clock": 4090,
      "interpret": 4091,
      "seen": 4092,
      "maxim": 4093,
      "dimensional": 4094,
      "Colony": 4095,
      "applied": 4096,
      "craft": 4097,
      "ns": 4098,
      "van": 4099,
      "etic": 4100,
      "outside": 4101,
      "overhead": 4102,
      "sensit": 4103,
      "mer": 4104,
      "q:": 4105,
      "substr": 4106,
      "respond": 4107,
      "fundamentally": 4108,
      "tracking": 4109,
      "deployment": 4110,
      "Le": 4111,
      "Lo": 4112,
      "stamp": 4113,
      "acce": 4114,
      "Mallorca": 4115,
      "ison": 4116,
      "many": 4117,
      "cess.": 4118,
      "istics": 4119,
      "variable": 4120,
      "resolve": 4121,
      "lands": 4122,
      "automated": 4123,
      "\":": 4124,
      "reference": 4125,
      "aries": 4126,
      "entry": 4127,
      "flight": 4128,
      "expansion": 4129,
      "increase": 4130,
      "transport": 4131,
      "suspended": 4132,
      "sound": 4133,
      "yet": 4134,
      "req:": 4135,
      "pha": 4136,
      "emb": 4137,
      "simulation": 4138,
      "turns": 4139,
      "trajectory": 4140,
      "force-suspended": 4141,
      "Go": 4142,
      "inside": 4143,
      "ation-": 4144,
      "data,": 4145,
      "maps": 4146,
      "coverage": 4147,
      "kitun": 4148,
      "fine": 4149,
      "layer.": 4150,
      "careless": 4151,
      "potential": 4152,
      "elect": 4153,
      "atter": 4154,
      "intelligence": 4155,
      "'d": 4156,
      "Bo": 4157,
      "bank": 4158,
      "rul": 4159,
      "imin": 4160,
      "prediction": 4161,
      "host": 4162,
      "post-": 4163,
      "practical": 4164,
      "original": 4165,
      "hel": 4166,
      "spread": 4167,
      "trace": 4168,
      "someone": 4169,
      "payload": 4170,
      "happens": 4171,
      "aff": 4172,
      "ey": 4173,
      "last": 4174,
      "iter": 4175,
      "arbit": 4176,
      "expl": 4177,
      "times": 4178,
      "confidence": 4179,
      "kind": 4180,
      "anger": 4181,
      "held": 4182,
      "asser": 4183,
      "reader": 4184,
      "subst": 4185,
      "multiple": 4186,
      "schedul": 4187,
      "-2": 4188,
      "80": 4189,
      "lag": 4190,
      "viol": 4191,
      "ierarch": 4192,
      "CP": 4193,
      "rout": 4194,
      "runs": 4195,
      "black": 4196,
      "magn": 4197,
      "increasing": 4198,
      "historical": 4199,
      "*.": 4200,
      "fresh": 4201,
      "onto": 4202,
      "ess.": 4203,
      "ilib": 4204,
      "mechanical": 4205,
      "blind": 4206,
      "architectural": 4207,
      "ilibri": 4208,
      "(the": 4209,
      "Be": 4210,
      "ze": 4211,
      "enc": 4212,
      "ense": 4213,
      "costs": 4214,
      "exists": 4215,
      "I've": 4216,
      "negative": 4217,
      "Gu": 4218,
      "cut": 4219,
      "pur": 4220,
      "ica": 4221,
      "heur": 4222,
      "lip": 4223,
      "trap": 4224,
      "signals": 4225,
      "credit": 4226,
      "Op": 4227,
      "bad": 4228,
      "gal": 4229,
      "wo": 4230,
      "detail": 4231,
      "modes": 4232,
      "models.": 4233,
      "state,": 4234,
      "solar": 4235,
      "optimal": 4236,
      "incident": 4237,
      "label": 4238,
      "EE": 4239,
      "game": 4240,
      "wise": 4241,
      "recur": 4242,
      "enforce": 4243,
      "ed-": 4244,
      "no-": 4245,
      "resulting": 4246,
      "vention": 4247,
      "kernel": 4248,
      "ilibrium": 4249,
      "-driven": 4250,
      "ML": 4251,
      "Rese": 4252,
      "gg": 4253,
      "ctu": 4254,
      "ably": 4255,
      "strong": 4256,
      "miss": 4257,
      "requirements": 4258,
      "Research": 4259,
      "CV": 4260,
      "rain": 4261,
      "moder": 4262,
      "conver": 4263,
      "construction": 4264,
      "percent": 4265,
      "manual": 4266,
      "000": 4267,
      "binary": 4268,
      "objective": 4269,
      "aggreg": 4270,
      "propag": 4271,
      "usually": 4272,
      "arr": 4273,
      "ived": 4274,
      "credential": 4275,
      "-specific": 4276,
      "limits": 4277,
      "spectral": 4278,
      "stops": 4279,
      "venue": 4280,
      "didn't": 4281,
      "precisely": 4282,
      "RSVP": 4283,
      "custom": 4284,
      "slow": 4285,
      "theory": 4286,
      "ablish": 4287,
      "framing": 4288,
      "checks": 4289,
      "describing": 4290,
      "heavy": 4291,
      "29": 4292,
      "Is": 4293,
      "prem": 4294,
      "month": 4295,
      "colum": 4296,
      "decoupling": 4297,
      "consensus": 4298,
      "-be": 4299,
      "exper": 4300,
      "sho": 4301,
      "clusion": 4302,
      "implies": 4303,
      "ators": 4304,
      "driver": 4305,
      "/0": 4306,
      "ience": 4307,
      "discus": 4308,
      "synchron": 4309,
      "burden": 4310,
      "corpor": 4311,
      "1,": 4312,
      "sit": 4313,
      "fort": 4314,
      "conve": 4315,
      "trading": 4316,
      "Inte": 4317,
      "normal": 4318,
      "satis": 4319,
      "ipl": 4320,
      "pick": 4321,
      "on.": 4322,
      "resid": 4323,
      "compar": 4324,
      "errors": 4325,
      "returns": 4326,
      ":00Z": 4327,
      "-off": 4328,
      "ening": 4329,
      "establish": 4330,
      "equilibrium": 4331,
      "predictive": 4332,
      "correlated": 4333,
      "turbul": 4334,
      "stays": 4335,
      "ges": 4336,
      "hour": 4337,
      "hierarch": 4338,
      "watch": 4339,
      "ences": 4340,
      "leav": 4341,
      "absence": 4342,
      "-fixed": 4343,
      "RE": 4344,
      "Ver": 4345,
      "win": 4346,
      "ances": 4347,
      "sty": 4348,
      "examp": 4349,
      "improve": 4350,
      "discrete": 4351,
      "techno": 4352,
      "fals": 4353,
      "recent": 4354,
      "erial": 4355,
      "alpha": 4356,
      "shot": 4357,
      "fidel": 4358,
      "subject": 4359,
      "flux": 4360,
      "fluctu": 4361,
      "topology": 4362,
      "emission": 4363,
      "mus": 4364,
      "nav": 4365,
      "pin": 4366,
      "dynamics": 4367,
      "jump": 4368,
      "govern": 4369,
      "Plan": 4370,
      "brief": 4371,
      "yi": 4372,
      "ouple": 4373,
      "tele": 4374,
      "deli": 4375,
      "age.": 4376,
      "scales": 4377,
      "collection": 4378,
      "anyone": 4379,
      "relevant": 4380,
      "cryptograph": 4381,
      "artic": 4382,
      "aren": 4383,
      "traction": 4384,
      "high-frequency": 4385,
      "addresses": 4386,
      "attempt": 4387,
      "uncertainty": 4388,
      "appear": 4389,
      "95": 4390,
      "Two": 4391,
      "bor": 4392,
      "ske": 4393,
      "third": 4394,
      "lient": 4395,
      "portfol": 4396,
      "re-deriv": 4397,
      "ledger": 4398,
      "(2026-08-0": 4399,
      "-fixed(": 4400,
      "CO": 4401,
      "IN": 4402,
      "nature": 4403,
      "alle": 4404,
      "serve": 4405,
      "arXiv:260": 4406,
      "category": 4407,
      "lines": 4408,
      "tight": 4409,
      "seat": 4410,
      "meter": 4411,
      "points": 4412,
      "width": 4413,
      "Sa": 4414,
      "fam": 4415,
      "structures": 4416,
      "sn": 4417,
      "stell": 4418,
      "auto": 4419,
      "translation": 4420,
      "claims": 4421,
      "abilistic": 4422,
      "sensor": 4423,
      "tribution": 4424,
      "\",": 4425,
      "*,": 4426,
      "He": 4427,
      "Me": 4428,
      "recovery": 4429,
      "the-": 4430,
      "seeing": 4431,
      "parameters": 4432,
      "monitoring": 4433,
      "70": 4434,
      "job": 4435,
      "mary": 4436,
      "reject": 4437,
      "ancy": 4438,
      "one,": 4439,
      "finan": 4440,
      "couples": 4441,
      "certain": 4442,
      "Cl": 4443,
      "fro": 4444,
      "deb": 4445,
      "wered": 4446,
      "split": 4447,
      "timestamp": 4448,
      "currently": 4449,
      "behavioral": 4450,
      "commitment": 4451,
      "35": 4452,
      "May": 4453,
      "cell": 4454,
      "concept": 4455,
      "usal": 4456,
      "extre": 4457,
      "ance.": 4458,
      "create": 4459,
      "versal": 4460,
      "provided": 4461,
      "Model": 4462,
      "mitted": 4463,
      "ath": 4464,
      "tes": 4465,
      "ing:": 4466,
      "ables": 4467,
      "ive,": 4468,
      "ask:": 4469,
      "probabilistic": 4470,
      "exploit": 4471,
      "-4": 4472,
      "ks": 4473,
      "devi": 4474,
      "adjust": 4475,
      "previous": 4476,
      "77": 4477,
      "Q4": 4478,
      "non": 4479,
      "replace": 4480,
      "expo": 4481,
      "urther": 4482,
      "valu": 4483,
      "discovery": 4484,
      "generated": 4485,
      "architectures": 4486,
      "assume": 4487,
      "axis": 4488,
      "Every": 4489,
      "kill": 4490,
      "ception": 4491,
      "node": 4492,
      "localized": 4493,
      "broken": 4494,
      "published": 4495,
      "destination": 4496,
      "symbol": 4497,
      "five": 4498,
      "not.": 4499,
      "spike": 4500,
      "time.": 4501,
      "becoming": 4502,
      "loop.": 4503,
      "numer": 4504,
      "binding": 4505,
      "-only": 4506,
      "99": 4507,
      "E-": 4508,
      "ather": 4509,
      "touch": 4510,
      "default": 4511,
      "meet": 4512,
      "flag": 4513,
      "help": 4514,
      "allel": 4515,
      "cr": 4516,
      "coding": 4517,
      "ray": 4518,
      "contest": 4519,
      "feren": 4520,
      "systematic": 4521,
      "2024": 4522,
      "closure": 4523,
      "practice": 4524,
      "synthetic": 4525,
      "adversary": 4526,
      ":0": 4527,
      "June": 4528,
      "ctive": 4529,
      "pop": 4530,
      "cape": 4531,
      "capabilities": 4532,
      "generate": 4533,
      "2026,": 4534,
      "netic": 4535,
      "available": 4536,
      "conversation": 4537,
      "sensitivity": 4538,
      "..": 4539,
      "updat": 4540,
      "whose": 4541,
      "definition": 4542,
      "consumer": 4543,
      "bon": 4544,
      "client": 4545,
      "ms": 4546,
      "sand": 4547,
      "ret": 4548,
      "dead": 4549,
      "spend": 4550,
      "**00": 4551,
      "failures": 4552,
      "shifting": 4553,
      "integrated": 4554,
      "lingu": 4555,
      "lukitun": 4556,
      "connection": 4557,
      "labor": 4558,
      "alone.": 4559,
      "few": 4560,
      "umb": 4561,
      "achi": 4562,
      "error.": 4563,
      "predictable": 4564,
      "luxury": 4565,
      "na": 4566,
      "ending": 4567,
      "roll": 4568,
      "suite": 4569,
      "mention": 4570,
      "import": 4571,
      "reads": 4572,
      "half": 4573,
      "AN": 4574,
      "Air": 4575,
      "Sol": 4576,
      "itution": 4577,
      "confl": 4578,
      "iving": 4579,
      "ants": 4580,
      "update": 4581,
      "regard": 4582,
      "final": 4583,
      "finite": 4584,
      "2026)": 4585,
      "written": 4586,
      "logic.": 4587,
      "supply": 4588,
      "larger": 4589,
      "regulatory": 4590,
      "substrate": 4591,
      "Fin": 4592,
      "compress": 4593,
      "compro": 4594,
      "secondary": 4595,
      "hallucination": 4596,
      "Eng": 4597,
      "implication": 4598,
      "calibration": 4599,
      "modern": 4600,
      "stale": 4601,
      "mot": 4602,
      "adata": 4603,
      "lower": 4604,
      "ength": 4605,
      "engineer": 4606,
      "coherent": 4607,
      "cognitive": 4608,
      "26": 4609,
      "JS": 4610,
      "—the": 4611,
      "prote": 4612,
      "limited": 4613,
      "aircraft": 4614,
      "K_": 4615,
      "null": 4616,
      "neural": 4617,
      "princ": 4618,
      "material": 4619,
      "metadata": 4620,
      "hidden": 4621,
      "ade": 4622,
      "vac": 4623,
      "inspect": 4624,
      "orm": 4625,
      "and-": 4626,
      "motion": 4627,
      "parallel": 4628,
      "else": 4629,
      "private": 4630,
      "carries": 4631,
      "Ad": 4632,
      "Bec": 4633,
      "bid": 4634,
      "though": 4635,
      "room": 4636,
      "seed": 4637,
      "unit": 4638,
      "uli": 4639,
      "ount": 4640,
      "assist": 4641,
      "identified": 4642,
      "space.": 4643,
      "wait": 4644,
      "satisf": 4645,
      "Because": 4646,
      ":**": 4647,
      "ered": 4648,
      "ost": 4649,
      "py": 4650,
      "invol": 4651,
      "reput": 4652,
      "coefficient": 4653,
      "combin": 4654,
      "buff": 4655,
      "regarding": 4656,
      "posit": 4657,
      "scen": 4658,
      "optimizing": 4659,
      "holds": 4660,
      "quantized": 4661,
      "guarantee": 4662,
      "expert": 4663,
      "Q4_": 4664,
      "7.": 4665,
      "Lu": 4666,
      "hor": 4667,
      "hind": 4668,
      "influ": 4669,
      "fork": 4670,
      "quiet": 4671,
      "feel": 4672,
      "treated": 4673,
      "themsel": 4674,
      "column": 4675,
      "achiev": 4676,
      "K_M": 4677,
      "Q4_K_M": 4678,
      "zen": 4679,
      "aneous": 4680,
      "forward": 4681,
      "you-": 4682,
      "acts": 4683,
      "ually": 4684,
      "guard": 4685,
      "generator": 4686,
      "produces": 4687,
      "optimize": 4688,
      "single-": 4689,
      "iveness": 4690,
      "collapses": 4691,
      "committed": 4692,
      "regardless": 4693,
      "-dependent": 4694,
      "23": 4695,
      "}$": 4696,
      "arial": 4697,
      "least": 4698,
      "spot": 4699,
      "actic": 4700,
      "rix": 4701,
      "ifier": 4702,
      "submitted": 4703,
      "events": 4704,
      "fluid": 4705,
      "trade-off": 4706,
      "projection": 4707,
      "worded.": 4708,
      "portfolio": 4709,
      "stellar": 4710,
      "Ben": 4711,
      "a,": 4712,
      "cad": 4713,
      "dle": 4714,
      "ping": 4715,
      "voc": 4716,
      "asing": 4717,
      "compression": 4718,
      "absorb": 4719,
      "-as-worded.": 4720,
      "survey": 4721,
      ":00Z).": 4722,
      "far": 4723,
      "sip": 4724,
      "along": 4725,
      "ild": 4726,
      "cean": 4727,
      "nobody": 4728,
      "expres": 4729,
      "decid": 4730,
      "introduce": 4731,
      "geometry": 4732,
      "strategy": 4733,
      "induced": 4734,
      "magnitude": 4735,
      "hib": 4736,
      "soph": 4737,
      "urable": 4738,
      "ensem": 4739,
      "today": 4740,
      "unding": 4741,
      "assess": 4742,
      "mismatch": 4743,
      "operating": 4744,
      "attempts": 4745,
      "storage": 4746,
      "vacu": 4747,
      "sophistic": 4748,
      "dark": 4749,
      "fill": 4750,
      "reat": 4751,
      "ingual": 4752,
      "neut": 4753,
      "transaction": 4754,
      "flat": 4755,
      "syntax": 4756,
      "matters": 4757,
      "48": 4758,
      "TC": 4759,
      "incent": 4760,
      "left": 4761,
      "behind": 4762,
      "libr": 4763,
      "scores": 4764,
      "methods": 4765,
      "asym": 4766,
      "abstraction": 4767,
      "\"how": 4768,
      "iner": 4769,
      "solved": 4770,
      "reliable": 4771,
      "penal": 4772,
      "empir": 4773,
      "declared": 4774,
      "long-term": 4775,
      "autonomous": 4776,
      "ED": 4777,
      "ince": 4778,
      "ori": 4779,
      "ases": 4780,
      "lost": 4781,
      "below": 4782,
      "ification.": 4783,
      "manag": 4784,
      "4-bit": 4785,
      "linguistic": 4786,
      "(S": 4787,
      "Did": 4788,
      "Prec": 4789,
      "ufact": 4790,
      "wide": 4791,
      "or-": 4792,
      "process.": 4793,
      "activ": 4794,
      "liability": 4795,
      "this,": 4796,
      "oton": 4797,
      "peak": 4798,
      "3090": 4799,
      "Does": 4800,
      "heuristic": 4801,
      "fidelity": 4802,
      "Not": 4803,
      "ove": 4804,
      "doing": 4805,
      "ance,": 4806,
      "highlight": 4807,
      "problem,": 4808,
      "handles": 4809,
      "load-be": 4810,
      "trained": 4811,
      "visual": 4812,
      "waste": 4813,
      "authority": 4814,
      "years": 4815,
      "ogle": 4816,
      "development": 4817,
      "rapid": 4818,
      "ceiling": 4819,
      "extreme": 4820,
      "98": 4821,
      "Wor": 4822,
      "compared": 4823,
      "path.": 4824,
      "diagno": 4825,
      "75": 4826,
      "best": 4827,
      "delay": 4828,
      "divers": 4829,
      "highly": 4830,
      "both.": 4831,
      "Until": 4832,
      "rigid": 4833,
      "barri": 4834,
      "ged": 4835,
      "gam": 4836,
      "hed": 4837,
      "lin": 4838,
      "odo": 4839,
      "tle": 4840,
      "matrix": 4841,
      "flaw": 4842,
      "they're": 4843,
      "relying": 4844,
      "them.": 4845,
      "approximately": 4846,
      "residue": 4847,
      "Dig": 4848,
      "FT": 4849,
      "Fe": 4850,
      "From": 4851,
      "sive": 4852,
      "replac": 4853,
      "chat": 4854,
      "ders": 4855,
      "interval": 4856,
      "dissip": 4857,
      "foot": 4858,
      "window.": 4859,
      "refine": 4860,
      "suppres": 4861,
      "reduce": 4862,
      "there's": 4863,
      "well-": 4864,
      "AL": 4865,
      "[research": 4866,
      "lie": 4867,
      "umul": 4868,
      "fund": 4869,
      "metrics": 4870,
      "processing": 4871,
      "first-": 4872,
      "sampling": 4873,
      "proposal": 4874,
      "Instead,": 4875,
      "eco": 4876,
      "ired": 4877,
      "retry": 4878,
      "envelo": 4879,
      "itter": 4880,
      "climate": 4881,
      "manufact": 4882,
      "system,": 4883,
      "fragment": 4884,
      "timing": 4885,
      "standing": 4886,
      "planners": 4887,
      "scope": 4888,
      "message": 4889,
      "front": 4890,
      "exposure": 4891,
      "-world": 4892,
      "billion": 4893,
      "cular": 4894,
      "concrete": 4895,
      "checkpoint": 4896,
      "identifies": 4897,
      "payment": 4898,
      "witch": 4899,
      "minimum": 4900,
      "explain": 4901,
      "musica": 4902,
      "cure": 4903,
      "’s": 4904,
      "travel": 4905,
      "matic": 4906,
      "frameworks": 4907,
      "files": 4908,
      "primitive": 4909,
      "location": 4910,
      "issue": 4911,
      "GPU": 4912,
      "exceeds": 4913,
      "premium": 4914,
      "28": 4915,
      "My": 4916,
      "mac": 4917,
      "prog": 4918,
      "status": 4919,
      "correctness": 4920,
      "inputs": 4921,
      "diffic": 4922,
      "package": 4923,
      "numerical": 4924,
      "Ju": 4925,
      "hou": 4926,
      "sl": 4927,
      "icious": 4928,
      "los": 4929,
      "tied": 4930,
      "series": 4931,
      "positive": 4932,
      "failure.": 4933,
      "sensitive": 4934,
      "particular": 4935,
      "large-scale": 4936,
      "understanding": 4937,
      "faster": 4938,
      "Trans": 4939,
      "PC": 4940,
      "scan": 4941,
      "proced": 4942,
      "preference": 4943,
      "failed": 4944,
      "collect": 4945,
      "RAG": 4946,
      "alignment": 4947,
      "discipl": 4948,
      "vacuum": 4949,
      "Digital": 4950,
      "SS": 4951,
      "hits": 4952,
      "s/": 4953,
      "ton": 4954,
      "tual": 4955,
      "thing.": 4956,
      "stress": 4957,
      "nodes": 4958,
      "time-": 4959,
      "ization.": 4960,
      "properties": 4961,
      "representation": 4962,
      "mistake": 4963,
      "EN": 4964,
      "NO": 4965,
      "Net": 4966,
      "attract": 4967,
      "station": 4968,
      "nov": 4969,
      "unch": 4970,
      "boot": 4971,
      "Which": 4972,
      "akes": 4973,
      "astro": 4974,
      "providing": 4975,
      "description": 4976,
      "financial": 4977,
      "scenari": 4978,
      "CM": 4979,
      "GB": 4980,
      "Tech": 4981,
      "lives": 4982,
      "rative": 4983,
      "ann": 4984,
      "ilot": 4985,
      "verdict": 4986,
      "exchange": 4987,
      "perturb": 4988,
      "curve": 4989,
      "measurable": 4990,
      "bounded": 4991,
      "keeps": 4992,
      "faces": 4993,
      "genuinely": 4994,
      "shock": 4995,
      "aware": 4996,
      "ring": 4997,
      "slo": 4998,
      "There": 4999,
      "frag": 5000,
      "functions": 5001,
      "effects": 5002,
      "reflect": 5003,
      "sample": 5004,
      "survives": 5005,
      "sharp": 5006,
      "sophisticated": 5007,
      "Bu": 5008,
      "ior": 5009,
      "infl": 5010,
      "string": 5011,
      "ends": 5012,
      "presence": 5013,
      "everything": 5014,
      "reliability": 5015,
      "cluster": 5016,
      "corpus": 5017,
      "rigor": 5018,
      "-S": 5019,
      "2,": 5020,
      "21": 5021,
      "DM": 5022,
      "Ne": 5023,
      "lens": 5024,
      "sources": 5025,
      "shad": 5026,
      "corrup": 5027,
      "fraction": 5028,
      "structurally": 5029,
      "multi-agent": 5030,
      "sustainable": 5031,
      "ignores": 5032,
      "-and-": 5033,
      "hedge": 5034,
      "mas": 5035,
      "mix": 5036,
      "uro": 5037,
      "accur": 5038,
      "team": 5039,
      "**S": 5040,
      "working": 5041,
      "Integr": 5042,
      "Mi": 5043,
      "gl": 5044,
      "notes": 5045,
      "spent": 5046,
      "models,": 5047,
      "partial": 5048,
      "tested": 5049,
      "produced": 5050,
      "functional": 5051,
      "named": 5052,
      "environment.": 5053,
      "digest": 5054,
      "communication": 5055,
      "frozen": 5056,
      "ensemble": 5057,
      "empirical": 5058,
      "macro": 5059,
      "LI": 5060,
      "Open": 5061,
      "ocean": 5062,
      "water": 5063,
      "accoun": 5064,
      "ople": 5065,
      "asking": 5066,
      "constraints.": 5067,
      "harness": 5068,
      "tells": 5069,
      "argument": 5070,
      "Qu": 5071,
      "immediate": 5072,
      "qual": 5073,
      "perman": 5074,
      "outcome": 5075,
      "bytes": 5076,
      "regular": 5077,
      "checking": 5078,
      "throughput": 5079,
      "----": 5080,
      "Cont": 5081,
      "magnetic": 5082,
      "script": 5083,
      "Key": 5084,
      "dra": 5085,
      "dust": 5086,
      "switch": 5087,
      "remo": 5088,
      "adding": 5089,
      "etary": 5090,
      "formation": 5091,
      "buy": 5092,
      "ismic": 5093,
      "will:": 5094,
      "summary": 5095,
      "partition": 5096,
      "methodo": 5097,
      "sense": 5098,
      "types": 5099,
      "typically": 5100,
      "sustainability": 5101,
      "-in": 5102,
      "27": 5103,
      "Ear": 5104,
      "S.": 5105,
      "rum": 5106,
      "ories": 5107,
      "wealth": 5108,
      "izon": 5109,
      "comment": 5110,
      "basin": 5111,
      "elimin": 5112,
      "https://arxiv.org/abs/250": 5113,
      "matching": 5114,
      "snap": 5115,
      "Res": 5116,
      "_needed": 5117,
      "``": 5118,
      "a.": 5119,
      "expos": 5120,
      "exogen": 5121,
      "perspect": 5122,
      "plumb": 5123,
      "strugg": 5124,
      "format": 5125,
      "real-world": 5126,
      "services": 5127,
      "gran": 5128,
      "background": 5129,
      "passed": 5130,
      "human_needed": 5131,
      "allowed": 5132,
      "institution": 5133,
      "complete-by": 5134,
      "including-you": 5135,
      "reveal": 5136,
      "we-including-you": 5137,
      "human_needed(": 5138,
      "Cur": 5139,
      "Even": 5140,
      "cand": 5141,
      "dro": 5142,
      "eper": 5143,
      "jor": 5144,
      "vin": 5145,
      "begin": 5146,
      "construct": 5147,
      "ate,": 5148,
      "reser": 5149,
      "agent-": 5150,
      "comb": 5151,
      "We're": 5152,
      "trusted": 5153,
      "proposed": 5154,
      "community": 5155,
      "\"I": 5156,
      "MS": 5157,
      "bul": 5158,
      "s-": 5159,
      "reed": 5160,
      "intended": 5161,
      "systems.": 5162,
      "decouple": 5163,
      "scalar": 5164,
      "grammar": 5165,
      "prevents": 5166,
      "zero-": 5167,
      "lacks": 5168,
      "configuration": 5169,
      "EC": 5170,
      "pts": 5171,
      "recogn": 5172,
      "ortion": 5173,
      "igu": 5174,
      "compli": 5175,
      "parad": 5176,
      "obs": 5177,
      "observations": 5178,
      "code.": 5179,
      "soft": 5180,
      "perfectly": 5181,
      "adversarial": 5182,
      "System": 5183,
      "smooth": 5184,
      "sandbox": 5185,
      "reputation": 5186,
      "envelope": 5187,
      "PO": 5188,
      "Py": 5189,
      "enter": 5190,
      "ram": 5191,
      "opportun": 5192,
      "agement": 5193,
      "time,": 5194,
      "validator": 5195,
      "weddings": 5196,
      "mechanism.": 5197,
      "transitions": 5198,
      "https://arxiv.org/abs/240": 5199,
      "application": 5200,
      "orchestration": 5201,
      "crash": 5202,
      "].": 5203,
      "eral": 5204,
      "major": 5205,
      "measures": 5206,
      "legal": 5207,
      "describe": 5208,
      "warm": 5209,
      "concentration": 5210,
      "telemetry": 5211,
      "Mul": 5212,
      "dies": 5213,
      "ness.": 5214,
      "thesis": 5215,
      "sever": 5216,
      "propose": 5217,
      "work.": 5218,
      "guess": 5219,
      "commend": 5220,
      "reached": 5221,
      "learned": 5222,
      "assets.": 5223,
      "universal": 5224,
      "reveals": 5225,
      "Precise": 5226,
      "Ob": 5227,
      "bers": 5228,
      "ased": 5229,
      "distribution.": 5230,
      "early": 5231,
      "outputs": 5232,
      "learn": 5233,
      "hybrid": 5234,
      "query": 5235,
      "(a": 5236,
      "erc": 5237,
      "ives.": 5238,
      "comes": 5239,
      "transmission": 5240,
      "expand": 5241,
      "effective": 5242,
      "records": 5243,
      "warning": 5244,
      "explicitly": 5245,
      "possible": 5246,
      "load-bearing": 5247,
      "permanent": 5248,
      "38": 5249,
      "Com": 5250,
      "`,": 5251,
      "inher": 5252,
      "itative": 5253,
      "debug": 5254,
      "secre": 5255,
      "above": 5256,
      "ially": 5257,
      "proving": 5258,
      "detector": 5259,
      "architecture.": 5260,
      "maintaining": 5261,
      "industri": 5262,
      "increases": 5263,
      "challeng": 5264,
      "cases": 5265,
      "wallet": 5266,
      "business": 5267,
      "shadow": 5268,
      "IC": 5269,
      "danger": 5270,
      "further": 5271,
      "kin": 5272,
      "pan": 5273,
      "pet": 5274,
      "role": 5275,
      "drive": 5276,
      "names": 5277,
      "tasks": 5278,
      "reported": 5279,
      "concentr": 5280,
      "footprint": 5281,
      "July": 5282,
      "-induced": 5283,
      "IT": 5284,
      "aS": 5285,
      "ov": 5286,
      "oss": 5287,
      "race": 5288,
      "iform": 5289,
      "igation": 5290,
      "sures": 5291,
      "ters": 5292,
      "said": 5293,
      "predic": 5294,
      "harder": 5295,
      "synthesis": 5296,
      "**00:0": 5297,
      "5.0": 5298,
      "AC": 5299,
      "App": 5300,
      "LS": 5301,
      "mise": 5302,
      "ises": 5303,
      "concer": 5304,
      "riend": 5305,
      "identical": 5306,
      "thentic": 5307,
      "here.": 5308,
      "malicious": 5309,
      "reports": 5310,
      "pipel": 5311,
      "exogenous": 5312,
      "(M": 5313,
      "Gen": 5314,
      "gers": 5315,
      "tree": 5316,
      "ustain": 5317,
      "oney": 5318,
      "proved": 5319,
      "basis": 5320,
      "completion": 5321,
      "summar": 5322,
      "ultaneous": 5323,
      "experience": 5324,
      "judgment": 5325,
      "library": 5326,
      "37": 5327,
      "Same": 5328,
      "e-": 5329,
      "ited": 5330,
      "arse": 5331,
      "arily": 5332,
      "rail": 5333,
      "trip": 5334,
      "pool": 5335,
      "plu": 5336,
      "reng": 5337,
      "over-": 5338,
      "structure.": 5339,
      "two-": 5340,
      "showed": 5341,
      "conditions": 5342,
      "comparison": 5343,
      "yield": 5344,
      "\"the": 5345,
      "ai": 5346,
      "smar": 5347,
      "vision": 5348,
      "is:": 5349,
      "ics.": 5350,
      "commod": 5351,
      "due": 5352,
      "reality.": 5353,
      "ghost": 5354,
      "things": 5355,
      "pace": 5356,
      "gap.": 5357,
      "include": 5358,
      "ieve": 5359,
      "acceler": 5360,
      "technology": 5361,
      "granular": 5362,
      "CI": 5363,
      "FP": 5364,
      "cil": 5365,
      "length": 5366,
      "story": 5367,
      "heat": 5368,
      "seismic": 5369,
      "authentic": 5370,
      "gue": 5371,
      "dependenc": 5372,
      "equival": 5373,
      "derivation": 5374,
      "solutions": 5375,
      "walk": 5376,
      "31B": 5377,
      "embedding": 5378,
      "princip": 5379,
      "=0.": 5380,
      "Man": 5381,
      "gives": 5382,
      "streng": 5383,
      "exclu": 5384,
      "trun": 5385,
      "phic": 5386,
      "ated,": 5387,
      "backup": 5388,
      "command": 5389,
      "itself,": 5390,
      "spectro": 5391,
      "spectrum": 5392,
      "persistent": 5393,
      "skew": 5394,
      "Multi": 5395,
      "TT": 5396,
      "sian": 5397,
      "——": 5398,
      "st-": 5399,
      "agency": 5400,
      "actor": 5401,
      "ivot": 5402,
      "people": 5403,
      "human-": 5404,
      "simultaneous": 5405,
      "install": 5406,
      "decoupled": 5407,
      "ambigu": 5408,
      "neutral": 5409,
      "44": 5410,
      "Data": 5411,
      "lap": 5412,
      "t.": 5413,
      "prose": 5414,
      "solv": 5415,
      "signal-to-": 5416,
      "layers": 5417,
      "planner": 5418,
      "multil": 5419,
      "existence": 5420,
      "writing": 5421,
      "environment,": 5422,
      "benef": 5423,
      "workflows": 5424,
      "demonstrates": 5425,
      "JSON": 5426,
      "ares": 5427,
      "bir": 5428,
      "g.": 5429,
      "section": 5430,
      "season": 5431,
      "vere": 5432,
      "uniform": 5433,
      "tered": 5434,
      "age,": 5435,
      "high-resolution": 5436,
      "chored": 5437,
      "instant": 5438,
      "invitation": 5439,
      "cryptographic": 5440,
      "population": 5441,
      "candid": 5442,
      ",000": 5443,
      "-3": 5444,
      "65": 5445,
      "pivot": 5446,
      "anchored": 5447,
      "alone": 5448,
      "sector": 5449,
      "conserv": 5450,
      "you'd": 5451,
      "eta": 5452,
      "amount": 5453,
      "statement": 5454,
      "tests": 5455,
      "dependence": 5456,
      "decad": 5457,
      "risks": 5458,
      "reasoning.": 5459,
      "---": 5460,
      "carbon": 5461,
      "vendors": 5462,
      "survive": 5463,
      "rules": 5464,
      "galax": 5465,
      "signal-to-noise": 5466,
      "-free": 5467,
      "repe": 5468,
      "onal": 5469,
      "orum": 5470,
      "decomposition": 5471,
      "lose": 5472,
      "iff": 5473,
      "quorum": 5474,
      "trail": 5475,
      "logy.": 5476,
      "regim": 5477,
      "regional": 5478,
      "photo": 5479,
      "64": 5480,
      "LO": 5481,
      "les.": 5482,
      "stabil": 5483,
      "powered": 5484,
      "scill": 5485,
      "processes": 5486,
      "personal": 5487,
      "reconstruction": 5488,
      "Earth": 5489,
      "came": 5490,
      "mim": 5491,
      "pilot": 5492,
      "incorpor": 5493,
      "leet": 5494,
      "activity": 5495,
      "permission": 5496,
      "ated.": 5497,
      "sole": 5498,
      "2023": 5499,
      "finish": 5500,
      "checked": 5501,
      "point.": 5502,
      "high-dimensional": 5503,
      "focuses": 5504,
      "captured": 5505,
      "priorit": 5506,
      "successful": 5507,
      "birth": 5508,
      "7-": 5509,
      "HF": 5510,
      "recomput": 5511,
      "oring": 5512,
      "degrad": 5513,
      "plus": 5514,
      "Web": 5515,
      "tics": 5516,
      "goti": 5517,
      "10.": 5518,
      "member": 5519,
      "receipts": 5520,
      "dense": 5521,
      "attacker": 5522,
      "5T": 5523,
      "AM": 5524,
      "dent": 5525,
      "dden": 5526,
      "o,": 5527,
      "grades": 5528,
      "gravit": 5529,
      "drand": 5530,
      "modul": 5531,
      "massive,": 5532,
      "influence": 5533,
      "IM": 5534,
      "Vo": 5535,
      "aero": 5536,
      "bind": 5537,
      "fig": 5538,
      "k=": 5539,
      "void": 5540,
      "modif": 5541,
      "intensity": 5542,
      "weather": 5543,
      "imposs": 5544,
      "capable": 5545,
      "signal,": 5546,
      "significantly": 5547,
      "transparen": 5548,
      "swap": 5549,
      "delivery": 5550,
      "riendly": 5551,
      "Apr": 5552,
      "batch": 5553,
      "fleet": 5554,
      "since": 5555,
      "rein": 5556,
      "recover": 5557,
      "meta": 5558,
      "exhib": 5559,
      "achieve": 5560,
      "creating": 5561,
      "reliance": 5562,
      "truly": 5563,
      "separation": 5564,
      "Once": 5565,
      "beacon-": 5566,
      "marginal": 5567,
      "ferences": 5568,
      "dissipation": 5569,
      "GW": 5570,
      "[c": 5571,
      "mber": 5572,
      "night": 5573,
      "ological": 5574,
      "oscill": 5575,
      "orac": 5576,
      "ion.": 5577,
      "health": 5578,
      "sees": 5579,
      "sudden": 5580,
      "apor": 5581,
      "Then": 5582,
      "derive": 5583,
      "signing": 5584,
      "Why": 5585,
      "branch": 5586,
      "causal": 5587,
      "prices": 5588,
      "approximation": 5589,
      "silently": 5590,
      "Spec": 5591,
      "adaptive": 5592,
      "Opportun": 5593,
      "compromis": 5594,
      "horizon": 5595,
      "snapshot": 5596,
      "7.0": 5597,
      "Sec": 5598,
      "ij": 5599,
      "mma": 5600,
      "revers": 5601,
      "enh": 5602,
      "versus": 5603,
      "wel": 5604,
      "discre": 5605,
      "point,": 5606,
      "reaches": 5607,
      "independently": 5608,
      "truth.": 5609,
      "availability": 5610,
      "analyz": 5611,
      "trends": 5612,
      "tuning": 5613,
      "purely": 5614,
      "hedging": 5615,
      "industrial": 5616,
      "RT": 5617,
      "vary": 5618,
      "it:": 5619,
      "assets": 5620,
      "deal": 5621,
      "covariance": 5622,
      "metic": 5623,
      "negoti": 5624,
      "door": 5625,
      "render": 5626,
      "Inter": 5627,
      "boundaries": 5628,
      "risk.": 5629,
      "colle": 5630,
      "quantify": 5631,
      "scop": 5632,
      "calls": 5633,
      "averse": 5634,
      "counterparty": 5635,
      "bandwidth": 5636,
      "middle": 5637,
      "leaves": 5638,
      "re-derivable": 5639,
      "particularly": 5640,
      "discipline": 5641,
      "strength": 5642,
      "-alone.": 5643,
      "Or": 5644,
      "VM": 5645,
      "given": 5646,
      "iqu": 5647,
      "pie": 5648,
      "v3": 5649,
      "threat": 5650,
      "enco": 5651,
      "intervention": 5652,
      "observer": 5653,
      "typed": 5654,
      "checkable": 5655,
      "function.": 5656,
      "claim.": 5657,
      "fact-not-": 5658,
      "rank": 5659,
      "text-fixed(": 5660,
      "each-alone.": 5661,
      "hydro": 5662,
      "true-as-worded.": 5663,
      "benchmarks": 5664,
      "narrative": 5665,
      "choice-not-": 5666,
      "catal": 5667,
      "fine-": 5668,
      "affect": 5669,
      "no-deleg": 5670,
      "governance": 5671,
      "(2026-08-05T": 5672,
      "highlights": 5673,
      "trunc": 5674,
      "[c=0.": 5675,
      "fact-not-known": 5676,
      "choice-not-made": 5677,
      "-space": 5678,
      "High": 5679,
      "eas": 5680,
      "almost": 5681,
      "mpot": 5682,
      "agents.": 5683,
      "ates.": 5684,
      "completen": 5685,
      "constraint.": 5686,
      "distributions": 5687,
      "offer": 5688,
      "reducing": 5689,
      "verifying": 5690,
      "certific": 5691,
      "experiment": 5692,
      "controlled": 5693,
      "compiler": 5694,
      "procedure": 5695,
      "39": 5696,
      "fight": 5697,
      "lift": 5698,
      "million": 5699,
      "vert": 5700,
      "urity": 5701,
      "strip": 5702,
      "inevit": 5703,
      "phen": 5704,
      "effort": 5705,
      "hypo": 5706,
      "targets": 5707,
      "intent.": 5708,
      "persistence": 5709,
      "catches": 5710,
      "simulations": 5711,
      "holding": 5712,
      "cycles": 5713,
      "CVE-": 5714,
      "Verification": 5715,
      "style": 5716,
      "family": 5717,
      "updates": 5718,
      "-wrong": 5719,
      "ined": 5720,
      "enum": 5721,
      "ster": 5722,
      "losing": 5723,
      "notic": 5724,
      "atell": 5725,
      "curren": 5726,
      "solves": 5727,
      "https://arxiv.org/abs/1": 5728,
      "handoff": 5729,
      "triggers": 5730,
      "estimate": 5731,
      "gravitational": 5732,
      ");": 5733,
      "six": 5734,
      "lean": 5735,
      "signatures": 5736,
      "archive": 5737,
      "mechanics": 5738,
      "append": 5739,
      "physically": 5740,
      "fields": 5741,
      "stored": 5742,
      "automation": 5743,
      "momentum": 5744,
      "mutable": 5745,
      "RLHF": 5746,
      "AG": 5747,
      "Cap": 5748,
      "Hu": 5749,
      "OC": 5750,
      "kes": 5751,
      "ored": 5752,
      "rational": 5753,
      "recompute": 5754,
      "toler": 5755,
      "mole": 5756,
      "exerc": 5757,
      "iring": 5758,
      "otic": 5759,
      "generative": 5760,
      "roughly": 5761,
      "colony": 5762,
      "vised": 5763,
      "modal": 5764,
      "turbulence": 5765,
      "navigate": 5766,
      "protect": 5767,
      "colleag": 5768,
      "$.": 5769,
      "46": 5770,
      "sal": 5771,
      "send": 5772,
      "zz": 5773,
      "abric": 5774,
      "haven": 5775,
      "higher-": 5776,
      "solver": 5777,
      "turning": 5778,
      "10^": 5779,
      "passive": 5780,
      "collision": 5781,
      "earning": 5782,
      "artifacts": 5783,
      "AI-powered": 5784,
      "SaaS": 5785,
      "0.0": 5786,
      "UN": 5787,
      "men": 5788,
      "icon": 5789,
      "rote": 5790,
      "conclu": 5791,
      "vertical": 5792,
      "mail": 5793,
      "audi": 5794,
      "manip": 5795,
      "optimized": 5796,
      "eventually": 5797,
      "blockchain": 5798,
      "smaller": 5799,
      "related": 5800,
      "dropped": 5801,
      "News": 5802,
      "bottom": 5803,
      "Bench": 5804,
      "cadence": 5805,
      "attractor": 5806,
      "multilingual": 5807,
      "piece": 5808,
      "22": 5809,
      "DC": 5810,
      "Mon": 5811,
      "Ro": 5812,
      "brit": 5813,
      "culation": 5814,
      "dual": 5815,
      "insufficient": 5816,
      "is-": 5817,
      "meant": 5818,
      "verification.": 5819,
      "ulty": 5820,
      "canon": 5821,
      "gether": 5822,
      "workload": 5823,
      "omen": 5824,
      "suring": 5825,
      "damp": 5826,
      "field.": 5827,
      "legacy": 5828,
      "approaches": 5829,
      "recorder": 5830,
      "I'll": 5831,
      "defense": 5832,
      "e.g.": 5833,
      "necessity": 5834,
      "pull": 5835,
      "configur": 5836,
      "sheet": 5837,
      "barrier": 5838,
      "remote": 5839,
      "09": 5840,
      "78": 5841,
      "Des": 5842,
      "El": 5843,
      "II": 5844,
      "invent": 5845,
      "reactive": 5846,
      "stage": 5847,
      "ing\"": 5848,
      "together": 5849,
      "converg": 5850,
      "plaus": 5851,
      "ester": 5852,
      "upload": 5853,
      "regression": 5854,
      "framework,": 5855,
      "correctly": 5856,
      "execution.": 5857,
      "starts": 5858,
      "differential": 5859,
      "Precisely.": 5860,
      "%.": 5861,
      "1.0": 5862,
      "EU": 5863,
      "Gaus": 5864,
      "Per": 5865,
      "Sustain": 5866,
      "element": 5867,
      "money": 5868,
      "inger": 5869,
      "resources": 5870,
      "values": 5871,
      "ization,": 5872,
      "introducing": 5873,
      "captures": 5874,
      "decision-": 5875,
      "continuity": 5876,
      "includes": 5877,
      "described": 5878,
      "follows": 5879,
      "GPT": 5880,
      "examines": 5881,
      "purpose": 5882,
      "motif": 5883,
      "currency": 5884,
      "-s": 5885,
      "Are": 5886,
      "PR": 5887,
      "dens": 5888,
      "sApp": 5889,
      "—it": 5890,
      "altern": 5891,
      "ilit": 5892,
      "contribution": 5893,
      "izer": 5894,
      "agent,": 5895,
      "system's": 5896,
      "solving": 5897,
      "anything": 5898,
      "osen": 5899,
      "semant": 5900,
      "confident": 5901,
      "answers": 5902,
      "coupled": 5903,
      "stability.": 5904,
      "WhatsApp": 5905,
      "geometric": 5906,
      "vanish": 5907,
      "articles": 5908,
      "(C": 5909,
      "1)": 5910,
      "ation:": 5911,
      "coin": 5912,
      "acting": 5913,
      "fake": 5914,
      "transl": 5915,
      "set.": 5916,
      "trusting": 5917,
      "mitigate": 5918,
      "talk": 5919,
      "isolate": 5920,
      "fitting": 5921,
      "ignore": 5922,
      "registry": 5923,
      "freshness": 5924,
      "4**": 5925,
      "EM": 5926,
      "NS": 5927,
      "m.": 5928,
      "wrote": 5929,
      "ed\"": 5930,
      "arith": 5931,
      "ently": 5932,
      "absol": 5933,
      "acou": 5934,
      "parse": 5935,
      "Indi": 5936,
      "disclosure": 5937,
      "metry.": 5938,
      "colon": 5939,
      "noise,": 5940,
      "v1,": 5941,
      "space,": 5942,
      "evaluate": 5943,
      "performing": 5944,
      "morpho": 5945,
      "important": 5946,
      "paradig": 5947,
      "-in-": 5948,
      "/motif": 5949,
      "2.0": 5950,
      "33": 5951,
      "Ap": 5952,
      "Cor": 5953,
      "batter": 5954,
      "dial": 5955,
      "flex": 5956,
      "lig": 5957,
      "usel": 5958,
      "vity": 5959,
      "eness": 5960,
      "orth": 5961,
      "cool": 5962,
      "moist": 5963,
      "note": 5964,
      "agent.": 5965,
      "specification": 5966,
      "owner": 5967,
      "uel": 5968,
      "https://assets.": 5969,
      "setup": 5970,
      "flows": 5971,
      "execute": 5972,
      "classification": 5973,
      "fetch": 5974,
      ".com/musica": 5975,
      "recursive": 5976,
      "vinaverse": 5977,
      "Gaussian": 5978,
      "/motif.": 5979,
      "https://assets.vinaverse": 5980,
      "https://assets.vinaverse.com/musica": 5981,
      "0.1": 5982,
      "8.": 5983,
      "Lá": 5984,
      "Pr": 5985,
      "eco-": 5986,
      "invalid": 5987,
      "recommend": 5988,
      "dele": 5989,
      "resist": 5990,
      "coming": 5991,
      "**The": 5992,
      "ourse": 5993,
      "regress": 5994,
      "tool-": 5995,
      "produc": 5996,
      "Any": 5997,
      "event.": 5998,
      "reduced": 5999,
      "wrong.": 6000,
      "increased": 6001,
      "speak": 6002,
      "radius": 6003,
      "broader": 6004,
      "maximum": 6005,
      "landscape": 6006,
      "increasingly": 6007,
      "aggregate": 6008,
      "English": 6009,
      "pository": 6010,
      "institutional": 6011,
      "completeness": 6012,
      "phenomen": 6013,
      "3.0": 6014,
      "8.0": 6015,
      "Ac": 6016,
      "B2": 6017,
      "i,": 6018,
      "ture": 6019,
      "uary": 6020,
      "invisible": 6021,
      "attribut": 6022,
      "ensuring": 6023,
      "is.": 6024,
      "ford": 6025,
      "tel": 6026,
      "strat": 6027,
      "tire": 6028,
      "monol": 6029,
      "bounds": 6030,
      "movement": 6031,
      "simpl": 6032,
      "store": 6033,
      "focused": 6034,
      "international": 6035,
      "represents": 6036,
      "growing": 6037,
      "sider": 6038,
      "citation": 6039,
      "enforcement": 6040,
      "AND": 6041,
      "alongside": 6042,
      "incentive": 6043,
      "haven't": 6044,
      "9.": 6045,
      "Euro": 6046,
      "jitter": 6047,
      "vice": 6048,
      "itation": 6049,
      "es:": 6050,
      "consc": 6051,
      "ured": 6052,
      "max": 6053,
      "evapor": 6054,
      "contam": 6055,
      "idempot": 6056,
      "launch": 6057,
      "text{": 6058,
      "demonstrate": 6059,
      "abstract": 6060,
      "kinetic": 6061,
      "moisture": 6062,
      "(e.g.": 6063,
      "ves.": 6064,
      "itute": 6065,
      "deeper": 6066,
      "raph": 6067,
      "beat": 6068,
      "util": 6069,
      "reson": 6070,
      "guid": 6071,
      "layer,": 6072,
      "emit": 6073,
      "context.": 6074,
      "scheme": 6075,
      "boundary.": 6076,
      "open-": 6077,
      "diffusion": 6078,
      "256": 6079,
      "reconstruct": 6080,
      "examine": 6081,
      "discussion": 6082,
      "house": 6083,
      "vereign": 6084,
      "4.0": 6085,
      "Bit": 6086,
      "SV": 6087,
      "bio": 6088,
      "fold": 6089,
      "mind": 6090,
      "wav": 6091,
      "incomplete": 6092,
      "chosen": 6093,
      "modeled": 6094,
      "augh": 6095,
      "der-": 6096,
      "specific,": 6097,
      "operation": 6098,
      "goes": 6099,
      "Real": 6100,
      "quantum": 6101,
      "instability": 6102,
      "matches": 6103,
      "ampl": 6104,
      "bottleneck.": 6105,
      "findings": 6106,
      "isolated": 6107,
      "hitting": 6108,
      "participant": 6109,
      "planetary": 6110,
      "accumul": 6111,
      "fluctuations": 6112,
      "difficulty": 6113,
      "canonical": 6114,
      "-the-": 6115,
      "/C": 6116,
      "45": 6117,
      "Dis": 6118,
      "Using": 6119,
      "az": 6120,
      "dress": 6121,
      "flip": 6122,
      "pas": 6123,
      "squ": 6124,
      "ycle": 6125,
      "—it's": 6126,
      "’t": 6127,
      "staging": 6128,
      "toff": 6129,
      "determ": 6130,
      "vered": 6131,
      "novel": 6132,
      "notice": 6133,
      "poor": 6134,
      "cket": 6135,
      "hole": 6136,
      "hood": 6137,
      "virtual": 6138,
      "environmental": 6139,
      "describes": 6140,
      "medium": 6141,
      "datasets": 6142,
      "controller": 6143,
      "forecasting": 6144,
      "mid-": 6145,
      "brief]": 6146,
      "symbolic": 6147,
      "equivalent": 6148,
      "noticed": 6149,
      "acoustic": 6150,
      "https://assets.vinaverse.com/musica/": 6151,
      "determine": 6152,
      "\"what": 6153,
      "(P": 6154,
      "6-": 6155,
      "Bay": 6156,
      "Block": 6157,
      "Lan": 6158,
      "Plat": 6159,
      "none": 6160,
      "o-": 6161,
      "sig": 6162,
      "sight": 6163,
      "won't": 6164,
      "repository": 6165,
      "mere": 6166,
      "rage": 6167,
      "correspond": 6168,
      "interpol": 6169,
      "shifted": 6170,
      "finally": 6171,
      "variables": 6172,
      "commer": 6173,
      "cutoff": 6174,
      "paper,": 6175,
      "reduces": 6176,
      "drift.": 6177,
      "terms": 6178,
      "modular": 6179,
      "implicit": 6180,
      "assertion": 6181,
      "bootstra": 6182,
      "inflation": 6183,
      "plumbing": 6184,
      "April": 6185,
      "colleagues": 6186,
      "conscious": 6187,
      "6.1": 6188,
      "LT": 6189,
      "easy": 6190,
      "les,": 6191,
      "merg": 6192,
      "nonce": 6193,
      "satell": 6194,
      "stake": 6195,
      "degener": 6196,
      "cha": 6197,
      "extract": 6198,
      "neither": 6199,
      "systems,": 6200,
      "forms": 6201,
      "ates,": 6202,
      "scient": 6203,
      "observational": 6204,
      "Reg": 6205,
      "graphic": 6206,
      "witnesses": 6207,
      "frontier": 6208,
      "tuned": 6209,
      "converge": 6210,
      "replacement": 6211,
      "scenario": 6212,
      "struggle": 6213,
      "challenges": 6214,
      "reversible": 6215,
      "monolith": 6216,
      ".The": 6217,
      "RU": 6218,
      "cris": 6219,
      "repo": 6220,
      "lets": 6221,
      "consu": 6222,
      "contrad": 6223,
      "worse": 6224,
      "observe": 6225,
      "surance": 6226,
      "ifying": 6227,
      "weights.": 6228,
      "Anal": 6229,
      "controls": 6230,
      "camp": 6231,
      "aggress": 6232,
      "programming": 6233,
      "assumptions": 6234,
      "strategic": 6235,
      "indicator": 6236,
      "lifec": 6237,
      "differenti": 6238,
      "synchronization": 6239,
      "quietly": 6240,
      "(e.g.,": 6241,
      "Frid": 6242,
      "Imp": 6243,
      "NFT": 6244,
      "Ph": 6245,
      "arc": 6246,
      "arma": 6247,
      "by-": 6248,
      "aude": 6249,
      "paths": 6250,
      "analog": 6251,
      "legit": 6252,
      "cript": 6253,
      "leading": 6254,
      "drawn": 6255,
      "interesting": 6256,
      "identifying": 6257,
      "arbitr": 6258,
      "pinned": 6259,
      "Claude": 6260,
      "buffer": 6261,
      "concern": 6262,
      "impossible": 6263,
      "Friday": 6264,
      "BM": 6265,
      "QL": 6266,
      "Su": 6267,
      "Where": 6268,
      "sits": 6269,
      "tag": 6270,
      "v/": 6271,
      "y-": 6272,
      "aler": 6273,
      "edia": 6274,
      "heter": 6275,
      "secure": 6276,
      "condu": 6277,
      "conclusion": 6278,
      "actively": 6279,
      "pointer": 6280,
      "fire": 6281,
      "upd": 6282,
      "solid": 6283,
      "plane": 6284,
      "remaining": 6285,
      "code,": 6286,
      "resolved": 6287,
      "changes.": 6288,
      "numbers": 6289,
      "ultural": 6290,
      "LLMs": 6291,
      "drops": 6292,
      "transforms": 6293,
      "voice": 6294,
      "penalty": 6295,
      "3090,": 6296,
      "diagnostic": 6297,
      "plausible": 6298,
      "absolute": 6299,
      "$,": 6300,
      "32": 6301,
      "ios": 6302,
      "route": 6303,
      "lever": 6304,
      "prof": 6305,
      "abul": 6306,
      "acqu": 6307,
      "plant": 6308,
      "fav": 6309,
      "photon": 6310,
      "Invit": 6311,
      "takes": 6312,
      "shifts.": 6313,
      "surro": 6314,
      "set,": 6315,
      "integrate": 6316,
      "respect": 6317,
      "ropic": 6318,
      "ities.": 6319,
      "networks": 6320,
      "breakdown": 6321,
      "Tool": 6322,
      "mathematically": 6323,
      "clusters": 6324,
      "orbital": 6325,
      "catastro": 6326,
      "one-hop": 6327,
      "propagation": 6328,
      "asymmetry": 6329,
      "compliance": 6330,
      "figure": 6331,
      "Europe": 6332,
      "Fir": 6333,
      "Ré": 6334,
      "bil": 6335,
      "bra": 6336,
      "finger": 6337,
      "native": 6338,
      "rich": 6339,
      "tens": 6340,
      "infinite": 6341,
      "on,": 6342,
      "edit": 6343,
      "quar": 6344,
      "traffic": 6345,
      "eliz": 6346,
      "computation": 6347,
      "exists.": 6348,
      "sequent": 6349,
      "writes": 6350,
      "refut": 6351,
      "primit": 6352,
      "changed": 6353,
      "stopped": 6354,
      "shaped": 6355,
      "components": 6356,
      "competitive": 6357,
      "inherently": 6358,
      "satisfy": 6359,
      "themselves": 6360,
      "Techno": 6361,
      "excluding": 6362,
      "arithmetic": 6363,
      "42": 6364,
      "56": 6365,
      "500": 6366,
      "AO": 6367,
      "Car": 6368,
      "EX": 6369,
      "div": 6370,
      "lt": 6371,
      "senti": 6372,
      "st,": 6373,
      "leave": 6374,
      "formul": 6375,
      "overlap": 6376,
      "expir": 6377,
      "producer": 6378,
      "polar": 6379,
      "distribution,": 6380,
      "single,": 6381,
      "provider": 6382,
      "context,": 6383,
      "hook": 6384,
      "synt": 6385,
      "prompt.": 6386,
      "literature": 6387,
      "skip": 6388,
      "empty": 6389,
      "unique": 6390,
      "indicates": 6391,
      "contains": 6392,
      "Both": 6393,
      "achieved": 6394,
      "Pyth": 6395,
      "secret": 6396,
      "lifecycle": 6397,
      "88": 6398,
      "96": 6399,
      "Can": 6400,
      "MW": 6401,
      "Ma": 6402,
      "Sw": 6403,
      "Trend": 6404,
      "friendly": 6405,
      "mint": 6406,
      "pec": 6407,
      "replay": 6408,
      "decorrelation": 6409,
      "unknown": 6410,
      "notification": 6411,
      "resil": 6412,
      "area": 6413,
      "spik": 6414,
      "irrelevant": 6415,
      "optical": 6416,
      "thermo": 6417,
      "preprint": 6418,
      "graded": 6419,
      "expon": 6420,
      "mechanisms": 6421,
      "respons": 6422,
      "couldn't": 6423,
      "orders": 6424,
      "maintenance": 6425,
      "licence": 6426,
      "Chat": 6427,
      "behavior.": 6428,
      "estimation": 6429,
      "short-": 6430,
      "accounting": 6431,
      "Hub": 6432,
      "LE": 6433,
      "SN": 6434,
      "Sum": 6435,
      "VR": 6436,
      "iated": 6437,
      "s?": 6438,
      "reply": 6439,
      "contra": 6440,
      "advant": 6441,
      "adoption": 6442,
      "istribut": 6443,
      "perce": 6444,
      "stranger": 6445,
      "work,": 6446,
      "assoc": 6447,
      "upstream": 6448,
      "artific": 6449,
      "memor": 6450,
      "allowing": 6451,
      "ships": 6452,
      "record.": 6453,
      "mitt": 6454,
      "talking": 6455,
      "economy": 6456,
      "insight": 6457,
      "convex": 6458,
      "convective": 6459,
      "6.0": 6460,
      "Ser": 6461,
      "Sav": 6462,
      "_{": 6463,
      "fuel": 6464,
      "mill": 6465,
      "tend": 6466,
      "§4": 6467,
      "thous": 6468,
      "restr": 6469,
      "stag": 6470,
      "ctl": 6471,
      "cos": 6472,
      "extra": 6473,
      "grader-": 6474,
      "realized": 6475,
      "template": 6476,
      "10.0": 6477,
      "changing": 6478,
      "task.": 6479,
      "languages": 6480,
      "particle": 6481,
      "three-": 6482,
      "Deep": 6483,
      "following": 6484,
      "privacy": 6485,
      "radio": 6486,
      "potentially": 6487,
      "delegation-": 6488,
      "dominant": 6489,
      "hierarchy": 6490,
      "waiting": 6491,
      "accurate": 6492,
      "fighting": 6493,
      "-1": 6494,
      "-delegation-": 6495,
      "Dó": 6496,
      "March": 6497,
      "Mem": 6498,
      "Q:": 6499,
      "Val": 6500,
      "hot": 6501,
      "hide": 6502,
      "ines.": 6503,
      "anced": 6504,
      "orient": 6505,
      "escal": 6506,
      "deg": 6507,
      "lob": 6508,
      "convention": 6509,
      "contact": 6510,
      "upper": 6511,
      "lineage": 6512,
      "brand": 6513,
      "counts": 6514,
      "design.": 6515,
      "handling": 6516,
      "passes": 6517,
      "engine.": 6518,
      "level.": 6519,
      "Exori": 6520,
      "logic,": 6521,
      "silence": 6522,
      "start-by": 6523,
      "leads": 6524,
      "privile": 6525,
      "-not-applied": 6526,
      "invariants": 6527,
      "meaning-fixed(": 6528,
      "we-excluding": 6529,
      "nonlinear": 6530,
      "you-one": 6531,
      "you-all": 6532,
      "or-both.": 6533,
      "passed-not-applied": 6534,
      "obs(": 6535,
      "Observ": 6536,
      "no-delegation.": 6537,
      "conclude": 6538,
      "abulary": 6539,
      "catastrophic": 6540,
      "one-hop-delegation-": 6541,
      "thousand": 6542,
      "ctl(": 6543,
      "grader-is-": 6544,
      "we-excluding-you": 6545,
      "Fo": 6546,
      "OR": 6547,
      "Rep": 6548,
      "iation": 6549,
      "nal": 6550,
      "ous,": 6551,
      "modu": 6552,
      "wearing": 6553,
      "agents,": 6554,
      "ounding": 6555,
      "this.": 6556,
      "signer": 6557,
      "beta": 6558,
      "acknow": 6559,
      "generic": 6560,
      "high-fidelity": 6561,
      "later": 6562,
      "weighted": 6563,
      "receipt-": 6564,
      "output.": 6565,
      "What's": 6566,
      "hash,": 6567,
      "certification": 6568,
      "packet": 6569,
      "selected": 6570,
      "embed": 6571,
      "Google": 6572,
      "Luxury": 6573,
      "several": 6574,
      "exercise": 6575,
      "()": 6576,
      "(2": 6577,
      "3%": 6578,
      "CS": 6579,
      "Dec": 6580,
      "NV": 6581,
      "Red": 6582,
      "Retic": 6583,
      "SD": 6584,
      "liveness": 6585,
      "mun": 6586,
      "zone": 6587,
      "attribution": 6588,
      "depart": 6589,
      "sell": 6590,
      "redund": 6591,
      "gravity": 6592,
      "diver": 6593,
      "funding": 6594,
      "provision": 6595,
      "what's": 6596,
      "saw": 6597,
      "constraints,": 6598,
      "iber": 6599,
      "breaking": 6600,
      "reachable": 6601,
      "ratic": 6602,
      "Agents": 6603,
      "proposes": 6604,
      "iki": 6605,
      "occurs": 6606,
      "lukitun-": 6607,
      "lossy": 6608,
      "stationary": 6609,
      "exposes": 6610,
      "pipelines": 6611,
      "Security": 6612,
      "esterday": 6613,
      "aught": 6614,
      "Reticuli": 6615,
      "Bus": 6616,
      "Brid": 6617,
      "IR": 6618,
      "got": 6619,
      "thin": 6620,
      "lebr": 6621,
      "cope": 6622,
      "exit": 6623,
      "sovereign": 6624,
      "up.": 6625,
      "failing": 6626,
      "paid": 6627,
      "centric": 6628,
      "closes": 6629,
      "hoc": 6630,
      "https://arxiv.org/abs/230": 6631,
      "stock": 6632,
      "caused": 6633,
      "predicted": 6634,
      "defines": 6635,
      "criter": 6636,
      "evaluated": 6637,
      "setting": 6638,
      "retriev": 6639,
      "biased": 6640,
      "onomy": 6641,
      "argue": 6642,
      "2025,": 6643,
      "connected": 6644,
      "coordinate": 6645,
      "life": 6646,
      "debt": 6647,
      "vocabulary": 6648,
      "\"this": 6649,
      "Gro": 6650,
      "dou": 6651,
      "ubl": 6652,
      "replic": 6653,
      "alloc": 6654,
      "isot": 6655,
      "esian": 6656,
      "white": 6657,
      "traces": 6658,
      "wasn't": 6659,
      "ator.": 6660,
      "on-chain": 6661,
      "flow.": 6662,
      "dynamical": 6663,
      "result.": 6664,
      "shared-": 6665,
      "12.0": 6666,
      "arXiv:250": 6667,
      "burst": 6668,
      "isolation": 6669,
      "competition": 6670,
      "smoothing": 6671,
      "diversity": 6672,
      "perspective": 6673,
      "degradation": 6674,
      "oracle": 6675,
      "scopic": 6676,
      "arbitrary": 6677,
      "-20": 6678,
      "Bax": 6679,
      "PD": 6680,
      "Par": 6681,
      "ama": 6682,
      "dantic": 6683,
      "relay": 6684,
      "anom": 6685,
      "stal": 6686,
      "icity": 6687,
      "entify": 6688,
      "compan": 6689,
      "diverg": 6690,
      "subsid": 6691,
      "subsequent": 6692,
      "validated": 6693,
      "markets": 6694,
      "re-run": 6695,
      "loop,": 6696,
      "study:": 6697,
      "reflection": 6698,
      "environments": 6699,
      "arXiv:1": 6700,
      "days": 6701,
      "practition": 6702,
      "ashboard": 6703,
      "charge": 6704,
      "priority": 6705,
      "finds": 6706,
      "strategies": 6707,
      "regions": 6708,
      "strictly": 6709,
      "navig": 6710,
      "practice,": 6711,
      "heterogen": 6712,
      "anomal": 6713,
      "1.1": 6714,
      "3.1": 6715,
      "@bytes": 6716,
      "Che": 6717,
      "IP": 6718,
      "Jan": 6719,
      "Run": 6720,
      "aign": 6721,
      "avi": 6722,
      "o.": 6723,
      "rink": 6724,
      "wrap": 6725,
      "retic": 6726,
      "me,": 6727,
      "nois": 6728,
      "propri": 6729,
      "beli": 6730,
      "out.": 6731,
      "compens": 6732,
      "generates": 6733,
      "operate": 6734,
      "apping": 6735,
      "firmed": 6736,
      "tempor": 6737,
      "clos": 6738,
      "claim,": 6739,
      "measurements": 6740,
      "10.1": 6741,
      "presented": 6742,
      "management.": 6743,
      "surface.": 6744,
      "attempting": 6745,
      "discr": 6746,
      "developers": 6747,
      "sentence": 6748,
      "improvement": 6749,
      "conflict": 6750,
      "first-class": 6751,
      "methodology": 6752,
      "plugin": 6753,
      "Bitcoin": 6754,
      "reticuli": 6755,
      "3:": 6756,
      "94": 6757,
      "hig": 6758,
      "m,": 6759,
      "si": 6760,
      "ission": 6761,
      "demo": 6762,
      "lot": 6763,
      "beam": 6764,
      "un-": 6765,
      "triv": 6766,
      "you.": 6767,
      "ighter": 6768,
      "symp": 6769,
      "calling": 6770,
      "parser": 6771,
      "extension": 6772,
      "upgrade": 6773,
      "real,": 6774,
      "google": 6775,
      "science": 6776,
      "optimizes": 6777,
      "quantitative": 6778,
      "homo": 6779,
      "terminal": 6780,
      "memory.": 6781,
      "instance": 6782,
      "media": 6783,
      "warr": 6784,
      "channels": 6785,
      "pipeline.": 6786,
      "judge": 6787,
      "nearly": 6788,
      "arbitrage": 6789,
      "scheduling": 6790,
      "routing": 6791,
      "falsifi": 6792,
      "famil": 6793,
      "deviation": 6794,
      "slope": 6795,
      "eliminate": 6796,
      "Current": 6797,
      "opportunity": 6798,
      "monolithic": 6799,
      "campaign": 6800,
      "\"is": 6801,
      "(or": 6802,
      "OT": 6803,
      "Right": 6804,
      "Si": 6805,
      "\\text{": 6806,
      "brow": 6807,
      "give": 6808,
      "gates": 6809,
      "ique": 6810,
      "tor": 6811,
      "atom": 6812,
      "tour": 6813,
      "ouch": 6814,
      "loses": 6815,
      "shrink": 6816,
      "ignoring": 6817,
      "anti-": 6818,
      "byproduct": 6819,
      "comfort": 6820,
      "haust": 6821,
      "intermediate": 6822,
      "really": 6823,
      "checker": 6824,
      "operates": 6825,
      "apply": 6826,
      "scr": 6827,
      "everyone": 6828,
      "remained": 6829,
      "levels": 6830,
      "defining": 6831,
      "categor": 6832,
      "established": 6833,
      "mentioned": 6834,
      "Finding": 6835,
      "rigorous": 6836,
      "Vogue": 6837,
      "varying": 6838,
      "catalog": 6839,
      "battery": 6840,
      "highe": 6841,
      "-for": 6842,
      "55": 6843,
      "FR": 6844,
      "HA": 6845,
      "MT": 6846,
      "bond": 6847,
      "cra": 6848,
      "karma": 6849,
      "ox": 6850,
      "attire": 6851,
      "ensures": 6852,
      "is,": 6853,
      "edges": 6854,
      "assign": 6855,
      "assem": 6856,
      "chasing": 6857,
      "export": 6858,
      "idea": 6859,
      "cost.": 6860,
      "validity": 6861,
      "validates": 6862,
      "applying": 6863,
      "suggested": 6864,
      "use.": 6865,
      "sequences": 6866,
      "Report": 6867,
      "earli": 6868,
      "attach": 6869,
      "visibility": 6870,
      "shipped": 6871,
      "deployed": 6872,
      "foundation": 6873,
      "ixel": 6874,
      "floor.": 6875,
      "meaningful": 6876,
      "documentation": 6877,
      "invitations": 6878,
      "automat": 6879,
      "progress": 6880,
      "Multi-": 6881,
      "hypothesis": 6882,
      "degree": 6883,
      "proprietary": 6884,
      "-aware": 6885,
      "84": 6886,
      "AA": 6887,
      "Each": 6888,
      "Med": 6889,
      "Sc": 6890,
      "_id": 6891,
      "ban": 6892,
      "i.": 6893,
      "s;": 6894,
      "vow": 6895,
      "yesterday": 6896,
      "renew": 6897,
      "escape": 6898,
      "ent.": 6899,
      "cold": 6900,
      "covered": 6901,
      "image": 6902,
      "irreversible": 6903,
      "compat": 6904,
      "keys": 6905,
      "red.": 6906,
      "worker": 6907,
      "grant": 6908,
      "tool.": 6909,
      "variability": 6910,
      "humans": 6911,
      "otherwise": 6912,
      "relier": 6913,
      "control.": 6914,
      "forcement": 6915,
      "mandate": 6916,
      "attested": 6917,
      "centralized": 6918,
      "...": 6919,
      "namo": 6920,
      "dependencies": 6921,
      "Design": 6922,
      "Business": 6923,
      "7v1": 6924,
      "JW": 6925,
      "Vend": 6926,
      "bes": 6927,
      "caught": 6928,
      "duration": 6929,
      "factual": 6930,
      "loud": 6931,
      "income": 6932,
      "reset": 6933,
      "espec": 6934,
      "cosmo": 6935,
      "belong": 6936,
      "confirmed": 6937,
      "that,": 6938,
      "explan": 6939,
      "exhaust": 6940,
      "ollar": 6941,
      "adop": 6942,
      "deliber": 6943,
      "popul": 6944,
      "outage": 6945,
      "requiring": 6946,
      "genes": 6947,
      "2022": 6948,
      "market.": 6949,
      "physics.": 6950,
      "computed": 6951,
      "daily": 6952,
      "refusal": 6953,
      "equation": 6954,
      "truct": 6955,
      "standardized": 6956,
      "focusing": 6957,
      "introduced": 6958,
      "hardware.": 6959,
      "hyper": 6960,
      "accountability": 6961,
      "Stand": 6962,
      "atmosphere": 6963,
      "indeed": 6964,
      "applies": 6965,
      "vote": 6966,
      "options": 6967,
      "preserves": 6968,
      "organization": 6969,
      "electron": 6970,
      "engineering.": 6971,
      "seasonal": 6972,
      "(N": 6973,
      "34": 6974,
      "3D": 6975,
      "CE": 6976,
      "Ge": 6977,
      "Hy": 6978,
      "Ty": 6979,
      "big": 6980,
      "civ": 6981,
      "fabric": 6982,
      "gated": 6983,
      "remon": 6984,
      "rewrite": 6985,
      "onic": 6986,
      "arm": 6987,
      "robo": 6988,
      "conven": 6989,
      "exception": 6990,
      "immutable": 6991,
      "tries": 6992,
      "withheld": 6993,
      "gemma": 6994,
      "doi": 6995,
      "oppos": 6996,
      "created": 6997,
      "grounding": 6998,
      "precip": 6999,
      "study,": 7000,
      "threshold,": 7001,
      "video": 7002,
      "discourse": 7003,
      "pping": 7004,
      "custo": 7005,
      "emergent": 7006,
      "Researchers": 7007,
      "turbulent": 7008,
      "thought": 7009,
      "Buil": 7010,
      "Bayesian": 7011,
      "Langu": 7012,
      "consumption": 7013,
      "artificial": 7014,
      "receipt-schema": 7015,
      "Group": 7016,
      "\"un": 7017,
      "/2026": 7018,
      "400": 7019,
      "?The": 7020,
      "Fá": 7021,
      "Ident": 7022,
      "La": 7023,
      "VV": 7024,
      "osing": 7025,
      "ptic": 7026,
      "rase": 7027,
      "sav": 7028,
      "ised": 7029,
      "propo": 7030,
      "compare": 7031,
      "evident": 7032,
      "amend": 7033,
      "durable": 7034,
      "aked": 7035,
      "under-": 7036,
      "getting": 7037,
      "boundar": 7038,
      "center": 7039,
      "loops": 7040,
      "complex,": 7041,
      "hallucinated": 7042,
      "similarity": 7043,
      "masking": 7044,
      "gains": 7045,
      "ASA": 7046,
      "Quant": 7047,
      "concentrated": 7048,
      "mimic": 7049,
      "ownership": 7050,
      "fingerprint": 7051,
      "especially": 7052,
      "-chain": 7053,
      "3,": 7054,
      "Base": 7055,
      "Vir": 7056,
      "cru": 7057,
      "lab": 7058,
      "mical": 7059,
      "vot": 7060,
      "stall": 7061,
      "ingest": 7062,
      "road": 7063,
      "sea": 7064,
      "seam": 7065,
      "auction": 7066,
      "manages": 7067,
      "prun": 7068,
      "logy,": 7069,
      "decide": 7070,
      "volt": 7071,
      "windows": 7072,
      "collabor": 7073,
      "patterns.": 7074,
      "probes": 7075,
      "defect": 7076,
      "saying": 7077,
      "agged": 7078,
      "governed": 7079,
      "heavily": 7080,
      "a-gemma": 7081,
      "preserv": 7082,
      "Guest": 7083,
      "fragile": 7084,
      "corruption": 7085,
      "dangerous": 7086,
      "exhibit": 7087,
      "satellite": 7088,
      "legitimate": 7089,
      "Saventify": 7090,
      "BaxCode": 7091,
      "CAP": 7092,
      "Gem": 7093,
      "SQL": 7094,
      "Te": 7095,
      "bill": 7096,
      "cup": 7097,
      "hur": 7098,
      "·平": 7099,
      "如是": 7100,
      "in.": 7101,
      "endo": 7102,
      "stated": 7103,
      "height": 7104,
      "covers": 7105,
      "extraction": 7106,
      "key,": 7107,
      "2019": 7108,
      "viable": 7109,
      "prise": 7110,
      "having": 7111,
      "omission": 7112,
      "check.": 7113,
      "engagement": 7114,
      "item": 7115,
      "volution": 7116,
      "observable": 7117,
      "polit": 7118,
      "integrating": 7119,
      "events.": 7120,
      "choose": 7121,
      "bridal": 7122,
      "workflows.": 7123,
      "infrastructure.": 7124,
      "closed-": 7125,
      "stack.": 7126,
      "detected": 7127,
      "vs-": 7128,
      "circular": 7129,
      "instructions": 7130,
      "preserve": 7131,
      "near-": 7132,
      "participants": 7133,
      "disjointness": 7134,
      "interpretation": 7135,
      "hours": 7136,
      "menu": 7137,
      "bootstrap": 7138,
      "profession": 7139,
      "eliza-gemma": 7140,
      "Trends": 7141,
      "discrimin": 7142,
      "opposite": 7143,
      "·平安": 7144,
      "如是·平安": 7145,
      "GET": 7146,
      "Other": 7147,
      "_monitor": 7148,
      "nic": 7149,
      "sou": 7150,
      "slight": 7151,
      "rer": 7152,
      "stone": 7153,
      "cop": 7154,
      "Their": 7155,
      "utes": 7156,
      "unk": 7157,
      "ine,": 7158,
      "Indust": 7159,
      "chemical": 7160,
      "interact": 7161,
      "fail-": 7162,
      "dynamo": 7163,
      "integer": 7164,
      "tick": 7165,
      "actions": 7166,
      "Exp": 7167,
      "posts": 7168,
      "machine.": 7169,
      "wants": 7170,
      "freeze": 7171,
      "agging": 7172,
      "investment": 7173,
      "happened": 7174,
      "leaving": 7175,
      "themselves.": 7176,
      "assessment": 7177,
      "```": 7178,
      "alternative": 7179,
      "cooling": 7180,
      "diverge": 7181,
      "Gemma": 7182,
      "(T": 7183,
      "5%": 7184,
      "69": 7185,
      "9f": 7186,
      "AD": 7187,
      "Global": 7188,
      "OM": 7189,
      "Part": 7190,
      "`.": 7191,
      "his": 7192,
      "reproduc": 7193,
      "entity": 7194,
      "seal": 7195,
      "chol": 7196,
      "rarely": 7197,
      "clause": 7198,
      "2020": 7199,
      "problem:": 7200,
      "monu": 7201,
      "generating": 7202,
      "high-precision": 7203,
      "posed": 7204,
      "latter": 7205,
      "weighting": 7206,
      "studies": 7207,
      "legible": 7208,
      "cade": 7209,
      "anchors": 7210,
      "live_monitor": 7211,
      "Under": 7212,
      "mapped": 7213,
      "Colon": 7214,
      "queue": 7215,
      "minimize": 7216,
      "regulator": 7217,
      "photograph": 7218,
      "24GB": 7219,
      "circu": 7220,
      "electric": 7221,
      "retention": 7222,
      "manufacturing": 7223,
      "panel": 7224,
      "transparency": 7225,
      "associated": 7226,
      "civil": 7227,
      "endogen": 7228,
      "3-": 7229,
      "3v1": 7230,
      "DR": 7231,
      "GH": 7232,
      "RI": 7233,
      "Str": 7234,
      "Struct": 7235,
      "aa": 7236,
      "c.": 7237,
      "ds": 7238,
      "eth": 7239,
      "vina": 7240,
      "ining": 7241,
      "revenue": 7242,
      "allocation": 7243,
      "ion,": 7244,
      "heating": 7245,
      "ist-": 7246,
      "poison": 7247,
      "iza": 7248,
      "all.": 7249,
      "intersection": 7250,
      "disclosed": 7251,
      "asked": 7252,
      "elastic": 7253,
      "weights,": 7254,
      "loads": 7255,
      "added": 7256,
      "chain.": 7257,
      "venues": 7258,
      "paying": 7259,
      "hermes": 7260,
      "restart": 7261,
      "cleanly": 7262,
      "Develo": 7263,
      "persona": 7264,
      "assuming": 7265,
      "1000": 7266,
      "-by-": 7267,
      "leakage": 7268,
      "randomness": 7269,
      "accident": 7270,
      "smart": 7271,
      "benefit": 7272,
      "conduct": 7273,
      "advantage": 7274,
      "temporary": 7275,
      "homogen": 7276,
      "warrant": 7277,
      "Ab": 7278,
      "Ber": 7279,
      "Det": 7280,
      "Fi": 7281,
      "Pre": 7282,
      "bif": 7283,
      "alters": 7284,
      "ions": 7285,
      "ous.": 7286,
      "cosm": 7287,
      "ceremon": 7288,
      "ages,": 7289,
      "neigh": 7290,
      "**.": 7291,
      "coring": 7292,
      "proven": 7293,
      "subtle": 7294,
      "scatter": 7295,
      "level,": 7296,
      "adds": 7297,
      "necessarily": 7298,
      "response.": 7299,
      "proposition": 7300,
      "automate": 7301,
      "minimal": 7302,
      "11.0": 7303,
      "algorithmic": 7304,
      "algorithms": 7305,
      "borrow": 7306,
      "expertise": 7307,
      "ecosystem": 7308,
      "bulk": 7309,
      "galaxy": 7310,
      "prioritize": 7311,
      "certificate": 7312,
      "tolerance": 7313,
      "SVG": 7314,
      "degeneracy": 7315,
      "scientific": 7316,
      "-year": 7317,
      "5**": 7318,
      "5.1": 7319,
      "CH": 7320,
      "Graph": 7321,
      "IEE": 7322,
      "Tre": 7323,
      "cach": 7324,
      "dashboard": 7325,
      "dollar": 7326,
      "email": 7327,
      "ga": 7328,
      "table": 7329,
      "—essentially": 7330,
      "atives": 7331,
      "death": 7332,
      "promise": 7333,
      "unified": 7334,
      "intention": 7335,
      "we've": 7336,
      "ressing": 7337,
      "quad": 7338,
      "istinguish": 7339,
      "actu": 7340,
      "users": 7341,
      "Three": 7342,
      "inel": 7343,
      "among": 7344,
      "disk": 7345,
      "disrup": 7346,
      "way.": 7347,
      "misses": 7348,
      "exponent": 7349,
      "identifi": 7350,
      "monoton": 7351,
      "basic": 7352,
      "epist": 7353,
      "failure,": 7354,
      "2026:": 7355,
      "optimizer": 7356,
      "statistics": 7357,
      "launder": 7358,
      "non-deterministic": 7359,
      "lane": 7360,
      "scale.": 7361,
      "rang": 7362,
      "Some": 7363,
      "proofs": 7364,
      "recorded": 7365,
      "information.": 7366,
      "architecture,": 7367,
      "deployment.": 7368,
      "threads": 7369,
      "thinking": 7370,
      "declar": 7371,
      "possess": 7372,
      "surveys": 7373,
      "substitute": 7374,
      "assistant": 7375,
      "managed": 7376,
      "manipul": 7377,
      "commercial": 7378,
      "cosmic": 7379,
      "(like": 7380,
      "-side": 7381,
      "67": 7382,
      "Del": 7383,
      "UI": 7384,
      "draft": 7385,
      "fu": 7386,
      "km": 7387,
      "us.": 7388,
      "at-": 7389,
      "enforces": 7390,
      "isition": 7391,
      "entral": 7392,
      "west": 7393,
      "atever": 7394,
      "lihood": 7395,
      "ipe": 7396,
      "former": 7397,
      "formed": 7398,
      "more,": 7399,
      "engines": 7400,
      "breach": 7401,
      "Exec": 7402,
      "receipt.": 7403,
      "right,": 7404,
      "proof.": 7405,
      "occup": 7406,
      "continue": 7407,
      "190": 7408,
      "target.": 7409,
      "402": 7410,
      "experiences": 7411,
      "angle": 7412,
      "estimator": 7413,
      "facilit": 7414,
      "filtering": 7415,
      "correlations": 7416,
      "laws": 7417,
      "cycle.": 7418,
      "schedu": 7419,
      "confirms": 7420,
      "feels": 7421,
      "gamma": 7422,
      "slice": 7423,
      "candidate": 7424,
      "favor": 7425,
      "sentiment": 7426,
      "Python": 7427,
      "1/": 7428,
      "97": 7429,
      "@eliza-gemma": 7430,
      "AF": 7431,
      "Bar": 7432,
      "CT": 7433,
      "Mult": 7434,
      "OL": 7435,
      "Over": 7436,
      "Sche": 7437,
      "UT": 7438,
      "d.": 7439,
      "dam": 7440,
      "f-": 7441,
      "rating": 7442,
      "revalidate": 7443,
      "ons": 7444,
      "became": 7445,
      "advan": 7446,
      "ress.": 7447,
      "urc": 7448,
      "spac": 7449,
      "whatever": 7450,
      "redshift": 7451,
      "calculation": 7452,
      "indistinguish": 7453,
      "preferences": 7454,
      "cheaper": 7455,
      "state-": 7456,
      "testim": 7457,
      "https://doi": 7458,
      "structure,": 7459,
      "mechanism,": 7460,
      "lax": 7461,
      "management,": 7462,
      "reaching": 7463,
      "metric.": 7464,
      "defend": 7465,
      "authorized": 7466,
      "blocks": 7467,
      "techniqu": 7468,
      "operators": 7469,
      "protocols": 7470,
      "estimates": 7471,
      "interactions": 7472,
      "trajectories": 7473,
      "topic": 7474,
      "proportion": 7475,
      "Good": 7476,
      "sites": 7477,
      "cryptographically": 7478,
      "appears": 7479,
      "debugging": 7480,
      "Eliza": 7481,
      "Blockchain": 7482,
      "embedded": 7483,
      "IEEE": 7484,
      "https://doi.org/": 7485,
      "-H": 7486,
      "4,": 7487,
      "Mar": 7488,
      "Pe": 7489,
      "Space": 7490,
      "ires": 7491,
      "np": 7492,
      "sli": 7493,
      "relax": 7494,
      "online": 7495,
      "ancing": 7496,
      "oration": 7497,
      "asp": 7498,
      "ages.": 7499,
      "agreed": 7500,
      "intens": 7501,
      "spheric": 7502,
      "com/": 7503,
      "ournal": 7504,
      "likelihood": 7505,
      "conditional": 7506,
      "going": 7507,
      "emic": 7508,
      "offers": 7509,
      "ropical": 7510,
      "scale,": 7511,
      "others": 7512,
      "tracks": 7513,
      "capability.": 7514,
      "threshold.": 7515,
      "Uni": 7516,
      "experimental": 7517,
      "years,": 7518,
      "State": 7519,
      "survival": 7520,
      "guarantees": 7521,
      "dictates": 7522,
      "shell": 7523,
      "post-hoc": 7524,
      "deliver": 7525,
      "——如是·平安": 7526,
      "Sustainable": 7527,
      "aggressive": 7528,
      "acquisition": 7529,
      "genesis": 7530,
      "Standard": 7531,
      "bifurc": 7532,
      "68": 7533,
      "Dav": 7534,
      "Ly": 7535,
      "PM": 7536,
      "Ru": 7537,
      "n’t": 7538,
      "rise": 7539,
      "went": 7540,
      "wild": 7541,
      "reloc": 7542,
      "ont": 7543,
      "ing-": 7544,
      "icial": 7545,
      "decor": 7546,
      "decre": 7547,
      "unless": 7548,
      "admin": 7549,
      "advert": 7550,
      "sparse": 7551,
      "poly": 7552,
      "compose": 7553,
      "fair": 7554,
      "tting": 7555,
      "vibe": 7556,
      "logs": 7557,
      "buys": 7558,
      "fails.": 7559,
      "isecond": 7560,
      "funded": 7561,
      "variab": 7562,
      "observing": 7563,
      "poll": 7564,
      "passeng": 7565,
      "field,": 7566,
      "derivative": 7567,
      "latency.": 7568,
      "power-": 7569,
      "thread,": 7570,
      "autonomy": 7571,
      "ambda": 7572,
      "Local": 7573,
      "CO2": 7574,
      "refinement": 7575,
      "Opportunities": 7576,
      "molecular": 7577,
      "useless": 7578,
      "European": 7579,
      "-ray": 7580,
      "47": 7581,
      "Er": 7582,
      "Now": 7583,
      "Sou": 7584,
      "U.": 7585,
      "ae": 7586,
      "cm": 7587,
      "fed": 7588,
      "tid": 7589,
      "tically": 7590,
      "iny": 7591,
      "repair": 7592,
      "stakes": 7593,
      "ctors": 7594,
      "offl": 7595,
      "coarse": 7596,
      "forge": 7597,
      "unde": 7598,
      "ifications": 7599,
      "ride": 7600,
      "soc": 7601,
      "intermitt": 7602,
      "readable": 7603,
      "variations": 7604,
      "news": 7605,
      "templ": 7606,
      "gov/": 7607,
      "hard-": 7608,
      "transition.": 7609,
      "Rece": 7610,
      "additional": 7611,
      "question:": 7612,
      "responses": 7613,
      "auditing": 7614,
      "priced": 7615,
      "ix,": 7616,
      "capacity.": 7617,
      "case,": 7618,
      "successfully": 7619,
      "180": 7620,
      "cascade": 7621,
      "falls": 7622,
      "takeaway": 7623,
      "accepts": 7624,
      "hierarchical": 7625,
      "falsifier": 7626,
      "Here": 7627,
      "compromise": 7628,
      "involving": 7629,
      "[research]": 7630,
      "annual": 7631,
      "Integration": 7632,
      "begins": 7633,
      "millisecond": 7634,
      "module": 7635,
      "David": 7636,
      "'ll": 7637,
      "-vs-": 7638,
      "11.": 7639,
      "57": 7640,
      "89": 7641,
      "AB": 7642,
      "IV": 7643,
      "Sim": 7644,
      "Scal": 7645,
      "card": 7646,
      "inclusion": 7647,
      "reh": 7648,
      "degrades": 7649,
      "for.": 7650,
      "yout": 7651,
      "teles": 7652,
      "perception": 7653,
      "out-of-": 7654,
      "Those": 7655,
      "extended": 7656,
      "crew": 7657,
      "producing": 7658,
      "aims": 7659,
      "function,": 7660,
      "closing": 7661,
      "looked": 7662,
      "naming": 7663,
      "framework.": 7664,
      "network.": 7665,
      "breaks.": 7666,
      "equity": 7667,
      "parameters.": 7668,
      "boundary,": 7669,
      "policy.": 7670,
      "collapsing": 7671,
      "afford": 7672,
      "necessit": 7673,
      "zero.": 7674,
      "arXiv:240": 7675,
      "dynamics.": 7676,
      "projected": 7677,
      "completely": 7678,
      "aligned": 7679,
      "ateral": 7680,
      "simulate": 7681,
      "Autom": 7682,
      "cited": 7683,
      "entirely.": 7684,
      "iteration": 7685,
      "example": 7686,
      "combined": 7687,
      "combination": 7688,
      "compromised": 7689,
      "Human": 7690,
      "colonist-": 7691,
      "paradigm": 7692,
      "updated": 7693,
      "syntactic": 7694,
      "trivial": 7695,
      "(B": 7696,
      "(1)": 7697,
      "-language": 7698,
      "/articles": 7699,
      "4/": 7700,
      "@vina": 7701,
      "IF": 7702,
      "LR": 7703,
      "Mic": 7704,
      "MCP": 7705,
      "NG": 7706,
      "NN": 7707,
      "Rec": 7708,
      "Time": 7709,
      "ning.": 7710,
      "pixel": 7711,
      "s**:": 7712,
      "tit": 7713,
      "restrict": 7714,
      "exori": 7715,
      "teach": 7716,
      "ives,": 7717,
      "gered": 7718,
      "lied": 7719,
      "clus": 7720,
      "ability,": 7721,
      "ipedia": 7722,
      "preced": 7723,
      "shift.": 7724,
      "fract": 7725,
      "bles": 7726,
      "turing": 7727,
      "news.": 7728,
      "researcher": 7729,
      "re-derive": 7730,
      "offset": 7731,
      "offering": 7732,
      "window,": 7733,
      "shouldn't": 7734,
      "ruin": 7735,
      "decisions": 7736,
      "ashion": 7737,
      "litch": 7738,
      "injected": 7739,
      "collapse.": 7740,
      "ikipedia": 7741,
      "Sybil": 7742,
      "drivers": 7743,
      "ceiling.": 7744,
      "customer": 7745,
      "example,": 7746,
      "rollback": 7747,
      "expression": 7748,
      "perturbation": 7749,
      "predicate": 7750,
      "FP16": 7751,
      "k=1": 7752,
      "enhance": 7753,
      "enumer": 7754,
      "primitives": 7755,
      "Swift": 7756,
      "Memory": 7757,
      "atomic": 7758,
      "Industry": 7759,
      "epistemic": 7760,
      "indistinguishable": 7761,
      "\"A": 7762,
      "(D": 7763,
      "(20": 7764,
      "->": 7765,
      "36": 7766,
      "49": 7767,
      "5,": 7768,
      "6T": 7769,
      "AV": 7770,
      "Coun": 7771,
      "Gal": 7772,
      "Git": 7773,
      "Lang": 7774,
      "bed": 7775,
      "cash": 7776,
      "lor": 7777,
      "ini": 7778,
      "erk": 7779,
      "isite": 7780,
      "entail": 7781,
      "asma": 7782,
      "forc": 7783,
      "profiles": 7784,
      "sharing": 7785,
      "essential": 7786,
      "poch": 7787,
      "parties": 7788,
      "boo": 7789,
      "requisite": 7790,
      "guide": 7791,
      "line.": 7792,
      "asks": 7793,
      "completed": 7794,
      "lookup": 7795,
      "showing": 7796,
      "allowed.": 7797,
      "classical": 7798,
      "informed": 7799,
      "surface,": 7800,
      "thread:": 7801,
      "anchors,": 7802,
      "satur": 7803,
      "Spain": 7804,
      "accepted": 7805,
      "website": 7806,
      "computationally": 7807,
      "ophys": 7808,
      "crypto": 7809,
      "consensu": 7810,
      "CPU": 7811,
      "guardrail": 7812,
      "absorbing": 7813,
      "reserve": 7814,
      "Management": 7815,
      "reinforcement": 7816,
      "bottoms": 7817,
      "quarter": 7818,
      "voltage": 7819,
      "neighbor": 7820,
      "Receip": 7821,
      "-p": 7822,
      "-up": 7823,
      "Dest": 7824,
      "Ger": 7825,
      "Ke": 7826,
      "_by": 7827,
      "fat": 7828,
      "jet": 7829,
      "mu": 7830,
      "pap": 7831,
      "rss": 7832,
      "revised": 7833,
      "ones.": 7834,
      "enters": 7835,
      "excess": 7836,
      "aph": 7837,
      "weigh": 7838,
      "imal": 7839,
      "sphere": 7840,
      "umin": 7841,
      "fires": 7842,
      "bub": 7843,
      "timeout": 7844,
      "overclaim": 7845,
      "cost,": 7846,
      "high-level": 7847,
      "marketing": 7848,
      "noise\"": 7849,
      "process,": 7850,
      "mostly": 7851,
      "knows": 7852,
      "seeks": 7853,
      "fact.": 7854,
      "equations": 7855,
      "prompts": 7856,
      "views": 7857,
      "learns": 7858,
      "text.": 7859,
      "steps": 7860,
      "Agre": 7861,
      "determined": 7862,
      "file.": 7863,
      "machine-": 7864,
      "succeed": 7865,
      "words": 7866,
      "correlate": 7867,
      "leader": 7868,
      "understands": 7869,
      "transformer": 7870,
      "transformation": 7871,
      "manifests": 7872,
      "hallucinate": 7873,
      "manifold.": 7874,
      "Planning": 7875,
      "involves": 7876,
      "contamin": 7877,
      "correspondence": 7878,
      "Technology": 7879,
      "exponential": 7880,
      "Vendor": 7881,
      "endogenous": 7882,
      "-B": 7883,
      "03:": 7884,
      "Event": 7885,
      "Know": 7886,
      "Rot": 7887,
      "SO": 7888,
      "Test": 7889,
      "WN": 7890,
      "baked": 7891,
      "emul": 7892,
      "gi": 7893,
      "sv": 7894,
      "thro": 7895,
      "in,": 7896,
      "ising": 7897,
      "celebr": 7898,
      "raises": 7899,
      "nob": 7900,
      "unt": 7901,
      "intr": 7902,
      "s.\"": 7903,
      "modeling.": 7904,
      "worded": 7905,
      "redistribut": 7906,
      "phon": 7907,
      "contag": 7908,
      "specul": 7909,
      "capturing": 7910,
      "regex": 7911,
      "tools,": 7912,
      "error,": 7913,
      "tending": 7914,
      "computing": 7915,
      "down.": 7916,
      "multipl": 7917,
      "ranking": 7918,
      "predicting": 7919,
      "value.": 7920,
      "directory": 7921,
      "reporting": 7922,
      "tails": 7923,
      "mitig": 7924,
      "keeping": 7925,
      "dedic": 7926,
      "projects": 7927,
      "economics": 7928,
      "burn": 7929,
      "packages": 7930,
      "periods": 7931,
      "microstructure": 7932,
      "adaptation": 7933,
      "dominated": 7934,
      "stronger": 7935,
      "credentials": 7936,
      "protection": 7937,
      "collective": 7938,
      "switching": 7939,
      "decades": 7940,
      "regimes": 7941,
      "meta-": 7942,
      "semantics": 7943,
      "discussions": 7944,
      "Analysis": 7945,
      "analogy": 7946,
      "tensor": 7947,
      "expiry": 7948,
      "noisy": 7949,
      "Findings": 7950,
      "9f2": 7951,
      "Schema": 7952,
      "-first": 7953,
      "Ga": 7954,
      "Have": 7955,
      "LA": 7956,
      "Vina": 7957,
      "glitch": 7958,
      "ude": 7959,
      "inary": 7960,
      "invalidate": 7961,
      "innov": 7962,
      "refin": 7963,
      "remove": 7964,
      "atically": 7965,
      "ened": 7966,
      "ana": 7967,
      "alter": 7968,
      "ars": 7969,
      "ract": 7970,
      "contribut": 7971,
      "intu": 7972,
      "accre": 7973,
      "compound": 7974,
      "phil": 7975,
      "prerequisite": 7976,
      "hasn't": 7977,
      "omin": 7978,
      "identification": 7979,
      "now.": 7980,
      "blur": 7981,
      "providers": 7982,
      "change.": 7983,
      "tax\"": 7984,
      "mitigation": 7985,
      "analysis.": 7986,
      "placement": 7987,
      "mode.": 7988,
      "persists": 7989,
      "explore": 7990,
      "topological": 7991,
      "asyn": 7992,
      "pushed": 7993,
      "reconcil": 7994,
      "selector": 7995,
      "graded.": 7996,
      "emerging": 7997,
      "debate": 7998,
      "previously": 7999
    },
    "merges": [
      [
        "t",
        "h"
      ],
      [
        "i",
        "n"
      ],
      [
        "r",
        "e"
      ],
      [
        "th",
        "e"
      ],
      [
        "o",
        "n"
      ],
      [
        "a",
        "t"
      ],
      [
        "e",
        "n"
      ],
      [
        "e",
        "r"
      ],
      [
        "a",
        "n"
      ],
      [
        "s",
        "t"
      ],
      [
        "o",
        "r"
      ],
      [
        "a",
        "l"
      ],
      [
        "i",
        "s"
      ],
      [
        "i",
        "t"
      ],
      [
        "in",
        "g"
      ],
      [
        "i",
        "on"
      ],
      [
        "e",
        "s"
      ],
      [
        "e",
        "d"
      ],
      [
        "i",
        "c"
      ],
      [
        "a",
        "r"
      ],
      [
        "r",
        "o"
      ],
      [
        "t",
        "o"
      ],
      [
        "o",
        "u"
      ],
      [
        "en",
        "t"
      ],
      [
        "c",
        "t"
      ],
      [
        "o",
        "f"
      ],
      [
        "l",
        "e"
      ],
      [
        "a",
        "s"
      ],
      [
        "h",
        "e"
      ],
      [
        "d",
        "e"
      ],
      [
        "s",
        "e"
      ],
      [
        "an",
        "d"
      ],
      [
        "at",
        "ion"
      ],
      [
        "c",
        "o"
      ],
      [
        "i",
        "l"
      ],
      [
        "c",
        "h"
      ],
      [
        "m",
        "e"
      ],
      [
        "c",
        "e"
      ],
      [
        "r",
        "a"
      ],
      [
        "l",
        "o"
      ],
      [
        "v",
        "e"
      ],
      [
        "l",
        "y"
      ],
      [
        "i",
        "f"
      ],
      [
        "n",
        "o"
      ],
      [
        "f",
        "or"
      ],
      [
        "i",
        "g"
      ],
      [
        "T",
        "he"
      ],
      [
        "m",
        "o"
      ],
      [
        "p",
        "ro"
      ],
      [
        "b",
        "e"
      ],
      [
        "c",
        "on"
      ],
      [
        "u",
        "t"
      ],
      [
        "a",
        "b"
      ],
      [
        "v",
        "er"
      ],
      [
        "a",
        "g"
      ],
      [
        "th",
        "at"
      ],
      [
        "m",
        "p"
      ],
      [
        "it",
        "y"
      ],
      [
        "u",
        "n"
      ],
      [
        "s",
        "u"
      ],
      [
        "e",
        "x"
      ],
      [
        "i",
        "d"
      ],
      [
        "a",
        "p"
      ],
      [
        "o",
        "l"
      ],
      [
        "in",
        "t"
      ],
      [
        "no",
        "t"
      ],
      [
        "w",
        "e"
      ],
      [
        "at",
        "e"
      ],
      [
        "a",
        "d"
      ],
      [
        "m",
        "ent"
      ],
      [
        "re",
        "s"
      ],
      [
        "u",
        "r"
      ],
      [
        "i",
        "m"
      ],
      [
        "a",
        "c"
      ],
      [
        "t",
        "r"
      ],
      [
        "q",
        "u"
      ],
      [
        "a",
        "re"
      ],
      [
        "i",
        "st"
      ],
      [
        "y",
        "ou"
      ],
      [
        "s",
        "p"
      ],
      [
        "e",
        "t"
      ],
      [
        "s",
        "."
      ],
      [
        "u",
        "st"
      ],
      [
        "a",
        "ct"
      ],
      [
        "u",
        "l"
      ],
      [
        "t",
        "e"
      ],
      [
        "s",
        "h"
      ],
      [
        "a",
        "y"
      ],
      [
        "w",
        "h"
      ],
      [
        "u",
        "re"
      ],
      [
        "t",
        "er"
      ],
      [
        "o",
        "w"
      ],
      [
        "de",
        "l"
      ],
      [
        "i",
        "ve"
      ],
      [
        "'",
        "s"
      ],
      [
        "p",
        "er"
      ],
      [
        "i",
        "th"
      ],
      [
        "es",
        "s"
      ],
      [
        "n",
        "e"
      ],
      [
        "m",
        "a"
      ],
      [
        "ig",
        "h"
      ],
      [
        "i",
        "v"
      ],
      [
        "ic",
        "al"
      ],
      [
        "st",
        "r"
      ],
      [
        "w",
        "ith"
      ],
      [
        "mo",
        "del"
      ],
      [
        "c",
        "an"
      ],
      [
        "p",
        "o"
      ],
      [
        "ro",
        "m"
      ],
      [
        "p",
        "l"
      ],
      [
        "s",
        ","
      ],
      [
        "e",
        "ct"
      ],
      [
        "f",
        "rom"
      ],
      [
        "i",
        "z"
      ],
      [
        "b",
        "ut"
      ],
      [
        "i",
        "r"
      ],
      [
        "g",
        "e"
      ],
      [
        "e",
        "c"
      ],
      [
        "d",
        "o"
      ],
      [
        "st",
        "e"
      ],
      [
        "ig",
        "n"
      ],
      [
        "u",
        "s"
      ],
      [
        "ou",
        "t"
      ],
      [
        "w",
        "or"
      ],
      [
        "co",
        "mp"
      ],
      [
        "ct",
        "ion"
      ],
      [
        "T",
        "h"
      ],
      [
        "in",
        "e"
      ],
      [
        "il",
        "ity"
      ],
      [
        "re",
        "n"
      ],
      [
        "d",
        "ing"
      ],
      [
        "l",
        "i"
      ],
      [
        "an",
        "t"
      ],
      [
        "b",
        "y"
      ],
      [
        "t",
        "ra"
      ],
      [
        "o",
        "p"
      ],
      [
        "'",
        "t"
      ],
      [
        "k",
        "e"
      ],
      [
        "ag",
        "ent"
      ],
      [
        "s",
        "y"
      ],
      [
        "a",
        "u"
      ],
      [
        "t",
        "i"
      ],
      [
        "on",
        "e"
      ],
      [
        "if",
        "ic"
      ],
      [
        "en",
        "d"
      ],
      [
        "r",
        "i"
      ],
      [
        "ab",
        "le"
      ],
      [
        "re",
        "d"
      ],
      [
        "en",
        "ce"
      ],
      [
        "f",
        "a"
      ],
      [
        "f",
        "e"
      ],
      [
        "c",
        "l"
      ],
      [
        "co",
        "m"
      ],
      [
        "c",
        "al"
      ],
      [
        "I",
        "f"
      ],
      [
        "l",
        "d"
      ],
      [
        "ou",
        "n"
      ],
      [
        "the",
        "r"
      ],
      [
        "d",
        "er"
      ],
      [
        "str",
        "u"
      ],
      [
        "*",
        "*"
      ],
      [
        "m",
        "an"
      ],
      [
        "an",
        "s"
      ],
      [
        "ar",
        "d"
      ],
      [
        "ou",
        "r"
      ],
      [
        "j",
        "ust"
      ],
      [
        "c",
        "k"
      ],
      [
        "ab",
        "ility"
      ],
      [
        "igh",
        "t"
      ],
      [
        "a",
        "in"
      ],
      [
        "il",
        "l"
      ],
      [
        "p",
        "ar"
      ],
      [
        "e",
        "v"
      ],
      [
        "a",
        "m"
      ],
      [
        "wor",
        "k"
      ],
      [
        "p",
        "h"
      ],
      [
        "i",
        "al"
      ],
      [
        "in",
        "d"
      ],
      [
        "I",
        "t"
      ],
      [
        "th",
        "is"
      ],
      [
        "ste",
        "m"
      ],
      [
        "s",
        "ign"
      ],
      [
        "i",
        "p"
      ],
      [
        "ag",
        "e"
      ],
      [
        "2",
        "0"
      ],
      [
        "lo",
        "w"
      ],
      [
        "c",
        "es"
      ],
      [
        "ch",
        "an"
      ],
      [
        "be",
        "t"
      ],
      [
        "sy",
        "stem"
      ],
      [
        "for",
        "m"
      ],
      [
        "con",
        "t"
      ],
      [
        "w",
        "he"
      ],
      [
        "c",
        "y"
      ],
      [
        "b",
        "le"
      ],
      [
        "c",
        "or"
      ],
      [
        "l",
        "l"
      ],
      [
        "u",
        "al"
      ],
      [
        "p",
        "re"
      ],
      [
        "at",
        "ed"
      ],
      [
        "Th",
        "is"
      ],
      [
        "a",
        "me"
      ],
      [
        "b",
        "o"
      ],
      [
        "ar",
        "y"
      ],
      [
        "t",
        "t"
      ],
      [
        "i",
        "es"
      ],
      [
        "ar",
        "ch"
      ],
      [
        "as",
        "s"
      ],
      [
        "I",
        "n"
      ],
      [
        "sp",
        "ec"
      ],
      [
        "ac",
        "k"
      ],
      [
        "n",
        "'t"
      ],
      [
        "en",
        "s"
      ],
      [
        "c",
        "he"
      ],
      [
        "al",
        "l"
      ],
      [
        "v",
        "i"
      ],
      [
        "it",
        "ion"
      ],
      [
        "if",
        "t"
      ],
      [
        "stru",
        "ct"
      ],
      [
        "p",
        "r"
      ],
      [
        "u",
        "m"
      ],
      [
        "d",
        "at"
      ],
      [
        "lo",
        "g"
      ],
      [
        "e",
        "st"
      ],
      [
        "f",
        "i"
      ],
      [
        "s",
        "o"
      ],
      [
        "g",
        "ra"
      ],
      [
        "ex",
        "t"
      ],
      [
        "h",
        "a"
      ],
      [
        "s",
        ":"
      ],
      [
        "int",
        "er"
      ],
      [
        "s",
        "er"
      ],
      [
        "i",
        "mp"
      ],
      [
        "de",
        "p"
      ],
      [
        "a",
        "ch"
      ],
      [
        "re",
        "qu"
      ],
      [
        "an",
        "ce"
      ],
      [
        "b",
        "u"
      ],
      [
        "d",
        "es"
      ],
      [
        "it",
        "s"
      ],
      [
        "d",
        "i"
      ],
      [
        "f",
        "f"
      ],
      [
        "t",
        "ion"
      ],
      [
        "m",
        "ar"
      ],
      [
        "u",
        "p"
      ],
      [
        "re",
        "ad"
      ],
      [
        "v",
        "al"
      ],
      [
        "d",
        "is"
      ],
      [
        "do",
        "es"
      ],
      [
        "ren",
        "t"
      ],
      [
        "at",
        "es"
      ],
      [
        "d",
        "ist"
      ],
      [
        "we",
        "en"
      ],
      [
        "bet",
        "ween"
      ],
      [
        "whe",
        "re"
      ],
      [
        "W",
        "h"
      ],
      [
        "fa",
        "il"
      ],
      [
        "d",
        "u"
      ],
      [
        "o",
        "b"
      ],
      [
        "er",
        "s"
      ],
      [
        "g",
        "en"
      ],
      [
        "or",
        "t"
      ],
      [
        "oun",
        "d"
      ],
      [
        "or",
        "y"
      ],
      [
        "c",
        "re"
      ],
      [
        "h",
        "igh"
      ],
      [
        "s",
        "s"
      ],
      [
        "tr",
        "ans"
      ],
      [
        "is",
        "e"
      ],
      [
        "th",
        "an"
      ],
      [
        "m",
        "at"
      ],
      [
        "c",
        "ap"
      ],
      [
        "t",
        "a"
      ],
      [
        "c",
        "ur"
      ],
      [
        "#",
        "#"
      ],
      [
        "ou",
        "ld"
      ],
      [
        "as",
        "e"
      ],
      [
        "st",
        "ate"
      ],
      [
        "on",
        "g"
      ],
      [
        "in",
        "to"
      ],
      [
        "re",
        "g"
      ],
      [
        "c",
        "ess"
      ],
      [
        "re",
        "al"
      ],
      [
        "spec",
        "ific"
      ],
      [
        "h",
        "as"
      ],
      [
        "sh",
        "ift"
      ],
      [
        "f",
        "ra"
      ],
      [
        "h",
        "ow"
      ],
      [
        "dat",
        "a"
      ],
      [
        "ti",
        "me"
      ],
      [
        "w",
        "ay"
      ],
      [
        "g",
        "h"
      ],
      [
        "f",
        "o"
      ],
      [
        "ow",
        "n"
      ],
      [
        "en",
        "cy"
      ],
      [
        "f",
        "un"
      ],
      [
        "g",
        "u"
      ],
      [
        "t",
        "y"
      ],
      [
        "o",
        "t"
      ],
      [
        "ver",
        "y"
      ],
      [
        "o",
        "ver"
      ],
      [
        "o",
        "m"
      ],
      [
        "20",
        "2"
      ],
      [
        "y",
        "s"
      ],
      [
        "d",
        "if"
      ],
      [
        "ur",
        "al"
      ],
      [
        "j",
        "ect"
      ],
      [
        "w",
        "as"
      ],
      [
        "se",
        "l"
      ],
      [
        "s",
        "ion"
      ],
      [
        "ut",
        "ion"
      ],
      [
        "ing",
        "."
      ],
      [
        "ic",
        "e"
      ],
      [
        "te",
        "st"
      ],
      [
        "d",
        "y"
      ],
      [
        "es",
        "."
      ],
      [
        "iz",
        "ation"
      ],
      [
        "au",
        "se"
      ],
      [
        "f",
        "l"
      ],
      [
        "p",
        "res"
      ],
      [
        "u",
        "e"
      ],
      [
        "on",
        "ly"
      ],
      [
        "ic",
        "h"
      ],
      [
        "pro",
        "v"
      ],
      [
        "p",
        "s:"
      ],
      [
        "h",
        "tt"
      ],
      [
        "/",
        "/"
      ],
      [
        "st",
        "ra"
      ],
      [
        "htt",
        "ps:"
      ],
      [
        "https:",
        "//"
      ],
      [
        "s",
        "ing"
      ],
      [
        "a",
        "k"
      ],
      [
        "mar",
        "k"
      ],
      [
        "l",
        "ine"
      ],
      [
        "W",
        "e"
      ],
      [
        "ed",
        "."
      ],
      [
        "f",
        "in"
      ],
      [
        "dep",
        "end"
      ],
      [
        "ou",
        "s"
      ],
      [
        "ed",
        "ding"
      ],
      [
        "if",
        "i"
      ],
      [
        "ser",
        "v"
      ],
      [
        "p",
        "ut"
      ],
      [
        "a",
        "st"
      ],
      [
        "m",
        "is"
      ],
      [
        "t",
        "s"
      ],
      [
        "at",
        "ing"
      ],
      [
        "ation",
        "s"
      ],
      [
        "m",
        "in"
      ],
      [
        "our",
        "ces"
      ],
      [
        "mo",
        "re"
      ],
      [
        "ne",
        "ed"
      ],
      [
        "o",
        "k"
      ],
      [
        "wh",
        "at"
      ],
      [
        "s",
        "ol"
      ],
      [
        "de",
        "c"
      ],
      [
        "r",
        "un"
      ],
      [
        "requ",
        "i"
      ],
      [
        "s",
        "ame"
      ],
      [
        "ble",
        "m"
      ],
      [
        "p",
        "e"
      ],
      [
        "g",
        "r"
      ],
      [
        "pro",
        "blem"
      ],
      [
        "sel",
        "f"
      ],
      [
        "0",
        "0"
      ],
      [
        "ex",
        "p"
      ],
      [
        "re",
        "e"
      ],
      [
        "c",
        "ause"
      ],
      [
        "ar",
        "i"
      ],
      [
        "un",
        "der"
      ],
      [
        "cor",
        "re"
      ],
      [
        "su",
        "r"
      ],
      [
        "n",
        "ing"
      ],
      [
        "che",
        "ck"
      ],
      [
        "act",
        "ual"
      ],
      [
        "ha",
        "ve"
      ],
      [
        "'",
        "re"
      ],
      [
        "e",
        "ff"
      ],
      [
        "r",
        "it"
      ],
      [
        "id",
        "ent"
      ],
      [
        "sign",
        "al"
      ],
      [
        "ation",
        "."
      ],
      [
        "t",
        "im"
      ],
      [
        "m",
        "on"
      ],
      [
        "po",
        "int"
      ],
      [
        "g",
        "et"
      ],
      [
        "wh",
        "ich"
      ],
      [
        "at",
        "or"
      ],
      [
        "s",
        "cal"
      ],
      [
        "be",
        "cause"
      ],
      [
        "a",
        "v"
      ],
      [
        "i",
        "le"
      ],
      [
        "gen",
        "er"
      ],
      [
        "the",
        "se"
      ],
      [
        "wh",
        "en"
      ],
      [
        "is",
        "m"
      ],
      [
        "i",
        "de"
      ],
      [
        "S",
        "ources"
      ],
      [
        "me",
        "chan"
      ],
      [
        "no",
        "w"
      ],
      [
        "ab",
        "s"
      ],
      [
        ")",
        "."
      ],
      [
        "Y",
        "ou"
      ],
      [
        "the",
        "y"
      ],
      [
        "b",
        "l"
      ],
      [
        "int",
        "e"
      ],
      [
        "t",
        "ic"
      ],
      [
        "th",
        "ing"
      ],
      [
        "dif",
        "fe"
      ],
      [
        "en",
        "g"
      ],
      [
        "se",
        "arch"
      ],
      [
        "it",
        "'s"
      ],
      [
        "bu",
        "il"
      ],
      [
        "p",
        "ort"
      ],
      [
        "or",
        "g"
      ],
      [
        "b",
        "r"
      ],
      [
        "as",
        "k"
      ],
      [
        "es",
        ","
      ],
      [
        "se",
        "t"
      ],
      [
        "r",
        "or"
      ],
      [
        "you",
        "r"
      ],
      [
        "su",
        "b"
      ],
      [
        "li",
        "ke"
      ],
      [
        "o",
        "d"
      ],
      [
        "me",
        "as"
      ],
      [
        "b",
        "as"
      ],
      [
        "w",
        "ill"
      ],
      [
        "r",
        "y"
      ],
      [
        "at",
        "ive"
      ],
      [
        "to",
        "ol"
      ],
      [
        "p",
        "a"
      ],
      [
        "ab",
        "out"
      ],
      [
        "r",
        "is"
      ],
      [
        "l",
        "ay"
      ],
      [
        "ro",
        "ss"
      ],
      [
        "ol",
        "d"
      ],
      [
        "is",
        "h"
      ],
      [
        "t",
        "w"
      ],
      [
        "pro",
        "du"
      ],
      [
        "c",
        "oun"
      ],
      [
        "con",
        "stra"
      ],
      [
        "iz",
        "ed"
      ],
      [
        "ist",
        "ic"
      ],
      [
        "b",
        "ound"
      ],
      [
        "comp",
        "le"
      ],
      [
        "v",
        "ari"
      ],
      [
        "ific",
        "ation"
      ],
      [
        "co",
        "st"
      ],
      [
        "val",
        "id"
      ],
      [
        "me",
        "tr"
      ],
      [
        "ma",
        "in"
      ],
      [
        "d",
        "r"
      ],
      [
        "c",
        "ent"
      ],
      [
        "ter",
        "n"
      ],
      [
        "ro",
        "u"
      ],
      [
        "be",
        "com"
      ],
      [
        "high",
        "-"
      ],
      [
        "t",
        "re"
      ],
      [
        "struct",
        "ure"
      ],
      [
        "a",
        "ce"
      ],
      [
        "rou",
        "gh"
      ],
      [
        "mo",
        "v"
      ],
      [
        "t",
        "ur"
      ],
      [
        "w",
        "ard"
      ],
      [
        "ic",
        "t"
      ],
      [
        "if",
        "y"
      ],
      [
        "s",
        "a"
      ],
      [
        "is",
        "ion"
      ],
      [
        "struct",
        "ural"
      ],
      [
        "Th",
        "at"
      ],
      [
        "e",
        "p"
      ],
      [
        "ar",
        "t"
      ],
      [
        "n",
        "ess"
      ],
      [
        "o",
        "per"
      ],
      [
        "b",
        "ack"
      ],
      [
        "ra",
        "ther"
      ],
      [
        "com",
        "m"
      ],
      [
        "ris",
        "k"
      ],
      [
        "ri",
        "but"
      ],
      [
        "is",
        "n't"
      ],
      [
        "org",
        "/"
      ],
      [
        "fo",
        "re"
      ],
      [
        "ren",
        "ce"
      ],
      [
        "w",
        "edding"
      ],
      [
        "po",
        "s"
      ],
      [
        "ap",
        "p"
      ],
      [
        ".",
        "org/"
      ],
      [
        "fail",
        "ure"
      ],
      [
        "ve",
        "l"
      ],
      [
        "202",
        "6"
      ],
      [
        "a",
        "im"
      ],
      [
        "ical",
        "ly"
      ],
      [
        "ver",
        "s"
      ],
      [
        "A",
        "I"
      ],
      [
        "ne",
        "w"
      ],
      [
        "f",
        "ir"
      ],
      [
        "ation",
        "al"
      ],
      [
        "ge",
        "st"
      ],
      [
        "co",
        "l"
      ],
      [
        "at",
        "ure"
      ],
      [
        "te",
        "mp"
      ],
      [
        "u",
        "res"
      ],
      [
        "ap",
        "pro"
      ],
      [
        "on",
        "-"
      ],
      [
        "e",
        "l"
      ],
      [
        "dist",
        "ribut"
      ],
      [
        "Wh",
        "en"
      ],
      [
        "mechan",
        "ism"
      ],
      [
        "g",
        "ro"
      ],
      [
        "mo",
        "ve"
      ],
      [
        "lay",
        "er"
      ],
      [
        "er",
        "ror"
      ],
      [
        "fun",
        "ction"
      ],
      [
        "t",
        "en"
      ],
      [
        "mark",
        "et"
      ],
      [
        "th",
        "rough"
      ],
      [
        "becom",
        "es"
      ],
      [
        "ph",
        "ys"
      ],
      [
        "st",
        "and"
      ],
      [
        "c",
        "lo"
      ],
      [
        "con",
        "d"
      ],
      [
        "as",
        "on"
      ],
      [
        "l",
        "at"
      ],
      [
        "the",
        "n"
      ],
      [
        "ent",
        "ial"
      ],
      [
        "with",
        "out"
      ],
      [
        "t",
        "ing"
      ],
      [
        "f",
        "ul"
      ],
      [
        "it",
        "e"
      ],
      [
        "lo",
        "ok"
      ],
      [
        "ed",
        ","
      ],
      [
        "g",
        "o"
      ],
      [
        "model",
        "s"
      ],
      [
        "cl",
        "aim"
      ],
      [
        "it",
        "self"
      ],
      [
        "s",
        "c"
      ],
      [
        "lo",
        "cal"
      ],
      [
        "wh",
        "o"
      ],
      [
        "e",
        "very"
      ],
      [
        "no",
        "ise"
      ],
      [
        "c",
        "le"
      ],
      [
        "l",
        "ong"
      ],
      [
        "w",
        "ind"
      ],
      [
        "pl",
        "an"
      ],
      [
        "x",
        "iv"
      ],
      [
        "can",
        "not"
      ],
      [
        "diffe",
        "rent"
      ],
      [
        "n",
        "et"
      ],
      [
        "su",
        "g"
      ],
      [
        "res",
        "s"
      ],
      [
        ".",
        "0"
      ],
      [
        "m",
        "ust"
      ],
      [
        "op",
        "tim"
      ],
      [
        "xiv",
        ".org/"
      ],
      [
        "sug",
        "gest"
      ],
      [
        "n",
        "am"
      ],
      [
        "at",
        "ch"
      ],
      [
        "abs",
        "/"
      ],
      [
        "ar",
        "xiv.org/"
      ],
      [
        "comp",
        "ut"
      ],
      [
        "https://",
        "arxiv.org/"
      ],
      [
        "https://arxiv.org/",
        "abs/"
      ],
      [
        "constra",
        "int"
      ],
      [
        "fi",
        "x"
      ],
      [
        "re",
        "search"
      ],
      [
        "st",
        "at"
      ],
      [
        "act",
        "ly"
      ],
      [
        "bas",
        "ed"
      ],
      [
        "i",
        "ent"
      ],
      [
        "f",
        "low"
      ],
      [
        "p",
        "u"
      ],
      [
        "m",
        "ul"
      ],
      [
        "c",
        "ed"
      ],
      [
        "v",
        "ol"
      ],
      [
        "ex",
        "ist"
      ],
      [
        "des",
        "ign"
      ],
      [
        "g",
        "ap"
      ],
      [
        "h",
        "and"
      ],
      [
        "e",
        "ld"
      ],
      [
        "cont",
        "ro"
      ],
      [
        "u",
        "se"
      ],
      [
        "re",
        "ly"
      ],
      [
        "ob",
        "serv"
      ],
      [
        "ing",
        ","
      ],
      [
        "su",
        "l"
      ],
      [
        "p",
        "ol"
      ],
      [
        "er",
        "g"
      ],
      [
        "h",
        "u"
      ],
      [
        "le",
        "ment"
      ],
      [
        "re",
        "ce"
      ],
      [
        "we",
        "ight"
      ],
      [
        "F",
        "or"
      ],
      [
        "st",
        "ill"
      ],
      [
        "c",
        "er"
      ],
      [
        "i",
        "ble"
      ],
      [
        "actual",
        "ly"
      ],
      [
        "eff",
        "ect"
      ],
      [
        "iz",
        "e"
      ],
      [
        "fra",
        "me"
      ],
      [
        "meas",
        "ure"
      ],
      [
        "re",
        "ason"
      ],
      [
        "1",
        "0"
      ],
      [
        "h",
        "ard"
      ],
      [
        "it",
        "."
      ],
      [
        "p",
        "red"
      ],
      [
        "re",
        "-"
      ],
      [
        "ve",
        "lo"
      ],
      [
        "tr",
        "ust"
      ],
      [
        "l",
        "a"
      ],
      [
        "act",
        "ion"
      ],
      [
        "re",
        "main"
      ],
      [
        "g",
        "er"
      ],
      [
        "su",
        "m"
      ],
      [
        "ic",
        "s"
      ],
      [
        "re",
        "sul"
      ],
      [
        "it",
        "ect"
      ],
      [
        "an",
        "y"
      ],
      [
        "distribut",
        "ion"
      ],
      [
        "ex",
        "ec"
      ],
      [
        "un",
        "d"
      ],
      [
        "sing",
        "le"
      ],
      [
        "ev",
        "al"
      ],
      [
        "prov",
        "id"
      ],
      [
        "n",
        "on-"
      ],
      [
        "ag",
        "ain"
      ],
      [
        "p",
        "ass"
      ],
      [
        "arch",
        "itect"
      ],
      [
        "pro",
        "cess"
      ],
      [
        "e",
        "m"
      ],
      [
        "does",
        "n't"
      ],
      [
        "of",
        "f"
      ],
      [
        "inte",
        "gr"
      ],
      [
        "tw",
        "o"
      ],
      [
        "e",
        "w"
      ],
      [
        "au",
        "th"
      ],
      [
        "agent",
        "s"
      ],
      [
        "pre",
        "c"
      ],
      [
        "hu",
        "man"
      ],
      [
        "al",
        "ly"
      ],
      [
        "ac",
        "ross"
      ],
      [
        "pa",
        "th"
      ],
      [
        "o",
        "s"
      ],
      [
        "ation",
        ","
      ],
      [
        "me",
        "m"
      ],
      [
        "su",
        "re"
      ],
      [
        "y",
        "."
      ],
      [
        "mo",
        "st"
      ],
      [
        "st",
        "u"
      ],
      [
        "eng",
        "ine"
      ],
      [
        "or",
        "s"
      ],
      [
        "cont",
        "ext"
      ],
      [
        "o",
        "se"
      ],
      [
        "le",
        "vel"
      ],
      [
        "d",
        "a"
      ],
      [
        "se",
        "qu"
      ],
      [
        "wind",
        "ow"
      ],
      [
        "v",
        "ent"
      ],
      [
        "ver",
        "ifi"
      ],
      [
        "se",
        "m"
      ],
      [
        "lo",
        "ad"
      ],
      [
        "s",
        "ide"
      ],
      [
        "are",
        "d"
      ],
      [
        "k",
        "now"
      ],
      [
        "l",
        "ation"
      ],
      [
        "lo",
        "op"
      ],
      [
        "ou",
        "pl"
      ],
      [
        "fa",
        "ce"
      ],
      [
        "l",
        "an"
      ],
      [
        "again",
        "st"
      ],
      [
        "i",
        "b"
      ],
      [
        "co",
        "de"
      ],
      [
        "h",
        "old"
      ],
      [
        "can",
        "'t"
      ],
      [
        "se",
        "e"
      ],
      [
        "tr",
        "i"
      ],
      [
        "est",
        "ion"
      ],
      [
        "ap",
        "er"
      ],
      [
        "trans",
        "ition"
      ],
      [
        "fi",
        "eld"
      ],
      [
        "l",
        "ess"
      ],
      [
        "R",
        "e"
      ],
      [
        "res",
        "p"
      ],
      [
        "f",
        "act"
      ],
      [
        "-",
        "-"
      ],
      [
        "ro",
        "p"
      ],
      [
        "co",
        "ll"
      ],
      [
        "d",
        "own"
      ],
      [
        "an",
        "al"
      ],
      [
        "cur",
        "rent"
      ],
      [
        "e",
        "ar"
      ],
      [
        "c",
        "u"
      ],
      [
        "sh",
        "ould"
      ],
      [
        "qu",
        "ant"
      ],
      [
        "rece",
        "ip"
      ],
      [
        "B",
        "ut"
      ],
      [
        "v",
        "1"
      ],
      [
        "frame",
        "work"
      ],
      [
        "s",
        "ist"
      ],
      [
        "ad",
        "d"
      ],
      [
        "scal",
        "e"
      ],
      [
        "o",
        "ther"
      ],
      [
        "ity",
        "."
      ],
      [
        "be",
        "fore"
      ],
      [
        "X",
        "iv"
      ],
      [
        "ar",
        "Xiv"
      ],
      [
        "p",
        "at"
      ],
      [
        "in",
        "depend"
      ],
      [
        "sp",
        "ace"
      ],
      [
        "s",
        "im"
      ],
      [
        "it",
        "ies"
      ],
      [
        "ur",
        "ing"
      ],
      [
        "whe",
        "ther"
      ],
      [
        "h",
        "o"
      ],
      [
        "gra",
        "ph"
      ],
      [
        "di",
        "re"
      ],
      [
        "b",
        "re"
      ],
      [
        "tra",
        "in"
      ],
      [
        "mul",
        "ti"
      ],
      [
        "v",
        "ir"
      ],
      [
        "s",
        "imp"
      ],
      [
        "to",
        "ward"
      ],
      [
        "ma",
        "k"
      ],
      [
        "it",
        "al"
      ],
      [
        "qu",
        "estion"
      ],
      [
        "l",
        "im"
      ],
      [
        "l",
        "ed"
      ],
      [
        "w",
        "rit"
      ],
      [
        "b",
        "er"
      ],
      [
        "le",
        "ct"
      ],
      [
        "ment",
        "s"
      ],
      [
        "at",
        "t"
      ],
      [
        "re",
        "li"
      ],
      [
        "p",
        "t"
      ],
      [
        "c",
        "us"
      ],
      [
        "The",
        "y"
      ],
      [
        "tre",
        "at"
      ],
      [
        "coun",
        "t"
      ],
      [
        "A",
        "n"
      ],
      [
        "per",
        "i"
      ],
      [
        "tur",
        "n"
      ],
      [
        "resp",
        "on"
      ],
      [
        "E",
        "x"
      ],
      [
        "log",
        "ic"
      ],
      [
        "le",
        "g"
      ],
      [
        "lo",
        "ck"
      ],
      [
        "M",
        "o"
      ],
      [
        ")",
        ","
      ],
      [
        "ev",
        "ent"
      ],
      [
        "w",
        "are"
      ],
      [
        "sy",
        "n"
      ],
      [
        "you",
        "'re"
      ],
      [
        "w",
        "ould"
      ],
      [
        "so",
        "me"
      ],
      [
        "chan",
        "ge"
      ],
      [
        "sp",
        "ect"
      ],
      [
        "pres",
        "ent"
      ],
      [
        "pat",
        "tern"
      ],
      [
        "in",
        "k"
      ],
      [
        "shift",
        "s"
      ],
      [
        "l",
        "es"
      ],
      [
        "fe",
        "rence"
      ],
      [
        "our",
        "ce"
      ],
      [
        "contro",
        "l"
      ],
      [
        "sh",
        "ow"
      ],
      [
        "ch",
        "ain"
      ],
      [
        "m",
        "ass"
      ],
      [
        "receip",
        "t"
      ],
      [
        "c",
        "ri"
      ],
      [
        "s",
        "co"
      ],
      [
        "to",
        "k"
      ],
      [
        "https://arxiv.org/abs/",
        "2"
      ],
      [
        "p",
        "aper"
      ],
      [
        "n",
        "ext"
      ],
      [
        "the",
        "ir"
      ],
      [
        "r",
        "ight"
      ],
      [
        "be",
        "ing"
      ],
      [
        "b",
        "al"
      ],
      [
        "fir",
        "st"
      ],
      [
        "ter",
        "min"
      ],
      [
        "v",
        "is"
      ],
      [
        "it",
        "ive"
      ],
      [
        "f",
        "il"
      ],
      [
        "net",
        "work"
      ],
      [
        "s",
        "che"
      ],
      [
        "appro",
        "ach"
      ],
      [
        "ul",
        "ar"
      ],
      [
        "the",
        "m"
      ],
      [
        "re",
        "cor"
      ],
      [
        "corre",
        "ct"
      ],
      [
        "stu",
        "dy"
      ],
      [
        "requi",
        "re"
      ],
      [
        "bre",
        "ak"
      ],
      [
        "iv",
        "es"
      ],
      [
        "ment",
        "."
      ],
      [
        "ic",
        "tion"
      ],
      [
        "ste",
        "ad"
      ],
      [
        "re",
        "f"
      ],
      [
        "er",
        "o"
      ],
      [
        "wh",
        "ile"
      ],
      [
        "I",
        "'"
      ],
      [
        "ver",
        "ification"
      ],
      [
        "st",
        "re"
      ],
      [
        "tra",
        "ct"
      ],
      [
        "vir",
        "on"
      ],
      [
        "bo",
        "th"
      ],
      [
        "out",
        "put"
      ],
      [
        "e",
        "qu"
      ],
      [
        "in",
        "ation"
      ],
      [
        ".",
        "1"
      ],
      [
        "pr",
        "im"
      ],
[...]
