{
  "version": "1.0",
  "truncation": null,
  "padding": null,
  "added_tokens": [
    {
      "id": 0,
      "content": "[UNK]",
      "single_word": false,
      "lstrip": false,
      "rstrip": false,
      "normalized": false,
      "special": true
    },
    {
      "id": 1,
      "content": "[PAD]",
      "single_word": false,
      "lstrip": false,
      "rstrip": false,
      "normalized": false,
      "special": true
    },
    {
      "id": 2,
      "content": "[BOS]",
      "single_word": false,
      "lstrip": false,
      "rstrip": false,
      "normalized": false,
      "special": true
    },
    {
      "id": 3,
      "content": "[EOS]",
      "single_word": false,
      "lstrip": false,
      "rstrip": false,
      "normalized": false,
      "special": true
    }
  ],
  "normalizer": null,
  "pre_tokenizer": {
    "type": "WhitespaceSplit"
  },
  "post_processor": null,
  "decoder": null,
  "model": {
    "type": "BPE",
    "dropout": null,
    "unk_token": "[UNK]",
    "continuing_subword_prefix": null,
    "end_of_word_suffix": null,
    "fuse_unk": false,
    "byte_fallback": false,
    "ignore_merges": false,
    "vocab": {
      "[UNK]": 0,
      "[PAD]": 1,
      "[BOS]": 2,
      "[EOS]": 3,
      "!": 4,
      "\"": 5,
      "#": 6,
      "$": 7,
      "%": 8,
      "&": 9,
      "'": 10,
      "(": 11,
      ")": 12,
      "*": 13,
      "+": 14,
      ",": 15,
      "-": 16,
      ".": 17,
      "/": 18,
      "0": 19,
      "1": 20,
      "2": 21,
      "3": 22,
      "4": 23,
      "5": 24,
      "6": 25,
      "7": 26,
      "8": 27,
      "9": 28,
      ":": 29,
      ";": 30,
      "<": 31,
      "=": 32,
      ">": 33,
      "?": 34,
      "@": 35,
      "A": 36,
      "B": 37,
      "C": 38,
      "D": 39,
      "E": 40,
      "F": 41,
      "G": 42,
      "H": 43,
      "I": 44,
      "J": 45,
      "K": 46,
      "L": 47,
      "M": 48,
      "N": 49,
      "O": 50,
      "P": 51,
      "Q": 52,
      "R": 53,
      "S": 54,
      "T": 55,
      "U": 56,
      "V": 57,
      "W": 58,
      "X": 59,
      "Y": 60,
      "Z": 61,
      "[": 62,
      "\\": 63,
      "]": 64,
      "^": 65,
      "_": 66,
      "`": 67,
      "a": 68,
      "b": 69,
      "c": 70,
      "d": 71,
      "e": 72,
      "f": 73,
      "g": 74,
      "h": 75,
      "i": 76,
      "j": 77,
      "k": 78,
      "l": 79,
      "m": 80,
      "n": 81,
      "o": 82,
      "p": 83,
      "q": 84,
      "r": 85,
      "s": 86,
      "t": 87,
      "u": 88,
      "v": 89,
      "w": 90,
      "x": 91,
      "y": 92,
      "z": 93,
      "{": 94,
      "|": 95,
      "}": 96,
      "~": 97,
      "£": 98,
      "¥": 99,
      "§": 100,
      "°": 101,
      "±": 102,
      "²": 103,
      "³": 104,
      "·": 105,
      "¹": 106,
      "»": 107,
      "È": 108,
      "×": 109,
      "Ú": 110,
      "Ü": 111,
      "ß": 112,
      "à": 113,
      "á": 114,
      "ã": 115,
      "ä": 116,
      "å": 117,
      "æ": 118,
      "ç": 119,
      "è": 120,
      "é": 121,
      "ê": 122,
      "ë": 123,
      "ì": 124,
      "í": 125,
      "î": 126,
      "ï": 127,
      "ñ": 128,
      "ó": 129,
      "ô": 130,
      "õ": 131,
      "ö": 132,
      "ù": 133,
      "ú": 134,
      "ü": 135,
      "ý": 136,
      "ā": 137,
      "ă": 138,
      "ć": 139,
      "Č": 140,
      "č": 141,
      "ē": 142,
      "ī": 143,
      "ı": 144,
      "ľ": 145,
      "Ł": 146,
      "ł": 147,
      "ń": 148,
      "ō": 149,
      "Ő": 150,
      "ő": 151,
      "ş": 152,
      "š": 153,
      "ũ": 154,
      "ū": 155,
      "ż": 156,
      "ǎ": 157,
      "ɣ": 158,
      "ɪ": 159,
      "Δ": 160,
      "Θ": 161,
      "Λ": 162,
      "ή": 163,
      "α": 164,
      "β": 165,
      "γ": 166,
      "ε": 167,
      "η": 168,
      "θ": 169,
      "λ": 170,
      "μ": 171,
      "ν": 172,
      "ρ": 173,
      "σ": 174,
      "τ": 175,
      "φ": 176,
      "χ": 177,
      "ω": 178,
      "ב": 179,
      "ה": 180,
      "ז": 181,
      "ם": 182,
      "ע": 183,
      "ר": 184,
      "ש": 185,
      "ת": 186,
      "ᵢ": 187,
      "ἀ": 188,
      "‐": 189,
      "‑": 190,
      "–": 191,
      "—": 192,
      "‘": 193,
      "’": 194,
      "“": 195,
      "”": 196,
      "„": 197,
      "•": 198,
      "…": 199,
      "‰": 200,
      "⁶": 201,
      "⁻": 202,
      "₁": 203,
      "₃": 204,
      "₇": 205,
      "€": 206,
      "₹": 207,
      "←": 208,
      "↑": 209,
      "→": 210,
      "↓": 211,
      "↔": 212,
      "∀": 213,
      "∅": 214,
      "∈": 215,
      "−": 216,
      "∘": 217,
      "∝": 218,
      "∩": 219,
      "≈": 220,
      "≠": 221,
      "≤": 222,
      "≥": 223,
      "≪": 224,
      "⋂": 225,
      "⋃": 226,
      "─": 227,
      "└": 228,
      "├": 229,
      "┤": 230,
      "▶": 231,
      "♪": 232,
      "⚡": 233,
      "✅": 234,
      "✓": 235,
      "✗": 236,
      "✨": 237,
      "❌": 238,
      "⟺": 239,
      "⭐": 240,
      "ⱼ": 241,
      "、": 242,
      "。": 243,
      "《": 244,
      "》": 245,
      "「": 246,
      "」": 247,
      "『": 248,
      "』": 249,
      "あ": 250,
      "い": 251,
      "う": 252,
      "え": 253,
      "お": 254,
      "か": 255,
      "が": 256,
      "き": 257,
      "く": 258,
      "け": 259,
      "げ": 260,
      "こ": 261,
      "さ": 262,
      "し": 263,
      "す": 264,
      "ず": 265,
      "そ": 266,
      "た": 267,
      "だ": 268,
      "ち": 269,
      "っ": 270,
      "つ": 271,
      "づ": 272,
      "て": 273,
      "で": 274,
      "と": 275,
      "ど": 276,
      "な": 277,
      "に": 278,
      "の": 279,
      "は": 280,
      "ば": 281,
      "ぶ": 282,
      "べ": 283,
      "ほ": 284,
      "ぼ": 285,
      "ま": 286,
      "み": 287,
      "め": 288,
      "も": 289,
      "や": 290,
      "よ": 291,
      "ら": 292,
      "り": 293,
      "る": 294,
      "れ": 295,
      "わ": 296,
      "を": 297,
      "ん": 298,
      "ア": 299,
      "ィ": 300,
      "イ": 301,
      "ウ": 302,
      "ェ": 303,
      "エ": 304,
      "オ": 305,
      "ク": 306,
      "グ": 307,
      "ゲ": 308,
      "コ": 309,
      "ゴ": 310,
      "サ": 311,
      "ザ": 312,
      "シ": 313,
      "ジ": 314,
      "ス": 315,
      "ズ": 316,
      "セ": 317,
      "ゼ": 318,
      "ソ": 319,
      "タ": 320,
      "チ": 321,
      "ッ": 322,
      "テ": 323,
      "デ": 324,
      "ト": 325,
      "ド": 326,
      "ナ": 327,
      "ニ": 328,
      "ノ": 329,
      "ハ": 330,
      "バ": 331,
      "パ": 332,
      "フ": 333,
      "プ": 334,
      "ム": 335,
      "ヤ": 336,
      "ュ": 337,
      "ユ": 338,
      "ラ": 339,
      "リ": 340,
      "ル": 341,
      "ロ": 342,
      "ン": 343,
      "・": 344,
      "ー": 345,
      "一": 346,
      "七": 347,
      "万": 348,
      "三": 349,
      "上": 350,
      "下": 351,
      "不": 352,
      "与": 353,
      "丑": 354,
      "且": 355,
      "世": 356,
      "丘": 357,
      "业": 358,
      "东": 359,
      "丢": 360,
      "两": 361,
      "严": 362,
      "丧": 363,
      "个": 364,
      "中": 365,
      "丰": 366,
      "临": 367,
      "为": 368,
      "主": 369,
      "丽": 370,
      "举": 371,
      "么": 372,
      "义": 373,
      "之": 374,
      "乎": 375,
      "乐": 376,
      "乘": 377,
      "乙": 378,
      "也": 379,
      "习": 380,
      "书": 381,
      "乱": 382,
      "了": 383,
      "予": 384,
      "争": 385,
      "事": 386,
      "二": 387,
      "于": 388,
      "云": 389,
      "互": 390,
      "五": 391,
      "些": 392,
      "交": 393,
      "亥": 394,
      "亦": 395,
      "产": 396,
      "享": 397,
      "亲": 398,
      "人": 399,
      "什": 400,
      "仁": 401,
      "仅": 402,
      "今": 403,
      "仍": 404,
      "从": 405,
      "仓": 406,
      "仕": 407,
      "他": 408,
      "付": 409,
      "代": 410,
      "令": 411,
      "以": 412,
      "仪": 413,
      "们": 414,
      "仮": 415,
      "仰": 416,
      "件": 417,
      "价": 418,
      "任": 419,
      "份": 420,
      "休": 421,
      "众": 422,
      "优": 423,
      "伙": 424,
      "会": 425,
      "伞": 426,
      "伟": 427,
      "传": 428,
      "伤": 429,
      "伴": 430,
      "似": 431,
      "但": 432,
      "位": 433,
      "低": 434,
      "住": 435,
      "体": 436,
      "何": 437,
      "作": 438,
      "你": 439,
      "佳": 440,
      "使": 441,
      "來": 442,
      "例": 443,
      "侏": 444,
      "依": 445,
      "価": 446,
      "侧": 447,
      "侯": 448,
      "便": 449,
      "保": 450,
      "信": 451,
      "修": 452,
      "俱": 453,
      "個": 454,
      "們": 455,
      "倒": 456,
      "候": 457,
      "倡": 458,
      "値": 459,
      "倦": 460,
      "值": 461,
      "假": 462,
      "偏": 463,
      "做": 464,
      "停": 465,
      "偶": 466,
      "偿": 467,
      "備": 468,
      "储": 469,
      "傪": 470,
      "傻": 471,
      "像": 472,
      "儒": 473,
      "儿": 474,
      "允": 475,
      "元": 476,
      "充": 477,
      "先": 478,
      "光": 479,
      "免": 480,
      "入": 481,
      "內": 482,
      "全": 483,
      "兩": 484,
      "八": 485,
      "公": 486,
      "六": 487,
      "兮": 488,
      "共": 489,
      "关": 490,
      "兴": 491,
      "其": 492,
      "典": 493,
      "兽": 494,
      "内": 495,
      "円": 496,
      "冈": 497,
      "册": 498,
      "再": 499,
      "写": 500,
      "军": 501,
      "农": 502,
      "决": 503,
      "冻": 504,
      "准": 505,
      "几": 506,
      "出": 507,
      "击": 508,
      "函": 509,
      "分": 510,
      "切": 511,
      "划": 512,
      "列": 513,
      "则": 514,
      "创": 515,
      "初": 516,
      "判": 517,
      "別": 518,
      "利": 519,
      "别": 520,
      "到": 521,
      "制": 522,
      "刷": 523,
      "刻": 524,
      "則": 525,
      "前": 526,
      "剩": 527,
      "創": 528,
      "力": 529,
      "劝": 530,
      "办": 531,
      "功": 532,
      "加": 533,
      "务": 534,
      "动": 535,
      "劳": 536,
      "動": 537,
      "募": 538,
      "勢": 539,
      "包": 540,
      "化": 541,
      "匪": 542,
      "匹": 543,
      "区": 544,
      "十": 545,
      "千": 546,
      "半": 547,
      "协": 548,
      "卑": 549,
      "卒": 550,
      "協": 551,
      "单": 552,
      "南": 553,
      "博": 554,
      "占": 555,
      "卫": 556,
      "危": 557,
      "即": 558,
      "却": 559,
      "卷": 560,
      "历": 561,
      "厌": 562,
      "厚": 563,
      "原": 564,
      "去": 565,
      "县": 566,
      "参": 567,
      "又": 568,
      "友": 569,
      "双": 570,
      "反": 571,
      "发": 572,
      "叔": 573,
      "取": 574,
      "受": 575,
      "变": 576,
      "口": 577,
      "古": 578,
      "句": 579,
      "另": 580,
      "只": 581,
      "叫": 582,
      "可": 583,
      "台": 584,
      "叱": 585,
      "史": 586,
      "叶": 587,
      "号": 588,
      "司": 589,
      "各": 590,
      "合": 591,
      "同": 592,
      "名": 593,
      "后": 594,
      "吐": 595,
      "向": 596,
      "吗": 597,
      "君": 598,
      "吞": 599,
      "否": 600,
      "吧": 601,
      "含": 602,
      "听": 603,
      "吹": 604,
      "吾": 605,
      "告": 606,
      "呢": 607,
      "周": 608,
      "味": 609,
      "呼": 610,
      "命": 611,
      "和": 612,
      "咤": 613,
      "咪": 614,
      "咮": 615,
      "咸": 616,
      "哀": 617,
      "品": 618,
      "哄": 619,
      "哉": 620,
      "响": 621,
      "哪": 622,
      "哲": 623,
      "唐": 624,
      "唯": 625,
      "唱": 626,
      "商": 627,
      "啊": 628,
      "問": 629,
      "善": 630,
      "喊": 631,
      "喜": 632,
      "單": 633,
      "営": 634,
      "喻": 635,
      "嘉": 636,
      "器": 637,
      "噪": 638,
      "囚": 639,
      "四": 640,
      "回": 641,
      "因": 642,
      "团": 643,
      "固": 644,
      "国": 645,
      "图": 646,
      "囿": 647,
      "土": 648,
      "圣": 649,
      "在": 650,
      "地": 651,
      "场": 652,
      "圾": 653,
      "坏": 654,
      "块": 655,
      "坛": 656,
      "垃": 657,
      "型": 658,
      "城": 659,
      "域": 660,
      "基": 661,
      "堂": 662,
      "堪": 663,
      "報": 664,
      "場": 665,
      "堵": 666,
      "塑": 667,
      "塔": 668,
      "境": 669,
      "墙": 670,
      "墨": 671,
      "士": 672,
      "壬": 673,
      "壮": 674,
      "声": 675,
      "売": 676,
      "处": 677,
      "备": 678,
      "変": 679,
      "复": 680,
      "夕": 681,
      "外": 682,
      "多": 683,
      "够": 684,
      "夠": 685,
      "大": 686,
      "天": 687,
      "太": 688,
      "夫": 689,
      "失": 690,
      "头": 691,
      "奇": 692,
      "套": 693,
      "女": 694,
      "好": 695,
      "如": 696,
      "妙": 697,
      "始": 698,
      "姓": 699,
      "姿": 700,
      "威": 701,
      "娈": 702,
      "婉": 703,
      "媾": 704,
      "子": 705,
      "孔": 706,
      "字": 707,
      "存": 708,
      "孟": 709,
      "季": 710,
      "学": 711,
      "它": 712,
      "守": 713,
      "安": 714,
      "完": 715,
      "宏": 716,
      "官": 717,
      "定": 718,
      "宝": 719,
      "实": 720,
      "审": 721,
      "客": 722,
      "室": 723,
      "宫": 724,
      "害": 725,
      "宴": 726,
      "家": 727,
      "容": 728,
      "宽": 729,
      "宿": 730,
      "寇": 731,
      "富": 732,
      "寒": 733,
      "察": 734,
      "實": 735,
      "对": 736,
      "寻": 737,
      "导": 738,
      "寿": 739,
      "封": 740,
      "射": 741,
      "将": 742,
      "專": 743,
      "尊": 744,
      "對": 745,
      "導": 746,
      "小": 747,
      "少": 748,
      "尔": 749,
      "尘": 750,
      "尝": 751,
      "就": 752,
      "尺": 753,
      "尽": 754,
      "尾": 755,
      "局": 756,
      "层": 757,
      "居": 758,
      "屋": 759,
      "展": 760,
      "層": 761,
      "山": 762,
      "岁": 763,
      "岂": 764,
      "峨": 765,
      "崩": 766,
      "嵌": 767,
      "巍": 768,
      "工": 769,
      "巧": 770,
      "差": 771,
      "己": 772,
      "已": 773,
      "巴": 774,
      "市": 775,
      "布": 776,
      "帆": 777,
      "师": 778,
      "帝": 779,
      "带": 780,
      "帮": 781,
      "帶": 782,
      "帷": 783,
      "常": 784,
      "幄": 785,
      "幕": 786,
      "干": 787,
      "平": 788,
      "年": 789,
      "并": 790,
      "幸": 791,
      "幽": 792,
      "广": 793,
      "庄": 794,
      "序": 795,
      "应": 796,
      "底": 797,
      "府": 798,
      "度": 799,
      "座": 800,
      "庭": 801,
      "庶": 802,
      "延": 803,
      "廷": 804,
      "建": 805,
      "开": 806,
      "异": 807,
      "弃": 808,
      "弄": 809,
      "式": 810,
      "弑": 811,
      "引": 812,
      "弟": 813,
      "张": 814,
      "弱": 815,
      "強": 816,
      "强": 817,
      "彌": 818,
      "归": 819,
      "当": 820,
      "形": 821,
      "彩": 822,
      "彼": 823,
      "往": 824,
      "征": 825,
      "径": 826,
      "待": 827,
      "很": 828,
      "律": 829,
      "後": 830,
      "徒": 831,
      "得": 832,
      "從": 833,
      "御": 834,
      "復": 835,
      "微": 836,
      "德": 837,
      "心": 838,
      "必": 839,
      "忍": 840,
      "志": 841,
      "忘": 842,
      "応": 843,
      "快": 844,
      "念": 845,
      "怀": 846,
      "态": 847,
      "怎": 848,
      "怒": 849,
      "思": 850,
      "性": 851,
      "总": 852,
      "息": 853,
      "恰": 854,
      "恶": 855,
      "悖": 856,
      "您": 857,
      "情": 858,
      "惊": 859,
      "惩": 860,
      "想": 861,
      "惹": 862,
      "愁": 863,
      "意": 864,
      "愚": 865,
      "感": 866,
      "愣": 867,
      "愿": 868,
      "態": 869,
      "慢": 870,
      "慣": 871,
      "慧": 872,
      "慰": 873,
      "懂": 874,
      "戈": 875,
      "成": 876,
      "我": 877,
      "或": 878,
      "战": 879,
      "截": 880,
      "户": 881,
      "房": 882,
      "所": 883,
      "手": 884,
      "才": 885,
      "打": 886,
      "扩": 887,
      "扫": 888,
      "扬": 889,
      "扰": 890,
      "扶": 891,
      "批": 892,
      "找": 893,
      "承": 894,
      "技": 895,
      "把": 896,
      "投": 897,
      "抖": 898,
      "抚": 899,
      "护": 900,
      "报": 901,
      "抽": 902,
      "拆": 903,
      "拉": 904,
      "拍": 905,
      "拒": 906,
      "招": 907,
      "拜": 908,
      "拠": 909,
      "择": 910,
      "括": 911,
      "拳": 912,
      "持": 913,
      "指": 914,
      "按": 915,
      "振": 916,
      "捉": 917,
      "捕": 918,
      "损": 919,
      "换": 920,
      "捨": 921,
      "据": 922,
      "授": 923,
      "掉": 924,
      "掌": 925,
      "排": 926,
      "探": 927,
      "接": 928,
      "控": 929,
      "推": 930,
      "描": 931,
      "提": 932,
      "換": 933,
      "握": 934,
      "揭": 935,
      "搜": 936,
      "搬": 937,
      "摆": 938,
      "摇": 939,
      "撑": 940,
      "撞": 941,
      "撤": 942,
      "播": 943,
      "擇": 944,
      "操": 945,
      "擬": 946,
      "支": 947,
      "收": 948,
      "改": 949,
      "攻": 950,
      "放": 951,
      "故": 952,
      "效": 953,
      "敌": 954,
      "敗": 955,
      "教": 956,
      "敢": 957,
      "敬": 958,
      "数": 959,
      "整": 960,
      "敵": 961,
      "文": 962,
      "斋": 963,
      "斗": 964,
      "料": 965,
      "断": 966,
      "斯": 967,
      "新": 968,
      "斷": 969,
      "方": 970,
      "於": 971,
      "施": 972,
      "旁": 973,
      "旃": 974,
      "旅": 975,
      "族": 976,
      "无": 977,
      "日": 978,
      "旧": 979,
      "旨": 980,
      "早": 981,
      "时": 982,
      "明": 983,
      "昏": 984,
      "易": 985,
      "星": 986,
      "映": 987,
      "昭": 988,
      "是": 989,
      "显": 990,
      "時": 991,
      "普": 992,
      "景": 993,
      "智": 994,
      "暗": 995,
      "暴": 996,
      "曰": 997,
      "曲": 998,
      "更": 999,
      "曹": 1000,
      "曾": 1001,
      "替": 1002,
      "最": 1003,
      "會": 1004,
      "有": 1005,
      "服": 1006,
      "望": 1007,
      "朝": 1008,
      "期": 1009,
      "未": 1010,
      "本": 1011,
      "术": 1012,
      "机": 1013,
      "朽": 1014,
      "杀": 1015,
      "权": 1016,
      "杆": 1017,
      "杉": 1018,
      "杏": 1019,
      "材": 1020,
      "村": 1021,
      "条": 1022,
      "来": 1023,
      "杯": 1024,
      "東": 1025,
      "板": 1026,
      "极": 1027,
      "构": 1028,
      "析": 1029,
      "林": 1030,
      "果": 1031,
      "架": 1032,
      "柏": 1033,
      "柔": 1034,
      "柞": 1035,
      "查": 1036,
      "柴": 1037,
      "标": 1038,
      "栈": 1039,
      "栏": 1040,
      "树": 1041,
      "校": 1042,
      "样": 1043,
      "核": 1044,
      "根": 1045,
      "格": 1046,
      "框": 1047,
      "案": 1048,
      "桑": 1049,
      "梁": 1050,
      "检": 1051,
      "楚": 1052,
      "楯": 1053,
      "極": 1054,
      "概": 1055,
      "構": 1056,
      "槛": 1057,
      "標": 1058,
      "模": 1059,
      "樣": 1060,
      "横": 1061,
      "機": 1062,
      "次": 1063,
      "欢": 1064,
      "欲": 1065,
      "歇": 1066,
      "歌": 1067,
      "歓": 1068,
      "止": 1069,
      "正": 1070,
      "此": 1071,
      "步": 1072,
      "武": 1073,
      "歧": 1074,
      "死": 1075,
      "残": 1076,
      "段": 1077,
      "殿": 1078,
      "毋": 1079,
      "母": 1080,
      "每": 1081,
      "比": 1082,
      "民": 1083,
      "气": 1084,
      "氣": 1085,
      "求": 1086,
      "汉": 1087,
      "汝": 1088,
      "決": 1089,
      "汽": 1090,
      "沉": 1091,
      "沒": 1092,
      "沙": 1093,
      "沛": 1094,
      "没": 1095,
      "沧": 1096,
      "河": 1097,
      "油": 1098,
      "治": 1099,
      "沾": 1100,
      "泄": 1101,
      "法": 1102,
      "注": 1103,
      "泰": 1104,
      "洁": 1105,
      "洗": 1106,
      "洛": 1107,
      "活": 1108,
      "派": 1109,
      "流": 1110,
      "测": 1111,
      "浑": 1112,
      "浓": 1113,
      "浮": 1114,
      "海": 1115,
      "消": 1116,
      "涯": 1117,
      "淀": 1118,
      "淋": 1119,
      "淡": 1120,
      "淫": 1121,
      "深": 1122,
      "淳": 1123,
      "混": 1124,
      "清": 1125,
      "済": 1126,
      "渊": 1127,
      "渡": 1128,
      "渴": 1129,
      "游": 1130,
      "湑": 1131,
      "湿": 1132,
      "源": 1133,
      "準": 1134,
      "溯": 1135,
      "滋": 1136,
      "滑": 1137,
      "满": 1138,
      "滤": 1139,
      "漂": 1140,
      "漆": 1141,
      "漏": 1142,
      "演": 1143,
      "漫": 1144,
      "潮": 1145,
      "濡": 1146,
      "火": 1147,
      "灭": 1148,
      "灯": 1149,
      "炫": 1150,
      "点": 1151,
      "為": 1152,
      "烂": 1153,
      "烈": 1154,
      "焉": 1155,
      "無": 1156,
      "然": 1157,
      "煌": 1158,
      "照": 1159,
      "燕": 1160,
      "營": 1161,
      "爬": 1162,
      "爱": 1163,
      "片": 1164,
      "牌": 1165,
      "牡": 1166,
      "物": 1167,
      "特": 1168,
      "状": 1169,
      "犹": 1170,
      "狀": 1171,
      "独": 1172,
      "猎": 1173,
      "獨": 1174,
      "率": 1175,
      "王": 1176,
      "玩": 1177,
      "环": 1178,
      "现": 1179,
      "現": 1180,
      "球": 1181,
      "理": 1182,
      "琴": 1183,
      "環": 1184,
      "瓶": 1185,
      "甚": 1186,
      "生": 1187,
      "產": 1188,
      "用": 1189,
      "田": 1190,
      "由": 1191,
      "画": 1192,
      "界": 1193,
      "留": 1194,
      "番": 1195,
      "當": 1196,
      "疙": 1197,
      "疼": 1198,
      "疾": 1199,
      "病": 1200,
      "瘩": 1201,
      "発": 1202,
      "登": 1203,
      "發": 1204,
      "百": 1205,
      "的": 1206,
      "皆": 1207,
      "皇": 1208,
      "皮": 1209,
      "益": 1210,
      "盖": 1211,
      "盛": 1212,
      "盟": 1213,
      "目": 1214,
      "直": 1215,
      "相": 1216,
      "盾": 1217,
      "看": 1218,
      "真": 1219,
      "着": 1220,
      "矛": 1221,
      "矣": 1222,
      "知": 1223,
      "短": 1224,
      "矮": 1225,
      "矰": 1226,
      "码": 1227,
      "破": 1228,
      "础": 1229,
      "硕": 1230,
      "硬": 1231,
      "确": 1232,
      "碍": 1233,
      "碎": 1234,
      "確": 1235,
      "礎": 1236,
      "示": 1237,
      "礼": 1238,
      "社": 1239,
      "祀": 1240,
      "祋": 1241,
      "神": 1242,
      "祭": 1243,
      "祸": 1244,
      "禁": 1245,
      "福": 1246,
      "离": 1247,
      "禽": 1248,
      "私": 1249,
      "种": 1250,
      "科": 1251,
      "秒": 1252,
      "秦": 1253,
      "秩": 1254,
      "积": 1255,
      "称": 1256,
      "移": 1257,
      "程": 1258,
      "稍": 1259,
      "種": 1260,
      "稽": 1261,
      "穩": 1262,
      "空": 1263,
      "穿": 1264,
      "突": 1265,
      "窃": 1266,
      "立": 1267,
      "竖": 1268,
      "站": 1269,
      "竞": 1270,
      "端": 1271,
      "竹": 1272,
      "笑": 1273,
      "笔": 1274,
      "第": 1275,
      "等": 1276,
      "答": 1277,
      "策": 1278,
      "筹": 1279,
      "签": 1280,
      "简": 1281,
      "算": 1282,
      "管": 1283,
      "箭": 1284,
      "篇": 1285,
      "築": 1286,
      "籍": 1287,
      "类": 1288,
      "粹": 1289,
      "精": 1290,
      "糊": 1291,
      "系": 1292,
      "約": 1293,
      "級": 1294,
      "索": 1295,
      "累": 1296,
      "組": 1297,
      "経": 1298,
      "結": 1299,
      "給": 1300,
      "統": 1301,
      "經": 1302,
      "継": 1303,
      "続": 1304,
      "緣": 1305,
      "縛": 1306,
      "繁": 1307,
      "繞": 1308,
      "繼": 1309,
      "續": 1310,
      "红": 1311,
      "级": 1312,
      "纪": 1313,
      "纯": 1314,
      "纵": 1315,
      "纶": 1316,
      "纷": 1317,
      "线": 1318,
      "组": 1319,
      "细": 1320,
      "终": 1321,
      "经": 1322,
      "结": 1323,
      "给": 1324,
      "绝": 1325,
      "统": 1326,
      "继": 1327,
      "续": 1328,
      "维": 1329,
      "编": 1330,
      "缘": 1331,
      "缛": 1332,
      "缩": 1333,
      "缺": 1334,
      "网": 1335,
      "罔": 1336,
      "罕": 1337,
      "罚": 1338,
      "置": 1339,
      "美": 1340,
      "群": 1341,
      "義": 1342,
      "習": 1343,
      "翼": 1344,
      "耀": 1345,
      "老": 1346,
      "考": 1347,
      "者": 1348,
      "耆": 1349,
      "而": 1350,
      "耳": 1351,
      "聊": 1352,
      "联": 1353,
      "聚": 1354,
      "聪": 1355,
      "股": 1356,
      "肯": 1357,
      "育": 1358,
      "肴": 1359,
      "背": 1360,
      "胡": 1361,
      "胸": 1362,
      "能": 1363,
      "脑": 1364,
      "脚": 1365,
      "脸": 1366,
      "臆": 1367,
      "臣": 1368,
      "自": 1369,
      "至": 1370,
      "致": 1371,
      "與": 1372,
      "舍": 1373,
      "舝": 1374,
      "舞": 1375,
      "良": 1376,
      "色": 1377,
      "艺": 1378,
      "节": 1379,
      "芯": 1380,
      "花": 1381,
      "芾": 1382,
      "苏": 1383,
      "苑": 1384,
      "苗": 1385,
      "苛": 1386,
      "若": 1387,
      "苦": 1388,
      "英": 1389,
      "范": 1390,
      "草": 1391,
      "荒": 1392,
      "荟": 1393,
      "荡": 1394,
      "荫": 1395,
      "落": 1396,
      "著": 1397,
      "葬": 1398,
      "蓬": 1399,
      "蔚": 1400,
      "蕉": 1401,
      "蕹": 1402,
      "薪": 1403,
      "藏": 1404,
      "藤": 1405,
      "虎": 1406,
      "處": 1407,
      "虚": 1408,
      "號": 1409,
      "虽": 1410,
      "蛮": 1411,
      "蜕": 1412,
      "蝴": 1413,
      "蝶": 1414,
      "血": 1415,
      "行": 1416,
      "补": 1417,
      "表": 1418,
      "衰": 1419,
      "袋": 1420,
      "被": 1421,
      "裂": 1422,
      "装": 1423,
      "補": 1424,
      "裡": 1425,
      "西": 1426,
      "要": 1427,
      "覆": 1428,
      "見": 1429,
      "規": 1430,
      "観": 1431,
      "覺": 1432,
      "觀": 1433,
      "见": 1434,
      "观": 1435,
      "规": 1436,
      "视": 1437,
      "觉": 1438,
      "觏": 1439,
      "角": 1440,
      "解": 1441,
      "觥": 1442,
      "触": 1443,
      "言": 1444,
      "計": 1445,
      "討": 1446,
      "記": 1447,
      "設": 1448,
      "許": 1449,
      "訴": 1450,
      "証": 1451,
      "試": 1452,
      "話": 1453,
      "誉": 1454,
      "認": 1455,
      "語": 1456,
      "誤": 1457,
      "說": 1458,
      "説": 1459,
      "誰": 1460,
      "課": 1461,
      "調": 1462,
      "論": 1463,
      "謝": 1464,
      "識": 1465,
      "警": 1466,
      "議": 1467,
      "變": 1468,
      "讓": 1469,
      "计": 1470,
      "认": 1471,
      "让": 1472,
      "训": 1473,
      "议": 1474,
      "记": 1475,
      "讲": 1476,
      "许": 1477,
      "论": 1478,
      "讽": 1479,
      "设": 1480,
      "访": 1481,
      "证": 1482,
      "评": 1483,
      "识": 1484,
      "诉": 1485,
      "诊": 1486,
      "词": 1487,
      "诗": 1488,
      "话": 1489,
      "诞": 1490,
      "该": 1491,
      "语": 1492,
      "诲": 1493,
      "说": 1494,
      "请": 1495,
      "诺": 1496,
      "读": 1497,
      "课": 1498,
      "谁": 1499,
      "调": 1500,
      "谈": 1501,
      "谋": 1502,
      "谏": 1503,
      "谓": 1504,
      "谢": 1505,
      "谬": 1506,
      "谱": 1507,
      "谷": 1508,
      "豆": 1509,
      "象": 1510,
      "貌": 1511,
      "負": 1512,
      "費": 1513,
      "資": 1514,
      "質": 1515,
      "负": 1516,
      "财": 1517,
      "货": 1518,
      "质": 1519,
      "贯": 1520,
      "贱": 1521,
      "贵": 1522,
      "费": 1523,
      "贾": 1524,
      "资": 1525,
      "赋": 1526,
      "赞": 1527,
      "赠": 1528,
      "赤": 1529,
      "走": 1530,
      "起": 1531,
      "越": 1532,
      "趟": 1533,
      "趣": 1534,
      "足": 1535,
      "跑": 1536,
      "跟": 1537,
      "跨": 1538,
      "路": 1539,
      "跳": 1540,
      "践": 1541,
      "身": 1542,
      "較": 1543,
      "輸": 1544,
      "车": 1545,
      "轨": 1546,
      "转": 1547,
      "轮": 1548,
      "软": 1549,
      "轰": 1550,
      "轻": 1551,
      "轼": 1552,
      "载": 1553,
      "辆": 1554,
      "辈": 1555,
      "辉": 1556,
      "辍": 1557,
      "辑": 1558,
      "输": 1559,
      "辔": 1560,
      "辞": 1561,
      "辩": 1562,
      "辰": 1563,
      "边": 1564,
      "辽": 1565,
      "达": 1566,
      "迁": 1567,
      "过": 1568,
      "迎": 1569,
      "运": 1570,
      "近": 1571,
      "还": 1572,
      "这": 1573,
      "进": 1574,
      "远": 1575,
      "连": 1576,
      "述": 1577,
      "追": 1578,
      "退": 1579,
      "送": 1580,
      "适": 1581,
      "选": 1582,
      "透": 1583,
      "递": 1584,
      "逗": 1585,
      "這": 1586,
      "通": 1587,
      "逝": 1588,
      "造": 1589,
      "連": 1590,
      "週": 1591,
      "逻": 1592,
      "遂": 1593,
      "遇": 1594,
      "運": 1595,
      "遍": 1596,
      "過": 1597,
      "道": 1598,
      "達": 1599,
      "遗": 1600,
      "遮": 1601,
      "選": 1602,
      "避": 1603,
      "還": 1604,
      "邊": 1605,
      "邑": 1606,
      "那": 1607,
      "邦": 1608,
      "邪": 1609,
      "邮": 1610,
      "郎": 1611,
      "部": 1612,
      "都": 1613,
      "配": 1614,
      "酒": 1615,
      "酬": 1616,
      "酷": 1617,
      "醒": 1618,
      "采": 1619,
      "里": 1620,
      "重": 1621,
      "野": 1622,
      "量": 1623,
      "金": 1624,
      "錯": 1625,
      "鍵": 1626,
      "钓": 1627,
      "钟": 1628,
      "链": 1629,
      "锁": 1630,
      "锋": 1631,
      "错": 1632,
      "键": 1633,
      "長": 1634,
      "长": 1635,
      "開": 1636,
      "間": 1637,
      "關": 1638,
      "门": 1639,
      "问": 1640,
      "间": 1641,
      "闻": 1642,
      "阅": 1643,
      "阜": 1644,
      "阱": 1645,
      "防": 1646,
      "阳": 1647,
      "阴": 1648,
      "阶": 1649,
      "阻": 1650,
      "阿": 1651,
      "附": 1652,
      "际": 1653,
      "陈": 1654,
      "降": 1655,
      "限": 1656,
      "陕": 1657,
      "陛": 1658,
      "陟": 1659,
      "陣": 1660,
      "险": 1661,
      "陷": 1662,
      "随": 1663,
      "障": 1664,
      "隮": 1665,
      "隱": 1666,
      "难": 1667,
      "雅": 1668,
      "集": 1669,
      "雍": 1670,
      "離": 1671,
      "雨": 1672,
      "需": 1673,
      "震": 1674,
      "露": 1675,
      "青": 1676,
      "静": 1677,
      "靜": 1678,
      "非": 1679,
      "靠": 1680,
      "面": 1681,
      "革": 1682,
      "韩": 1683,
      "音": 1684,
      "頸": 1685,
      "頻": 1686,
      "顆": 1687,
      "題": 1688,
      "類": 1689,
      "顯": 1690,
      "顶": 1691,
      "顷": 1692,
      "顾": 1693,
      "颂": 1694,
      "预": 1695,
      "领": 1696,
      "颈": 1697,
      "频": 1698,
      "颗": 1699,
      "题": 1700,
      "颠": 1701,
      "風": 1702,
      "风": 1703,
      "飘": 1704,
      "飞": 1705,
      "食": 1706,
      "饥": 1707,
      "饮": 1708,
      "馆": 1709,
      "騑": 1710,
      "驅": 1711,
      "驗": 1712,
      "马": 1713,
      "驰": 1714,
      "驶": 1715,
      "驾": 1716,
      "骄": 1717,
      "骋": 1718,
      "验": 1719,
      "骤": 1720,
      "骨": 1721,
      "體": 1722,
      "高": 1723,
      "髡": 1724,
      "鱼": 1725,
      "鲁": 1726,
      "鲜": 1727,
      "鷮": 1728,
      "鸟": 1729,
      "鸡": 1730,
      "鹈": 1731,
      "鹿": 1732,
      "麋": 1733,
      "黄": 1734,
      "默": 1735,
      "點": 1736,
      "齐": 1737,
      "龙": 1738,
      "️": 1739,
      "！": 1740,
      "（": 1741,
      "）": 1742,
      "，": 1743,
      "：": 1744,
      "；": 1745,
      "？": 1746,
      "�": 1747,
      "🌿": 1748,
      "🎤": 1749,
      "🎵": 1750,
      "💳": 1751,
      "📋": 1752,
      "📌": 1753,
      "📚": 1754,
      "📷": 1755,
      "🔊": 1756,
      "🔗": 1757,
      "🔧": 1758,
      "🖖": 1759,
      "🛡": 1760,
      "🛤": 1761,
      "🛰": 1762,
      "🤝": 1763,
      "🤣": 1764,
      "🦋": 1765,
      "🦞": 1766,
      "th": 1767,
      "in": 1768,
      "re": 1769,
      "the": 1770,
      "on": 1771,
      "at": 1772,
      "en": 1773,
      "er": 1774,
      "an": 1775,
      "st": 1776,
      "or": 1777,
      "al": 1778,
      "is": 1779,
      "it": 1780,
      "ing": 1781,
      "ion": 1782,
      "es": 1783,
      "ed": 1784,
      "ic": 1785,
      "ar": 1786,
      "ro": 1787,
      "to": 1788,
      "ou": 1789,
      "ent": 1790,
      "ct": 1791,
      "of": 1792,
      "he": 1793,
      "as": 1794,
      "le": 1795,
      "de": 1796,
      "se": 1797,
      "and": 1798,
      "ation": 1799,
      "co": 1800,
      "ch": 1801,
      "il": 1802,
      "me": 1803,
      "ce": 1804,
      "ra": 1805,
      "no": 1806,
      "ve": 1807,
      "ly": 1808,
      "lo": 1809,
      "if": 1810,
      "for": 1811,
      "ig": 1812,
      "The": 1813,
      "be": 1814,
      "pro": 1815,
      "mo": 1816,
      "ut": 1817,
      "con": 1818,
      "ab": 1819,
      "ver": 1820,
      "that": 1821,
      "ag": 1822,
      "mp": 1823,
      "ity": 1824,
      "un": 1825,
      "su": 1826,
      "ex": 1827,
      "id": 1828,
      "ap": 1829,
      "ol": 1830,
      "not": 1831,
      "int": 1832,
      "we": 1833,
      "ate": 1834,
      "res": 1835,
      "ad": 1836,
      "im": 1837,
      "ur": 1838,
      "ment": 1839,
      "ac": 1840,
      "qu": 1841,
      "tr": 1842,
      "are": 1843,
      "ist": 1844,
      "sp": 1845,
      "ust": 1846,
      "you": 1847,
      "act": 1848,
      "s.": 1849,
      "et": 1850,
      "ul": 1851,
      "ay": 1852,
      "te": 1853,
      "sh": 1854,
      "wh": 1855,
      "do": 1856,
      "ure": 1857,
      "ter": 1858,
      "ith": 1859,
      "del": 1860,
      "ive": 1861,
      "per": 1862,
      "'s": 1863,
      "ess": 1864,
      "ma": 1865,
      "po": 1866,
      "igh": 1867,
      "iv": 1868,
      "ne": 1869,
      "with": 1870,
      "ical": 1871,
      "str": 1872,
      "model": 1873,
      "can": 1874,
      "but": 1875,
      "rom": 1876,
      "s,": 1877,
      "fe": 1878,
      "pl": 1879,
      "from": 1880,
      "ction": 1881,
      "ir": 1882,
      "iz": 1883,
      "ge": 1884,
      "out": 1885,
      "ec": 1886,
      "ign": 1887,
      "ste": 1888,
      "wor": 1889,
      "us": 1890,
      "ine": 1891,
      "comp": 1892,
      "Th": 1893,
      "ow": 1894,
      "ren": 1895,
      "ility": 1896,
      "by": 1897,
      "ding": 1898,
      "li": 1899,
      "ant": 1900,
      "au": 1901,
      "ke": 1902,
      "tra": 1903,
      "agent": 1904,
      "op": 1905,
      "'t": 1906,
      "sy": 1907,
      "ific": 1908,
      "ti": 1909,
      "able": 1910,
      "one": 1911,
      "red": 1912,
      "ence": 1913,
      "ri": 1914,
      "fa": 1915,
      "end": 1916,
      "cl": 1917,
      "com": 1918,
      "ther": 1919,
      "ld": 1920,
      "cal": 1921,
      "If": 1922,
      "oun": 1923,
      "der": 1924,
      "ans": 1925,
      "stru": 1926,
      "um": 1927,
      "ck": 1928,
      "par": 1929,
      "am": 1930,
      "**": 1931,
      "ect": 1932,
      "form": 1933,
      "ev": 1934,
      "work": 1935,
      "ard": 1936,
      "our": 1937,
      "ight": 1938,
      "just": 1939,
      "ability": 1940,
      "ain": 1941,
      "this": 1942,
      "ph": 1943,
      "ial": 1944,
      "ill": 1945,
      "It": 1946,
      "sign": 1947,
      "ip": 1948,
      "chan": 1949,
      "stem": 1950,
      "age": 1951,
      "ces": 1952,
      "bet": 1953,
      "cont": 1954,
      "low": 1955,
      "ual": 1956,
      "system": 1957,
      "cor": 1958,
      "whe": 1959,
      "ame": 1960,
      "cy": 1961,
      "ll": 1962,
      "ble": 1963,
      "20": 1964,
      "pre": 1965,
      "This": 1966,
      "ated": 1967,
      "ass": 1968,
      "tt": 1969,
      "ies": 1970,
      "bo": 1971,
      "che": 1972,
      "ition": 1973,
      "arch": 1974,
      "spec": 1975,
      "ary": 1976,
      "ens": 1977,
      "ack": 1978,
      "pr": 1979,
      "In": 1980,
      "ance": 1981,
      "ift": 1982,
      "struct": 1983,
      "vi": 1984,
      "all": 1985,
      "n't": 1986,
      "dat": 1987,
      "est": 1988,
      "log": 1989,
      "so": 1990,
      "du": 1991,
      "ha": 1992,
      "ext": 1993,
      "its": 1994,
      "ser": 1995,
      "requ": 1996,
      "di": 1997,
      "inter": 1998,
      "s:": 1999,
      "imp": 2000,
      "fi": 2001,
      "dep": 2002,
      "des": 2003,
      "gra": 2004,
      "bu": 2005,
      "ach": 2006,
      "up": 2007,
      "tion": 2008,
      "mar": 2009,
      "ates": 2010,
      "man": 2011,
      "does": 2012,
      "dist": 2013,
      "ween": 2014,
      "rent": 2015,
      "val": 2016,
      "between": 2017,
      "dis": 2018,
      "read": 2019,
      "Wh": 2020,
      "ort": 2021,
      "ise": 2022,
      "ers": 2023,
      "than": 2024,
      "fail": 2025,
      "where": 2026,
      "ould": 2027,
      "has": 2028,
      "gen": 2029,
      "ory": 2030,
      "cap": 2031,
      "high": 2032,
      "ob": 2033,
      "ound": 2034,
      "trans": 2035,
      "mat": 2036,
      "cre": 2037,
      "ta": 2038,
      "cur": 2039,
      "cess": 2040,
      "ss": 2041,
      "ase": 2042,
      "ind": 2043,
      "ong": 2044,
      "##": 2045,
      "into": 2046,
      "reg": 2047,
      "state": 2048,
      "specific": 2049,
      "real": 2050,
      "ef": 2051,
      "shift": 2052,
      "gh": 2053,
      "how": 2054,
      "fra": 2055,
      "ty": 2056,
      "data": 2057,
      "time": 2058,
      "was": 2059,
      "way": 2060,
      "fo": 2061,
      "fun": 2062,
      "ency": 2063,
      "ot": 2064,
      "gu": 2065,
      "ys": 2066,
      "very": 2067,
      "om": 2068,
      "over": 2069,
      "sel": 2070,
      "dif": 2071,
      "ause": 2072,
      "ural": 2073,
      "line": 2074,
      "sion": 2075,
      "sing": 2076,
      "ution": 2077,
      "dy": 2078,
      "We": 2079,
      "pres": 2080,
      "test": 2081,
      "ization": 2082,
      "prov": 2083,
      "202": 2084,
      "es.": 2085,
      "only": 2086,
      "ak": 2087,
      "ps:": 2088,
      "htt": 2089,
      "depend": 2090,
      "//": 2091,
      "ice": 2092,
      "https:": 2093,
      "ich": 2094,
      "https://": 2095,
      "dec": 2096,
      "mark": 2097,
      "fl": 2098,
      "ue": 2099,
      "stra": 2100,
      "ating": 2101,
      "ast": 2102,
      "run": 2103,
      "fin": 2104,
      "dow": 2105,
      "cause": 2106,
      "mis": 2107,
      "ifi": 2108,
      "serv": 2109,
      "ous": 2110,
      "pe": 2111,
      "ing.": 2112,
      "ations": 2113,
      "same": 2114,
      "min": 2115,
      "put": 2116,
      "requi": 2117,
      "edding": 2118,
      "self": 2119,
      "more": 2120,
      "ources": 2121,
      "what": 2122,
      "check": 2123,
      "ts": 2124,
      "ok": 2125,
      "ree": 2126,
      "have": 2127,
      "sol": 2128,
      "ed.": 2129,
      "blem": 2130,
      "because": 2131,
      "gr": 2132,
      "actual": 2133,
      "problem": 2134,
      "exp": 2135,
      "00": 2136,
      "ari": 2137,
      "under": 2138,
      "corre": 2139,
      "ide": 2140,
      "ning": 2141,
      "mon": 2142,
      "sur": 2143,
      "ident": 2144,
      "point": 2145,
      "need": 2146,
      "tim": 2147,
      "signal": 2148,
      "'re": 2149,
      "rit": 2150,
      "ator": 2151,
      "port": 2152,
      "they": 2153,
      "scal": 2154,
      "when": 2155,
      "produ": 2156,
      "av": 2157,
      "ification": 2158,
      "get": 2159,
      "ile": 2160,
      "these": 2161,
      "You": 2162,
      "gener": 2163,
      "which": 2164,
      "ism": 2165,
      "ject": 2166,
      "Sources": 2167,
      "mechan": 2168,
      "diffe": 2169,
      "abs": 2170,
      "fect": 2171,
      "buil": 2172,
      "bl": 2173,
      "inte": 2174,
      "tic": 2175,
      "thing": 2176,
      "search": 2177,
      "set": 2178,
      "org": 2179,
      "br": 2180,
      "eng": 2181,
      "ish": 2182,
      "about": 2183,
      "tw": 2184,
      "now": 2185,
      "es,": 2186,
      "meas": 2187,
      "it's": 2188,
      "sub": 2189,
      "od": 2190,
      "your": 2191,
      "ative": 2192,
      "like": 2193,
      "ror": 2194,
      "bas": 2195,
      "ision": 2196,
      "old": 2197,
      "ris": 2198,
      "tool": 2199,
      "coun": 2200,
      "ized": 2201,
      "ace": 2202,
      "ry": 2203,
      "lay": 2204,
      "ask": 2205,
      "main": 2206,
      "ross": 2207,
      "ation.": 2208,
      "constra": 2209,
      "istic": 2210,
      "will": 2211,
      "comple": 2212,
      "ting": 2213,
      "vari": 2214,
      "bound": 2215,
      "cost": 2216,
      "rou": 2217,
      "metr": 2218,
      "tur": 2219,
      "must": 2220,
      "cent": 2221,
      "dr": 2222,
      "fic": 2223,
      "tre": 2224,
      "rough": 2225,
      "ward": 2226,
      "pos": 2227,
      "high-": 2228,
      "without": 2229,
      "valid": 2230,
      "structure": 2231,
      "becom": 2232,
      "aim": 2233,
      "pa": 2234,
      "mov": 2235,
      "ify": 2236,
      "oper": 2237,
      "tern": 2238,
      "rather": 2239,
      "structural": 2240,
      "ness": 2241,
      "comm": 2242,
      "That": 2243,
      "risk": 2244,
      "fir": 2245,
      "back": 2246,
      "own": 2247,
      "ribut": 2248,
      "ep": 2249,
      "org/": 2250,
      "lat": 2251,
      "sa": 2252,
      "ically": 2253,
      ".org/": 2254,
      "rence": 2255,
      "el": 2256,
      "gro": 2257,
      "isn't": 2258,
      "ature": 2259,
      "vel": 2260,
      "app": 2261,
      "wedding": 2262,
      "appro": 2263,
      "failure": 2264,
      "fore": 2265,
      "ict": 2266,
      "When": 2267,
      "vers": 2268,
      "gest": 2269,
      "claim": 2270,
      "new": 2271,
      "ful": 2272,
      "temp": 2273,
      "cond": 2274,
      "ational": 2275,
      "ures": 2276,
      "mechanism": 2277,
      "ten": 2278,
      "through": 2279,
      "on-": 2280,
      "AI": 2281,
      "col": 2282,
      "distribut": 2283,
      "ed,": 2284,
      "move": 2285,
      "art": 2286,
      "function": 2287,
      "then": 2288,
      "ress": 2289,
      "market": 2290,
      "phys": 2291,
      "stand": 2292,
      "error": 2293,
      "becomes": 2294,
      "itself": 2295,
      "layer": 2296,
      "ient": 2297,
      "who": 2298,
      "ason": 2299,
      "ential": 2300,
      "cannot": 2301,
      "clo": 2302,
      "cle": 2303,
      "it.": 2304,
      "actly": 2305,
      "models": 2306,
      "nam": 2307,
      "ing,": 2308,
      "look": 2309,
      "sc": 2310,
      "noise": 2311,
      "different": 2312,
      "go": 2313,
      "local": 2314,
      "xiv": 2315,
      "long": 2316,
      "comput": 2317,
      "ite": 2318,
      "net": 2319,
      "plan": 2320,
      "atch": 2321,
      ".0": 2322,
      "every": 2323,
      "sug": 2324,
      "win": 2325,
      "xiv.org/": 2326,
      "2026": 2327,
      "suggest": 2328,
      "use": 2329,
      "optim": 2330,
      "abs/": 2331,
      "arxiv.org/": 2332,
      "https://arxiv.org/": 2333,
      "vol": 2334,
      "https://arxiv.org/abs/": 2335,
      "research": 2336,
      "any": 2337,
      "wer": 2338,
      "based": 2339,
      "flow": 2340,
      "exist": 2341,
      "stat": 2342,
      "constraint": 2343,
      "For": 2344,
      "add": 2345,
      "contro": 2346,
      "pu": 2347,
      "observ": 2348,
      "cer": 2349,
      "mul": 2350,
      "hand": 2351,
      "sul": 2352,
      "ced": 2353,
      "gap": 2354,
      "design": 2355,
      "actually": 2356,
      "re-": 2357,
      "rely": 2358,
      "remain": 2359,
      "effect": 2360,
      "erg": 2361,
      "measure": 2362,
      "eld": 2363,
      "eval": 2364,
      "rece": 2365,
      "lement": 2366,
      "weight": 2367,
      "ize": 2368,
      "frame": 2369,
      "see": 2370,
      "pol": 2371,
      "reason": 2372,
      "velo": 2373,
      "resul": 2374,
      "action": 2375,
      "sum": 2376,
      "pred": 2377,
      "10": 2378,
      "hard": 2379,
      "two": 2380,
      "la": 2381,
      "trust": 2382,
      "single": 2383,
      "ber": 2384,
      "side": 2385,
      "ible": 2386,
      "ics": 2387,
      "und": 2388,
      "distribution": 2389,
      "exec": 2390,
      "itect": 2391,
      "ger": 2392,
      "mem": 2393,
      "provid": 2394,
      "ation,": 2395,
      "still": 2396,
      "auth": 2397,
      "hum": 2398,
      "ors": 2399,
      "non-": 2400,
      "ose": 2401,
      "process": 2402,
      "tri": 2403,
      "integr": 2404,
      "again": 2405,
      "architect": 2406,
      "pass": 2407,
      "load": 2408,
      "dire": 2409,
      "sure": 2410,
      "doesn't": 2411,
      "agents": 2412,
      "most": 2413,
      "prec": 2414,
      "Re": 2415,
      ").": 2416,
      "stu": 2417,
      "os": 2418,
      "other": 2419,
      "ally": 2420,
      "sequ": 2421,
      "da": 2422,
      "off": 2423,
      "hold": 2424,
      "vent": 2425,
      "path": 2426,
      "would": 2427,
      "level": 2428,
      "window": 2429,
      "engine": 2430,
      "em": 2431,
      "verifi": 2432,
      "ared": 2433,
      "context": 2434,
      "estion": 2435,
      "fix": 2436,
      "pt": 2437,
      "independ": 2438,
      "sem": 2439,
      "across": 2440,
      "lation": 2441,
      "lan": 2442,
      "code": 2443,
      "aper": 2444,
      "current": 2445,
      "bre": 2446,
      "y.": 2447,
      "against": 2448,
      "oupl": 2449,
      "loop": 2450,
      "--": 2451,
      "less": 2452,
      "can't": 2453,
      "down": 2454,
      "rop": 2455,
      "transition": 2456,
      "anal": 2457,
      "ear": 2458,
      "face": 2459,
      "lim": 2460,
      "resp": 2461,
      "v1": 2462,
      "cu": 2463,
      "human": 2464,
      "know": 2465,
      "verification": 2466,
      "scale": 2467,
      "framework": 2468,
      "coll": 2469,
      "field": 2470,
      "ew": 2471,
      "Xiv": 2472,
      "quant": 2473,
      "But": 2474,
      "sco": 2475,
      "arXiv": 2476,
      "should": 2477,
      "ity.": 2478,
      "toward": 2479,
      "before": 2480,
      "pat": 2481,
      "change": 2482,
      "sim": 2483,
      "receip": 2484,
      "ities": 2485,
      "mak": 2486,
      "Ex": 2487,
      "sist": 2488,
      "space": 2489,
      "question": 2490,
      "turn": 2491,
      "ho": 2492,
      "ib": 2493,
      "graph": 2494,
      "uring": 2495,
      "train": 2496,
      "vir": 2497,
      "count": 2498,
      "multi": 2499,
      "simp": 2500,
      "led": 2501,
      "treat": 2502,
      "lect": 2503,
      "show": 2504,
      "reli": 2505,
      "cus": 2506,
      "ital": 2507,
      "whether": 2508,
      "They": 2509,
      "att": 2510,
      "writ": 2511,
      "their": 2512,
      "being": 2513,
      "may": 2514,
      "An": 2515,
      "lock": 2516,
      "present": 2517,
      "some": 2518,
      "respon": 2519,
      "control": 2520,
      "leg": 2521,
      "Mo": 2522,
      "logic": 2523,
      "I'": 2524,
      "event": 2525,
      "ref": 2526,
      "break": 2527,
      "ware": 2528,
      "),": 2529,
      "syn": 2530,
      "exactly": 2531,
      "pattern": 2532,
      "them": 2533,
      "les": 2534,
      "ource": 2535,
      "shifts": 2536,
      "you're": 2537,
      "ink": 2538,
      "ments": 2539,
      "first": 2540,
      "resol": 2541,
      "itive": 2542,
      "mass": 2543,
      "ference": 2544,
      "https://arxiv.org/abs/2": 2545,
      "paper": 2546,
      "cri": 2547,
      "af": 2548,
      "next": 2549,
      "recor": 2550,
      "tok": 2551,
      "bal": 2552,
      "idence": 2553,
      "fact": 2554,
      "vis": 2555,
      "ives": 2556,
      "ran": 2557,
      "receipt": 2558,
      "fil": 2559,
      "right": 2560,
      "termin": 2561,
      "part": 2562,
      "chain": 2563,
      "conf": 2564,
      "network": 2565,
      "ular": 2566,
      "approach": 2567,
      "study": 2568,
      "here": 2569,
      "ner": 2570,
      "require": 2571,
      "rate": 2572,
      "spect": 2573,
      ".1": 2574,
      "viron": 2575,
      "ero": 2576,
      "while": 2577,
      "correct": 2578,
      "equ": 2579,
      "stead": 2580,
      "chang": 2581,
      "sche": 2582,
      "stre": 2583,
      "output": 2584,
      "verg": 2585,
      "suggests": 2586,
      "direct": 2587,
      "med": 2588,
      "tract": 2589,
      "prim": 2590,
      "tech": 2591,
      "-based": 2592,
      "cing": 2593,
      "dete": 2594,
      "ination": 2595,
      "using": 2596,
      "flu": 2597,
      "ension": 2598,
      "environ": 2599,
      "ted": 2600,
      "ment.": 2601,
      "parame": 2602,
      "io": 2603,
      "manage": 2604,
      "task": 2605,
      "sequence": 2606,
      "y,": 2607,
      "both": 2608,
      "inform": 2609,
      "arXiv:": 2610,
      "promp": 2611,
      "ship": 2612,
      "perform": 2613,
      "dynam": 2614,
      "incre": 2615,
      "sto": 2616,
      "60": 2617,
      "physical": 2618,
      "To": 2619,
      "post": 2620,
      "plic": 2621,
      "cho": 2622,
      "sup": 2623,
      "iction": 2624,
      "stream": 2625,
      "30": 2626,
      "den": 2627,
      "publ": 2628,
      "wa": 2629,
      "reach": 2630,
      "num": 2631,
      "map": 2632,
      "redu": 2633,
      "those": 2634,
      "stop": 2635,
      "execution": 2636,
      "parameter": 2637,
      "ough": 2638,
      "often": 2639,
      "beha": 2640,
      "plat": 2641,
      "complex": 2642,
      "verify": 2643,
      "better": 2644,
      "memory": 2645,
      "class": 2646,
      "ling": 2647,
      "inst": 2648,
      "Co": 2649,
      "ca": 2650,
      "platform": 2651,
      "ron": 2652,
      "prob": 2653,
      "ian": 2654,
      "mal": 2655,
      "mission": 2656,
      "on't": 2657,
      "tom": 2658,
      "lying": 2659,
      "iven": 2660,
      "lar": 2661,
      "descri": 2662,
      "mental": 2663,
      "metric": 2664,
      "value": 2665,
      "funda": 2666,
      "Con": 2667,
      "row": 2668,
      "oc": 2669,
      "pay": 2670,
      "ateg": 2671,
      "ven": 2672,
      "meth": 2673,
      "len": 2674,
      "By": 2675,
      "remains": 2676,
      "text": 2677,
      "antic": 2678,
      "could": 2679,
      "record": 2680,
      "my": 2681,
      "ral": 2682,
      "liqu": 2683,
      "drift": 2684,
      "version": 2685,
      "tru": 2686,
      "clu": 2687,
      "match": 2688,
      "distin": 2689,
      "fol": 2690,
      "allow": 2691,
      "matter": 2692,
      "proof": 2693,
      "proper": 2694,
      "predict": 2695,
      "car": 2696,
      "xim": 2697,
      "energ": 2698,
      "entially": 2699,
      "lection": 2700,
      "her": 2701,
      "report": 2702,
      "itor": 2703,
      "evalu": 2704,
      "logical": 2705,
      "ficient": 2706,
      "behavi": 2707,
      "liquid": 2708,
      "standard": 2709,
      "frequ": 2710,
      "price": 2711,
      "tar": 2712,
      "So": 2713,
      "reasoning": 2714,
      "build": 2715,
      "ru": 2716,
      "LM": 2717,
      "requires": 2718,
      "did": 2719,
      "limit": 2720,
      "input": 2721,
      "er.": 2722,
      "prompt": 2723,
      "ped": 2724,
      "focus": 2725,
      "decision": 2726,
      "order": 2727,
      "50": 2728,
      "wr": 2729,
      "deriv": 2730,
      "key": 2731,
      "langu": 2732,
      "peri": 2733,
      "boundary": 2734,
      "ready": 2735,
      "ben": 2736,
      "lear": 2737,
      "1.": 2738,
      "mean": 2739,
      "collap": 2740,
      "wit": 2741,
      "wrong": 2742,
      "oral": 2743,
      "rodu": 2744,
      "call": 2745,
      "**:": 2746,
      "training": 2747,
      "second": 2748,
      "term": 2749,
      "bin": 2750,
      "step": 2751,
      "independent": 2752,
      "cial": 2753,
      "never": 2754,
      "moving": 2755,
      "ult": 2756,
      "abil": 2757,
      "implement": 2758,
      "polic": 2759,
      "to-": 2760,
      "Ag": 2761,
      "sens": 2762,
      "eck": 2763,
      "there": 2764,
      "ord": 2765,
      "instru": 2766,
      "contin": 2767,
      "tail": 2768,
      "AP": 2769,
      "commit": 2770,
      "architecture": 2771,
      "energy": 2772,
      "cept": 2773,
      "ulation": 2774,
      "ively": 2775,
      "view": 2776,
      "crit": 2777,
      "defin": 2778,
      "vergence": 2779,
      "try": 2780,
      "gram": 2781,
      "author": 2782,
      "sett": 2783,
      "maint": 2784,
      "within": 2785,
      "come": 2786,
      "ttlen": 2787,
      "ttleneck": 2788,
      "already": 2789,
      "schema": 2790,
      "don't": 2791,
      "determin": 2792,
      "day": 2793,
      "mach": 2794,
      "ia": 2795,
      "been": 2796,
      "bottleneck": 2797,
      "hardware": 2798,
      "develo": 2799,
      "means": 2800,
      "intern": 2801,
      "introdu": 2802,
      "prevent": 2803,
      "pra": 2804,
      "nel": 2805,
      "rest": 2806,
      "force": 2807,
      "logy": 2808,
      "token": 2809,
      "longer": 2810,
      "LLM": 2811,
      "flo": 2812,
      "ute": 2813,
      "capt": 2814,
      "ering": 2815,
      "ctor": 2816,
      "ysis": 2817,
      "son": 2818,
      "world": 2819,
      "make": 2820,
      "were": 2821,
      "assu": 2822,
      "brid": 2823,
      "anch": 2824,
      "sil": 2825,
      "mit": 2826,
      "aud": 2827,
      "even": 2828,
      "tax": 2829,
      "surface": 2830,
      "bit": 2831,
      "result": 2832,
      "vit": 2833,
      "2.": 2834,
      "amp": 2835,
      "stability": 2836,
      "RA": 2837,
      "coupl": 2838,
      "linear": 2839,
      "ection": 2840,
      "lic": 2841,
      "rele": 2842,
      "used": 2843,
      "mic": 2844,
      "What": 2845,
      "address": 2846,
      "head": 2847,
      "method": 2848,
      "source": 2849,
      "gin": 2850,
      "sed": 2851,
      "account": 2852,
      "tal": 2853,
      "fer": 2854,
      "block": 2855,
      "separ": 2856,
      "keep": 2857,
      "hy": 2858,
      "target": 2859,
      "loy": 2860,
      "prove": 2861,
      "pri": 2862,
      "one.": 2863,
      "multi-": 2864,
      "evidence": 2865,
      "manif": 2866,
      "cert": 2867,
      "19": 2868,
      "consequence": 2869,
      "answer": 2870,
      "consist": 2871,
      "object": 2872,
      "base": 2873,
      "frequency": 2874,
      "shared": 2875,
      "building": 2876,
      "-to-": 2877,
      "ines": 2878,
      "each": 2879,
      "pract": 2880,
      "file": 2881,
      "e.": 2882,
      "underlying": 2883,
      "continu": 2884,
      "suc": 2885,
      "feed": 2886,
      "ime": 2887,
      "latency": 2888,
      "land": 2889,
      "mod": 2890,
      "ache": 2891,
      "astic": 2892,
      "dra": 2893,
      "ark": 2894,
      "essentially": 2895,
      "language": 2896,
      "ity,": 2897,
      "char": 2898,
      "via": 2899,
      "lit": 2900,
      "maintain": 2901,
      "40": 2902,
      "uc": 2903,
      "party": 2904,
      "during": 2905,
      "condition": 2906,
      "provides": 2907,
      "ifact": 2908,
      "necess": 2909,
      "analysis": 2910,
      "sk": 2911,
      "three": 2912,
      "enti": 2913,
      "hash": 2914,
      "let": 2915,
      "techn": 2916,
      "ment,": 2917,
      ".\"": 2918,
      "semantic": 2919,
      "inclu": 2920,
      "als": 2921,
      "makes": 2922,
      "hist": 2923,
      "til": 2924,
      "moves": 2925,
      "uch": 2926,
      "track": 2927,
      "air": 2928,
      "precision": 2929,
      "-in": 2930,
      "ail": 2931,
      "partic": 2932,
      "return": 2933,
      "12": 2934,
      "idual": 2935,
      "ified": 2936,
      "might": 2937,
      "al.": 2938,
      "liquidity": 2939,
      "Ho": 2940,
      "retri": 2941,
      "ves": 2942,
      "cross": 2943,
      "ds": 2944,
      "mption": 2945,
      "mag": 2946,
      "thres": 2947,
      "represent": 2948,
      "capability": 2949,
      "grow": 2950,
      "live": 2951,
      "ly.": 2952,
      "monitor": 2953,
      "trad": 2954,
      "pip": 2955,
      "ses": 2956,
      "artifact": 2957,
      "ju": 2958,
      "sm": 2959,
      "propos": 2960,
      "rat": 2961,
      "ver,": 2962,
      "indust": 2963,
      "truth": 2964,
      "formal": 2965,
      "increas": 2966,
      "fundamental": 2967,
      "fet": 2968,
      "threshold": 2969,
      "zero": 2970,
      "3.": 2971,
      "er,": 2972,
      "cache": 2973,
      "coord": 2974,
      "static": 2975,
      "sof": 2976,
      "ash": 2977,
      "arXiv:2": 2978,
      "bi": 2979,
      "mand": 2980,
      "4-": 2981,
      "jection": 2982,
      "place": 2983,
      "policy": 2984,
      "agree": 2985,
      "ft": 2986,
      "operator": 2987,
      "volat": 2988,
      "systems": 2989,
      "light": 2990,
      "chmark": 2991,
      "machine": 2992,
      "hone": 2993,
      "proto": 2994,
      "contract": 2995,
      "verage": 2996,
      "primary": 2997,
      "ax": 2998,
      "-time": 2999,
      "izing": 3000,
      "found": 3001,
      "se.": 3002,
      "required": 3003,
      "say": 3004,
      "ese": 3005,
      "edge": 3006,
      "mode": 3007,
      "want": 3008,
      "itself.": 3009,
      "Agent": 3010,
      "audit": 3011,
      "Ch": 3012,
      "critical": 3013,
      "why": 3014,
      "workflow": 3015,
      "capture": 3016,
      "type": 3017,
      "ration": 3018,
      "themat": 3019,
      "trig": 3020,
      "signific": 3021,
      "Un": 3022,
      "systemic": 3023,
      "ption": 3024,
      "shap": 3025,
      "able.": 3026,
      "deploy": 3027,
      "power": 3028,
      "creates": 3029,
      "pric": 3030,
      "ix": 3031,
      "lobal": 3032,
      "trade": 3033,
      "ground": 3034,
      "free": 3035,
      "ick": 3036,
      "open": 3037,
      "conom": 3038,
      "aging": 3039,
      "ensity": 3040,
      "number": 3041,
      "dig": 3042,
      "geo": 3043,
      "honest": 3044,
      "def": 3045,
      "tical": 3046,
      "vend": 3047,
      "self-": 3048,
      "ple": 3049,
      "itional": 3050,
      "low-": 3051,
      "case": 3052,
      "year": 3053,
      "enough": 3054,
      "secur": 3055,
      "after": 3056,
      "reco": 3057,
      "jo": 3058,
      "variance": 3059,
      "dynamic": 3060,
      "attest": 3061,
      "information": 3062,
      "also": 3063,
      "floor": 3064,
      "bro": 3065,
      "too": 3066,
      "property": 3067,
      "small": 3068,
      "happ": 3069,
      "witness": 3070,
      "mathemat": 3071,
      "metry": 3072,
      "significant": 3073,
      "sen": 3074,
      "chall": 3075,
      "massive": 3076,
      "og": 3077,
      "success": 3078,
      "API": 3079,
      "needs": 3080,
      "effectively": 3081,
      "ake": 3082,
      "lu": 3083,
      "ww": 3084,
      "internal": 3085,
      "ded": 3086,
      "chastic": 3087,
      "once": 3088,
      "merely": 3089,
      "benchmark": 3090,
      "hall": 3091,
      "finding": 3092,
      "clean": 3093,
      "behavior": 3094,
      "har": 3095,
      "infra": 3096,
      "Wedding": 3097,
      "ention": 3098,
      "spe": 3099,
      "medi": 3100,
      "On": 3101,
      "lack": 3102,
      "usion": 3103,
      "problem.": 3104,
      "evol": 3105,
      "compute": 3106,
      "drop": 3107,
      "rel": 3108,
      "agg": 3109,
      "ality": 3110,
      "forces": 3111,
      "vide": 3112,
      "er-": 3113,
      "ivity": 3114,
      "regime": 3115,
      "volatility": 3116,
      "distinction": 3117,
      "cred": 3118,
      "protocol": 3119,
      "stochastic": 3120,
      "halluc": 3121,
      "ang": 3122,
      "compos": 3123,
      "estim": 3124,
      "conne": 3125,
      "well": 3126,
      "signature": 3127,
      "running": 3128,
      "That's": 3129,
      "samp": 3130,
      "ore": 3131,
      "ving": 3132,
      "expect": 3133,
      "fac": 3134,
      "onent": 3135,
      "away": 3136,
      "simple": 3137,
      "changes": 3138,
      "oid": 3139,
      "print": 3140,
      "pen": 3141,
      "looking": 3142,
      "De": 3143,
      "dim": 3144,
      "loss": 3145,
      "person": 3146,
      "econom": 3147,
      "it,": 3148,
      "attack": 3149,
      "something": 3150,
      "war": 3151,
      "resolution": 3152,
      "bias": 3153,
      "St": 3154,
      "attemp": 3155,
      "program": 3156,
      "phase": 3157,
      "capac": 3158,
      "As": 3159,
      "ie": 3160,
      "describ": 3161,
      "ily": 3162,
      "com/": 3163,
      "exper": 3164,
      "wever,": 3165,
      "inc": 3166,
      "probe": 3167,
      "existing": 3168,
      "driven": 3169,
      "firm": 3170,
      "large": 3171,
      "Pro": 3172,
      "bur": 3173,
      "fr": 3174,
      "mosp": 3175,
      "that's": 3176,
      "atures": 3177,
      "aring": 3178,
      "performance": 3179,
      "'ve": 3180,
      "ony": 3181,
      "loc": 3182,
      "uses": 3183,
      "autom": 3184,
      "signed": 3185,
      "handle": 3186,
      "How": 3187,
      "security": 3188,
      "While": 3189,
      "built": 3190,
      "assumption": 3191,
      "prior": 3192,
      "global": 3193,
      "grid": 3194,
      "asset": 3195,
      "tools": 3196,
      "response": 3197,
      "filter": 3198,
      "4.": 3199,
      "produce": 3200,
      "solution": 3201,
      "tribut": 3202,
      "infrastructure": 3203,
      "gment": 3204,
      "deterministic": 3205,
      "star": 3206,
      "true": 3207,
      "solve": 3208,
      "inference": 3209,
      "publish": 3210,
      "En": 3211,
      "complete": 3212,
      "cohe": 3213,
      "surv": 3214,
      "Exactly": 3215,
      "const": 3216,
      "extern": 3217,
      "approxim": 3218,
      "ly,": 3219,
      "aren't": 3220,
      "nar": 3221,
      "ages": 3222,
      "correlation": 3223,
      "optimization": 3224,
      "find": 3225,
      "care": 3226,
      "stain": 3227,
      "tell": 3228,
      "strateg": 3229,
      "quantization": 3230,
      "ibility": 3231,
      "commun": 3232,
      "region": 3233,
      "product": 3234,
      "issu": 3235,
      "production": 3236,
      "constraints": 3237,
      "typ": 3238,
      "identity": 3239,
      "researchers": 3240,
      "write": 3241,
      "However,": 3242,
      "intent": 3243,
      "safet": 3244,
      "technical": 3245,
      "retrieval": 3246,
      "atmosp": 3247,
      "Most": 3248,
      "nor": 3249,
      "relation": 3250,
      "precise": 3251,
      "shows": 3252,
      "feedback": 3253,
      "moment": 3254,
      "tware": 3255,
      "follow": 3256,
      "charact": 3257,
      "onom": 3258,
      "correl": 3259,
      "ST": 3260,
      "thread": 3261,
      "que": 3262,
      "mapp": 3263,
      "ond": 3264,
      "modeling": 3265,
      "smo": 3266,
      "body": 3267,
      "ensive": 3268,
      "statist": 3269,
      "utility": 3270,
      "emp": 3271,
      "temporal": 3272,
      "joint": 3273,
      "$\\": 3274,
      "ingu": 3275,
      "selection": 3276,
      "bug": 3277,
      "downstream": 3278,
      "access": 3279,
      "anchor": 3280,
      "industry": 3281,
      "ious": 3282,
      "interaction": 3283,
      "ned": 3284,
      "generation": 3285,
      "No": 3286,
      "ull": 3287,
      "instead": 3288,
      "we're": 3289,
      "accept": 3290,
      "measurement": 3291,
      "dimension": 3292,
      "11": 3293,
      "active": 3294,
      "environment": 3295,
      "0.": 3296,
      "friction": 3297,
      "suf": 3298,
      "play": 3299,
      "external": 3300,
      "assum": 3301,
      "mathematical": 3302,
      "25": 3303,
      "atory": 3304,
      "acy": 3305,
      "Instead": 3306,
      "explic": 3307,
      "dget": 3308,
      "ations.": 3309,
      "ched": 3310,
      "fici": 3311,
      "heric": 3312,
      "-scale": 3313,
      "sat": 3314,
      "align": 3315,
      "itu": 3316,
      "ways": 3317,
      "100": 3318,
      "sus": 3319,
      "reading": 3320,
      "rule": 3321,
      "cross-": 3322,
      "15": 3323,
      "social": 3324,
      "cast": 3325,
      "priv": 3326,
      "pressure": 3327,
      "vul": 3328,
      "ies.": 3329,
      "constrain": 3330,
      "ither": 3331,
      "ession": 3332,
      "channel": 3333,
      "simply": 3334,
      "software": 3335,
      "vendor": 3336,
      "able,": 3337,
      "crete": 3338,
      "independence": 3339,
      "Exactly.": 3340,
      "Col": 3341,
      "igin": 3342,
      "box": 3343,
      "inguish": 3344,
      "sustain": 3345,
      "minim": 3346,
      "cry": 3347,
      "origin": 3348,
      "think": 3349,
      "argu": 3350,
      "component": 3351,
      "pipe": 3352,
      "Sp": 3353,
      "name": 3354,
      "lead": 3355,
      "distinguish": 3356,
      "ming": 3357,
      "isol": 3358,
      "ately": 3359,
      "uni": 3360,
      "decay": 3361,
      "understand": 3362,
      "turb": 3363,
      "ficiency": 3364,
      "18": 3365,
      "runtime": 3366,
      "latent": 3367,
      "known": 3368,
      "lish": 3369,
      "ric": 3370,
      "erature": 3371,
      "decoupl": 3372,
      "closed": 3373,
      "sis": 3374,
      "designed": 3375,
      "management": 3376,
      "round": 3377,
      "explicit": 3378,
      "clust": 3379,
      "explo": 3380,
      "provide": 3381,
      "grade": 3382,
      "transform": 3383,
      "density": 3384,
      "ik": 3385,
      "stack": 3386,
      "persist": 3387,
      "izes": 3388,
      "public": 3389,
      "mess": 3390,
      "co-": 3391,
      "docu": 3392,
      "synthe": 3393,
      "planning": 3394,
      "gate": 3395,
      "racy": 3396,
      "vest": 3397,
      "iment": 3398,
      "worth": 3399,
      "budget": 3400,
      "disc": 3401,
      "goal": 3402,
      "I'm": 3403,
      "detection": 3404,
      "tran": 3405,
      "validation": 3406,
      "17": 3407,
      "gn": 3408,
      "another": 3409,
      "decl": 3410,
      "config": 3411,
      "gor": 3412,
      "full": 3413,
      "safety": 3414,
      "agent's": 3415,
      "variant": 3416,
      "corp": 3417,
      "weights": 3418,
      "statistical": 3419,
      "ved": 3420,
      "treating": 3421,
      "observed": 3422,
      "ater": 3423,
      "enge": 3424,
      "monstr": 3425,
      "enance": 3426,
      "demand": 3427,
      "datas": 3428,
      "v2": 3429,
      "ank": 3430,
      "root": 3431,
      "topo": 3432,
      "trying": 3433,
      "pipeline": 3434,
      "likely": 3435,
      "challenge": 3436,
      "transp": 3437,
      "-level": 3438,
      "ier": 3439,
      "mig": 3440,
      "stay": 3441,
      "impact": 3442,
      "dest": 3443,
      "exact": 3444,
      "fails": 3445,
      "link": 3446,
      "taint": 3447,
      "efficient": 3448,
      "general": 3449,
      "inde": 3450,
      "period": 3451,
      "vulner": 3452,
      "dataset": 3453,
      "pack": 3454,
      "tren": 3455,
      "asy": 3456,
      "physics": 3457,
      "engineering": 3458,
      "settlement": 3459,
      "ume": 3460,
      "core": 3461,
      "bea": 3462,
      "learning": 3463,
      "16": 3464,
      "demonstr": 3465,
      "struction": 3466,
      "authors": 3467,
      "trigger": 3468,
      "such": 3469,
      "fixed": 3470,
      "ledge": 3471,
      "bridge": 3472,
      "accu": 3473,
      "requirement": 3474,
      "With": 3475,
      "much": 3476,
      "ceed": 3477,
      "content": 3478,
      "indic": 3479,
      "detect": 3480,
      "gorith": 3481,
      "ibr": 3482,
      "er's": 3483,
      "start": 3484,
      "micro": 3485,
      "sent": 3486,
      "depth": 3487,
      "operational": 3488,
      "Au": 3489,
      "gre": 3490,
      "wall": 3491,
      "radi": 3492,
      "convergence": 3493,
      "certaint": 3494,
      "analy": 3495,
      "score": 3496,
      "making": 3497,
      "wave": 3498,
      "constant": 3499,
      "catch": 3500,
      "feature": 3501,
      "avail": 3502,
      "traditional": 3503,
      "cra": 3504,
      "oud": 3505,
      "select": 3506,
      "model's": 3507,
      "It's": 3508,
      "200": 3509,
      "2025": 3510,
      "ata": 3511,
      "push": 3512,
      "results": 3513,
      "capacity": 3514,
      "preser": 3515,
      "whole": 3516,
      "support": 3517,
      "sufficient": 3518,
      "accuracy": 3519,
      "Mark": 3520,
      "cul": 3521,
      "algorith": 3522,
      "domain": 3523,
      "ratio": 3524,
      "recon": 3525,
      "consum": 3526,
      "abilities": 3527,
      "ek": 3528,
      "fit": 3529,
      "ler": 3530,
      "pot": 3531,
      "guest": 3532,
      "structured": 3533,
      "mir": 3534,
      "implic": 3535,
      "digital": 3536,
      "perfect": 3537,
      "agentic": 3538,
      "counter": 3539,
      "law": 3540,
      "rig": 3541,
      "prox": 3542,
      "book": 3543,
      "review": 3544,
      "lies": 3545,
      "90": 3546,
      "wid": 3547,
      "cas": 3548,
      "ability.": 3549,
      "jud": 3550,
      "character": 3551,
      "ging": 3552,
      "gover": 3553,
      "had": 3554,
      "rates": 3555,
      "ante": 3556,
      "spat": 3557,
      "fast": 3558,
      "interpre": 3559,
      "verified": 3560,
      "develop": 3561,
      "vector": 3562,
      "prop": 3563,
      "math": 3564,
      "long-": 3565,
      "allows": 3566,
      "theore": 3567,
      "traject": 3568,
      "relationship": 3569,
      "beacon": 3570,
      "aw": 3571,
      "advers": 3572,
      "capital": 3573,
      "growth": 3574,
      "bar": 3575,
      "project": 3576,
      "une": 3577,
      "controll": 3578,
      "band": 3579,
      "ury": 3580,
      "compet": 3581,
      "guar": 3582,
      "group": 3583,
      "SS": 3584,
      "adap": 3585,
      "uine": 3586,
      "regul": 3587,
      "ply": 3588,
      "ression": 3589,
      "margin": 3590,
      "entire": 3591,
      "ifies": 3592,
      "works": 3593,
      "pho": 3594,
      "ensure": 3595,
      "special": 3596,
      "consistent": 3597,
      "necessary": 3598,
      "baseline": 3599,
      "rid": 3600,
      "illion": 3601,
      "scaling": 3602,
      "collapse": 3603,
      "SV": 3604,
      "composition": 3605,
      "AR": 3606,
      "ilar": 3607,
      "ifically": 3608,
      "delta": 3609,
      "simul": 3610,
      "silent": 3611,
      "evolution": 3612,
      "entrop": 3613,
      "probability": 3614,
      "mirror": 3615,
      "guarante": 3616,
      "GP": 3617,
      "Watch": 3618,
      "fall": 3619,
      "total": 3620,
      "endpoint": 3621,
      "ID": 3622,
      "rec": 3623,
      "deleg": 3624,
      "made": 3625,
      "missing": 3626,
      "spatial": 3627,
      "Your": 3628,
      "ied": 3629,
      "pp": 3630,
      "calibr": 3631,
      "heav": 3632,
      "nothing": 3633,
      "fully": 3634,
      "instruction": 3635,
      "llig": 3636,
      "ina": 3637,
      "reve": 3638,
      "ence.": 3639,
      "reality": 3640,
      "intellig": 3641,
      "veloc": 3642,
      "integration": 3643,
      "24": 3644,
      "init": 3645,
      "efficiency": 3646,
      "service": 3647,
      "document": 3648,
      "hit": 3649,
      "yet": 3650,
      "verse": 3651,
      "manifest": 3652,
      "atmospheric": 3653,
      "aut": 3654,
      "invest": 3655,
      "top": 3656,
      "https://arxiv.org/abs/260": 3657,
      "shape": 3658,
      "dict": 3659,
      "5.": 3660,
      "vant": 3661,
      "king": 3662,
      "deli": 3663,
      "bypass": 3664,
      "data.": 3665,
      "become": 3666,
      "asser": 3667,
      "draw": 3668,
      "fut": 3669,
      "fron": 3670,
      "vs": 3671,
      "validate": 3672,
      "agreement": 3673,
      "hallucin": 3674,
      "gas": 3675,
      "list": 3676,
      "tograph": 3677,
      "divergence": 3678,
      "13": 3679,
      "cycle": 3680,
      "similar": 3681,
      "RAM": 3682,
      "dri": 3683,
      "ues": 3684,
      "manifold": 3685,
      "Do": 3686,
      "Sy": 3687,
      "concent": 3688,
      "ate.": 3689,
      "sym": 3690,
      "take": 3691,
      "gets": 3692,
      ",\"": 3693,
      "cir": 3694,
      "ices": 3695,
      "contain": 3696,
      "useful": 3697,
      "release": 3698,
      "categ": 3699,
      "i-": 3700,
      "invit": 3701,
      "tial": 3702,
      "expensive": 3703,
      "convers": 3704,
      "neg": 3705,
      "computational": 3706,
      "hol": 3707,
      "invariant": 3708,
      "web": 3709,
      "system.": 3710,
      "le.": 3711,
      "per-": 3712,
      "word": 3713,
      "real-time": 3714,
      "implementation": 3715,
      "rand": 3716,
      "rup": 3717,
      "rob": 3718,
      "resh": 3719,
      "avoid": 3720,
      "she": 3721,
      "ale": 3722,
      "volume": 3723,
      "evaluation": 3724,
      "exam": 3725,
      "indiv": 3726,
      "forecast": 3727,
      "visible": 3728,
      "complexity": 3729,
      "option": 3730,
      "expected": 3731,
      "vo": 3732,
      "met": 3733,
      "model.": 3734,
      "proves": 3735,
      "mediate": 3736,
      "connect": 3737,
      "alth": 3738,
      "genuine": 3739,
      "continuous": 3740,
      "6.": 3741,
      "sched": 3742,
      "pose": 3743,
      "server": 3744,
      "request": 3745,
      "depends": 3746,
      "labe": 3747,
      "resolve": 3748,
      "cust": 3749,
      "ms": 3750,
      "histor": 3751,
      "mapping": 3752,
      "US": 3753,
      "tun": 3754,
      "plac": 3755,
      "position": 3756,
      "mask": 3757,
      "atic": 3758,
      "around": 3759,
      "ations,": 3760,
      "range": 3761,
      "migration": 3762,
      "Tr": 3763,
      "igno": 3764,
      "ival": 3765,
      "outside": 3766,
      "-of": 3767,
      "either": 3768,
      "profile": 3769,
      "treats": 3770,
      "IS": 3771,
      "hal": 3772,
      "ub": 3773,
      "ceil": 3774,
      "These": 3775,
      "ies,": 3776,
      "board": 3777,
      "disco": 3778,
      "individual": 3779,
      "temperature": 3780,
      "choice": 3781,
      "history": 3782,
      "tribution": 3783,
      "RE": 3784,
      "a-": 3785,
      "iness": 3786,
      "abor": 3787,
      "datab": 3788,
      "attention": 3789,
      "coordin": 3790,
      "ON": 3791,
      "mut": 3792,
      "mid": 3793,
      "past": 3794,
      "wal": 3795,
      "deep": 3796,
      "fault": 3797,
      "stic": 3798,
      "uncertaint": 3799,
      "short": 3800,
      "interest": 3801,
      "speed": 3802,
      "One": 3803,
      "Se": 3804,
      "rap": 3805,
      "oph": 3806,
      "developer": 3807,
      "last": 3808,
      "tension": 3809,
      "stable": 3810,
      "orb": 3811,
      "poss": 3812,
      "features": 3813,
      "introduces": 3814,
      "separate": 3815,
      "?\"": 3816,
      "fal": 3817,
      "yond": 3818,
      "relies": 3819,
      "configur": 3820,
      "index": 3821,
      "mes": 3822,
      "patch": 3823,
      "near": 3824,
      "provenance": 3825,
      "-of-": 3826,
      "dient": 3827,
      "gradient": 3828,
      "diff": 3829,
      "pair": 3830,
      "direction": 3831,
      "pricing": 3832,
      "14": 3833,
      "New": 3834,
      "TE": 3835,
      "date": 3836,
      "pur": 3837,
      "pure": 3838,
      "rot": 3839,
      "urther": 3840,
      "pre-": 3841,
      "bot": 3842,
      "autonom": 3843,
      ":00": 3844,
      "atural": 3845,
      "interface": 3846,
      "non-linear": 3847,
      "cryp": 3848,
      "model,": 3849,
      "scope": 3850,
      "eous": 3851,
      "ers.": 3852,
      "quer": 3853,
      "measured": 3854,
      "assumes": 3855,
      "gain": 3856,
      "rable": 3857,
      "ended": 3858,
      "distinct": 3859,
      "broad": 3860,
      "wise": 3861,
      "consen": 3862,
      "ablish": 3863,
      "specifically": 3864,
      "nu": 3865,
      "session": 3866,
      "xury": 3867,
      "abstra": 3868,
      "state.": 3869,
      "sid": 3870,
      "leak": 3871,
      "surve": 3872,
      "coupling": 3873,
      "ones": 3874,
      "safe": 3875,
      "verifiable": 3876,
      "patterns": 3877,
      "size": 3878,
      "consistency": 3879,
      "smoo": 3880,
      "future": 3881,
      "common": 3882,
      "cycl": 3883,
      "establish": 3884,
      "ever": 3885,
      "you've": 3886,
      "regist": 3887,
      "verifier": 3888,
      "And": 3889,
      "directly": 3890,
      "):": 3891,
      "At": 3892,
      "chron": 3893,
      "residual": 3894,
      "pop": 3895,
      "reduction": 3896,
      "carry": 3897,
      "Without": 3898,
      "shar": 3899,
      "higher": 3900,
      "late": 3901,
      "normal": 3902,
      ".**": 3903,
      "Po": 3904,
      "ker": 3905,
      "w.": 3906,
      "coordination": 3907,
      "coherence": 3908,
      "Market": 3909,
      "Sh": 3910,
      "cit": 3911,
      "natural": 3912,
      "reward": 3913,
      "stor": 3914,
      "ison": 3915,
      "until": 3916,
      "attestation": 3917,
      "bol": 3918,
      "fine": 3919,
      "hid": 3920,
      "imate": 3921,
      "dependent": 3922,
      "integrity": 3923,
      "false": 3924,
      "cat": 3925,
      "forcing": 3926,
      "applic": 3927,
      "compil": 3928,
      "You're": 3929,
      "particip": 3930,
      "proxy": 3931,
      "adapt": 3932,
      "TC": 3933,
      "ings": 3934,
      "central": 3935,
      "AI-": 3936,
      "planet": 3937,
      "carri": 3938,
      "instrument": 3939,
      "initial": 3940,
      "era": 3941,
      "portun": 3942,
      "sub-": 3943,
      "I'd": 3944,
      "Comp": 3945,
      "robust": 3946,
      "ince": 3947,
      "forced": 3948,
      "calcul": 3949,
      "transfer": 3950,
      "breaks": 3951,
      "defined": 3952,
      "vulnerability": 3953,
      "entropy": 3954,
      "average": 3955,
      "mor": 3956,
      "inside": 3957,
      "week": 3958,
      "tier": 3959,
      "###": 3960,
      "organ": 3961,
      "good": 3962,
      "platforms": 3963,
      "says": 3964,
      "narrow": 3965,
      "database": 3966,
      "AS": 3967,
      "Tra": 3968,
      "experi": 3969,
      "disjoint": 3970,
      "random": 3971,
      "Ar": 3972,
      "ike": 3973,
      "quality": 3974,
      "share": 3975,
      "scri": 3976,
      "balance": 3977,
      "measuring": 3978,
      "confirm": 3979,
      "super": 3980,
      "doing": 3981,
      "dependency": 3982,
      "5-": 3983,
      "VE": 3984,
      "VRAM": 3985,
      "lex": 3986,
      "appe": 3987,
      "user": 3988,
      "experiment": 3989,
      "itude": 3990,
      "specialized": 3991,
      "ium": 3992,
      "usu": 3993,
      "appl": 3994,
      "vious": 3995,
      "distance": 3996,
      "execut": 3997,
      "someone": 3998,
      "define": 3999,
      "www.": 4000,
      "correction": 4001,
      "difference": 4002,
      "communic": 4003,
      "31": 4004,
      "lif": 4005,
      "exceed": 4006,
      "chestr": 4007,
      "herent": 4008,
      "acc": 4009,
      "cheap": 4010,
      "occur": 4011,
      "entirely": 4012,
      "economic": 4013,
      "aus": 4014,
      "kit": 4015,
      "inherent": 4016,
      "ctu": 4017,
      "domin": 4018,
      "ties": 4019,
      "https://www.": 4020,
      "moved": 4021,
      "happen": 4022,
      "-specific": 4023,
      "wind": 4024,
      "igate": 4025,
      "noise.": 4026,
      "knowledge": 4027,
      "relative": 4028,
      "RL": 4029,
      "\":": 4030,
      "always": 4031,
      "mentally": 4032,
      "thermal": 4033,
      "differen": 4034,
      "Every": 4035,
      "ire": 4036,
      "states": 4037,
      "sets": 4038,
      "transient": 4039,
      "observation": 4040,
      "ogen": 4041,
      "identify": 4042,
      "tokens": 4043,
      "-be": 4044,
      "derived": 4045,
      "theoretical": 4046,
      "injection": 4047,
      "ird": 4048,
      "amb": 4049,
      "velocity": 4050,
      "Al": 4051,
      "ken": 4052,
      "weak": 4053,
      "resource": 4054,
      "compar": 4055,
      "ansion": 4056,
      "signal.": 4057,
      "bus": 4058,
      "iet": 4059,
      "mist": 4060,
      "on.": 4061,
      "diag": 4062,
      "managing": 4063,
      "looks": 4064,
      "constrained": 4065,
      "Le": 4066,
      "arding": 4067,
      "beyond": 4068,
      "testing": 4069,
      "istics": 4070,
      "clock": 4071,
      "clear": 4072,
      "skill": 4073,
      "satis": 4074,
      "interpret": 4075,
      "ET": 4076,
      "KV": 4077,
      "ech": 4078,
      "ns": 4079,
      "etic": 4080,
      "maxim": 4081,
      "sensit": 4082,
      "craft": 4083,
      "sw": 4084,
      "van": 4085,
      "raw": 4086,
      "checked": 4087,
      "though": 4088,
      "seen": 4089,
      "cloud": 4090,
      "emerg": 4091,
      "tracking": 4092,
      "Lo": 4093,
      "ave": 4094,
      "mer": 4095,
      "princ": 4096,
      "distributed": 4097,
      "lands": 4098,
      "dimensional": 4099,
      "Colony": 4100,
      "stamp": 4101,
      "expansion": 4102,
      "anyone": 4103,
      "increase": 4104,
      "fundamentally": 4105,
      "automated": 4106,
      "null": 4107,
      "pha": 4108,
      "many": 4109,
      "variable": 4110,
      "simulation": 4111,
      "Code": 4112,
      "deployment": 4113,
      "orchestr": 4114,
      "entry": 4115,
      "strict": 4116,
      "flight": 4117,
      "factor": 4118,
      "meaning": 4119,
      "trajectory": 4120,
      "sound": 4121,
      "overhead": 4122,
      "emb": 4123,
      "careless": 4124,
      "s)": 4125,
      "aries": 4126,
      "allor": 4127,
      "data,": 4128,
      "substr": 4129,
      "potential": 4130,
      ".com/": 4131,
      "Go": 4132,
      "OS": 4133,
      "bank": 4134,
      "elect": 4135,
      "reference": 4136,
      "atter": 4137,
      "coverage": 4138,
      "nobody": 4139,
      "turns": 4140,
      "maps": 4141,
      "transport": 4142,
      "Bo": 4143,
      "Mallor": 4144,
      "iter": 4145,
      "le,": 4146,
      "cess.": 4147,
      "original": 4148,
      "intelligence": 4149,
      "kitun": 4150,
      "mise": 4151,
      "rul": 4152,
      "hel": 4153,
      "spread": 4154,
      "times": 4155,
      "prediction": 4156,
      "practical": 4157,
      "arbit": 4158,
      "reader": 4159,
      "imin": 4160,
      "trace": 4161,
      "subst": 4162,
      "later": 4163,
      "claims": 4164,
      "layer.": 4165,
      "multiple": 4166,
      "post-": 4167,
      "payload": 4168,
      "schedul": 4169,
      "80": 4170,
      "ey": 4171,
      "ff": 4172,
      "runs": 4173,
      "black": 4174,
      "exists": 4175,
      "certain": 4176,
      "magn": 4177,
      "increasing": 4178,
      "ierarch": 4179,
      "historical": 4180,
      "-driven": 4181,
      "anger": 4182,
      "viol": 4183,
      "'d": 4184,
      "-2": 4185,
      "onto": 4186,
      "signals": 4187,
      "close": 4188,
      "happens": 4189,
      "further": 4190,
      "kind": 4191,
      "enc": 4192,
      "ica": 4193,
      "ilib": 4194,
      "lip": 4195,
      "currently": 4196,
      "confidence": 4197,
      "including": 4198,
      "ilibri": 4199,
      "(the": 4200,
      "-0": 4201,
      "hop": 4202,
      "ners": 4203,
      "ze": 4204,
      "heur": 4205,
      "cogn": 4206,
      "solar": 4207,
      "architectural": 4208,
      "four": 4209,
      "fresh": 4210,
      "gal": 4211,
      "game": 4212,
      "enforce": 4213,
      "ess.": 4214,
      "detail": 4215,
      "optimal": 4216,
      "I've": 4217,
      "credit": 4218,
      "kernel": 4219,
      "Mallorca": 4220,
      "Gu": 4221,
      "bad": 4222,
      "vision": 4223,
      "ins": 4224,
      "degra": 4225,
      "models.": 4226,
      "feren": 4227,
      "mechanical": 4228,
      "resulting": 4229,
      "host": 4230,
      "requirements": 4231,
      "lag": 4232,
      "modes": 4233,
      "strong": 4234,
      "blind": 4235,
      "costs": 4236,
      "propag": 4237,
      "ilibrium": 4238,
      "cut": 4239,
      "moder": 4240,
      "ably": 4241,
      "percent": 4242,
      "trap": 4243,
      "000": 4244,
      "vention": 4245,
      "limits": 4246,
      "payment": 4247,
      "practice": 4248,
      "negative": 4249,
      "label": 4250,
      "Op": 4251,
      "Rese": 4252,
      "gg": 4253,
      "site": 4254,
      "conver": 4255,
      "manual": 4256,
      "state,": 4257,
      "spectral": 4258,
      "binary": 4259,
      "aggreg": 4260,
      "Research": 4261,
      "-off": 4262,
      "ping": 4263,
      "slow": 4264,
      "theory": 4265,
      "named": 4266,
      "heavy": 4267,
      "custom": 4268,
      "*.": 4269,
      "failed": 4270,
      "month": 4271,
      "99": 4272,
      "CP": 4273,
      "ML": 4274,
      "RSV": 4275,
      "wo": 4276,
      "recur": 4277,
      "ances": 4278,
      "arr": 4279,
      "rout": 4280,
      "construction": 4281,
      "working": 4282,
      "framing": 4283,
      "ators": 4284,
      "objective": 4285,
      "green": 4286,
      "usually": 4287,
      "RSVP": 4288,
      "ience": 4289,
      "mention": 4290,
      "ived": 4291,
      "discus": 4292,
      "stops": 4293,
      "venue": 4294,
      "limited": 4295,
      "driver": 4296,
      "section": 4297,
      "conve": 4298,
      "sho": 4299,
      "final": 4300,
      "written": 4301,
      "pick": 4302,
      "in-": 4303,
      "fort": 4304,
      "trading": 4305,
      "clusion": 4306,
      "implies": 4307,
      "colum": 4308,
      "errors": 4309,
      "whose": 4310,
      "burden": 4311,
      "precisely": 4312,
      "decoupling": 4313,
      "consensus": 4314,
      "sit": 4315,
      "checks": 4316,
      "describing": 4317,
      "turbul": 4318,
      "predictive": 4319,
      "1,": 4320,
      "hierarch": 4321,
      "ening": 4322,
      "equilibrium": 4323,
      "didn't": 4324,
      "corpor": 4325,
      "/0": 4326,
      "7.": 4327,
      "ges": 4328,
      "hour": 4329,
      "since": 4330,
      "invol": 4331,
      "ences": 4332,
      "alpha": 4333,
      "leav": 4334,
      "member": 4335,
      "flux": 4336,
      "private": 4337,
      "algorithm": 4338,
      "Ver": 4339,
      "ipl": 4340,
      "mus": 4341,
      "erial": 4342,
      "resid": 4343,
      "improve": 4344,
      "plain": 4345,
      "rief": 4346,
      "fidel": 4347,
      "discrete": 4348,
      "posit": 4349,
      "fluctu": 4350,
      "dynamics": 4351,
      "jump": 4352,
      "topology": 4353,
      "emission": 4354,
      "recent": 4355,
      "Inte": 4356,
      "scales": 4357,
      "techno": 4358,
      "returns": 4359,
      "95": 4360,
      "mium": 4361,
      "nav": 4362,
      "artic": 4363,
      "points": 4364,
      "addresses": 4365,
      "correlated": 4366,
      "cryptograph": 4367,
      "fals": 4368,
      "pin": 4369,
      "watch": 4370,
      "immediate": 4371,
      "acce": 4372,
      "shot": 4373,
      "miss": 4374,
      "portfol": 4375,
      "synchron": 4376,
      "attempt": 4377,
      "uncertainty": 4378,
      "ske": 4379,
      "high-frequency": 4380,
      "re-deriv": 4381,
      "arXiv:260": 4382,
      "appear": 4383,
      "AT": 4384,
      "IN": 4385,
      "Sa": 4386,
      "bor": 4387,
      "nature": 4388,
      "alle": 4389,
      "begin": 4390,
      "aren": 4391,
      "decid": 4392,
      "subject": 4393,
      "collection": 4394,
      "respond": 4395,
      "width": 4396,
      "govern": 4397,
      "lines": 4398,
      "seat": 4399,
      "meter": 4400,
      "structures": 4401,
      "ER": 4402,
      "tight": 4403,
      "third": 4404,
      "ers,": 4405,
      "serve": 4406,
      "translation": 4407,
      "parameters": 4408,
      "relevant": 4409,
      "Plan": 4410,
      "cli": 4411,
      "sty": 4412,
      "stell": 4413,
      "Me": 4414,
      "ield": 4415,
      "iner": 4416,
      "ancy": 4417,
      "auto": 4418,
      "traction": 4419,
      "age.": 4420,
      "seeing": 4421,
      "abilistic": 4422,
      "trend": 4423,
      "category": 4424,
      "70": 4425,
      "ES": 4426,
      "He": 4427,
      "job": 4428,
      "today": 4429,
      "sensor": 4430,
      "commitment": 4431,
      "\",": 4432,
      "CO": 4433,
      "Cl": 4434,
      "Two": 4435,
      "fro": 4436,
      "the-": 4437,
      "ouple": 4438,
      "deb": 4439,
      "extre": 4440,
      "tested": 4441,
      "absence": 4442,
      "versal": 4443,
      "provided": 4444,
      "Model": 4445,
      "mitted": 4446,
      "recovery": 4447,
      "sn": 4448,
      "concept": 4449,
      "behavioral": 4450,
      "monitoring": 4451,
      "ables": 4452,
      "tele": 4453,
      "one,": 4454,
      "timestamp": 4455,
      "ledger": 4456,
      "couples": 4457,
      "35": 4458,
      "ath": 4459,
      "ense": 4460,
      "devi": 4461,
      "expo": 4462,
      "adjust": 4463,
      "usal": 4464,
      "ance.": 4465,
      "finan": 4466,
      "probabilistic": 4467,
      "exploit": 4468,
      "bon": 4469,
      "non": 4470,
      "wered": 4471,
      "previous": 4472,
      "create": 4473,
      "assume": 4474,
      "published": 4475,
      "May": 4476,
      "five": 4477,
      "ks": 4478,
      "cell": 4479,
      "split": 4480,
      "spike": 4481,
      "localized": 4482,
      "kill": 4483,
      "promise": 4484,
      "fam": 4485,
      "valu": 4486,
      "generated": 4487,
      "completion": 4488,
      "predic": 4489,
      "numer": 4490,
      "binding": 4491,
      "symbol": 4492,
      "discovery": 4493,
      "ather": 4494,
      "cr": 4495,
      "touch": 4496,
      "ctive": 4497,
      "meet": 4498,
      "destination": 4499,
      "allel": 4500,
      "*,": 4501,
      "replace": 4502,
      "coding": 4503,
      "not.": 4504,
      "00:": 4505,
      "netic": 4506,
      "architectures": 4507,
      "loop.": 4508,
      "synthetic": 4509,
      "adversary": 4510,
      "sensitivity": 4511,
      "..": 4512,
      "mary": 4513,
      "ray": 4514,
      "cape": 4515,
      "flag": 4516,
      "generate": 4517,
      "becoming": 4518,
      "definition": 4519,
      "consumer": 4520,
      "Be": 4521,
      "sand": 4522,
      "mot": 4523,
      "shifting": 4524,
      "time.": 4525,
      "closure": 4526,
      "2026,": 4527,
      "lingu": 4528,
      "credential": 4529,
      "conversation": 4530,
      "-only": 4531,
      ":**": 4532,
      "labor": 4533,
      "ret": 4534,
      "systematic": 4535,
      "capabilities": 4536,
      "positive": 4537,
      "integrated": 4538,
      "axis": 4539,
      "broken": 4540,
      "available": 4541,
      "77": 4542,
      "My": 4543,
      "Q4": 4544,
      "na": 4545,
      "default": 4546,
      "spend": 4547,
      "ants": 4548,
      "achi": 4549,
      "luxury": 4550,
      "lukitun": 4551,
      "connection": 4552,
      "29": 4553,
      "Air": 4554,
      "June": 4555,
      "Sol": 4556,
      "itution": 4557,
      "dead": 4558,
      "import": 4559,
      "updat": 4560,
      "reads": 4561,
      "addres": 4562,
      "supply": 4563,
      "regulatory": 4564,
      "princip": 4565,
      "roll": 4566,
      "ception": 4567,
      "suite": 4568,
      "iving": 4569,
      "regard": 4570,
      "error.": 4571,
      "secondary": 4572,
      "calibration": 4573,
      "client": 4574,
      "Is": 4575,
      "adata": 4576,
      "umb": 4577,
      "engineer": 4578,
      "implication": 4579,
      "half": 4580,
      "modern": 4581,
      "words": 4582,
      "Which": 4583,
      "ength": 4584,
      "larger": 4585,
      "predictable": 4586,
      "aircraft": 4587,
      "2,": 4588,
      "JS": 4589,
      "py": 4590,
      "ending": 4591,
      "confl": 4592,
      "neural": 4593,
      "compress": 4594,
      "lower": 4595,
      "update": 4596,
      "2024": 4597,
      "finite": 4598,
      "logic.": 4599,
      "message": 4600,
      "metadata": 4601,
      "hidden": 4602,
      "help": 4603,
      "cognitive": 4604,
      "48": 4605,
      "tes": 4606,
      "material": 4607,
      "failure.": 4608,
      "2026)": 4609,
      "Eng": 4610,
      "coherent": 4611,
      "26": 4612,
      "Fin": 4613,
      "pul": 4614,
      "s\"": 4615,
      "vac": 4616,
      "—the": 4617,
      "stale": 4618,
      "orm": 4619,
      "rain": 4620,
      "prote": 4621,
      "unit": 4622,
      "parallel": 4623,
      "else": 4624,
      "Bec": 4625,
      "ade": 4626,
      "bid": 4627,
      "ost": 4628,
      "reput": 4629,
      "coefficient": 4630,
      "team": 4631,
      "combin": 4632,
      "identified": 4633,
      "space.": 4634,
      "substrate": 4635,
      "Because": 4636,
      "-s": 4637,
      "ing:": 4638,
      "ount": 4639,
      "optimizing": 4640,
      "holds": 4641,
      "themsel": 4642,
      "stays": 4643,
      "-bearing": 4644,
      "ered": 4645,
      "failures": 4646,
      "visual": 4647,
      "hallucination": 4648,
      "guarantee": 4649,
      "satisf": 4650,
      "achiev": 4651,
      "-dependent": 4652,
      "23": 4653,
      "Lu": 4654,
      "zen": 4655,
      "}$": 4656,
      "influ": 4657,
      "room": 4658,
      "seed": 4659,
      "fork": 4660,
      "motion": 4661,
      "actic": 4662,
      "assist": 4663,
      "regarding": 4664,
      "ifier": 4665,
      "generator": 4666,
      "submitted": 4667,
      "treated": 4668,
      "scen": 4669,
      "single-": 4670,
      "events": 4671,
      "expert": 4672,
      "carries": 4673,
      "portfolio": 4674,
      "stellar": 4675,
      "regardless": 4676,
      "Ad": 4677,
      "brief": 4678,
      "cad": 4679,
      "hind": 4680,
      "night": 4681,
      "least": 4682,
      "forward": 4683,
      "acts": 4684,
      "duced": 4685,
      "produces": 4686,
      "quantized": 4687,
      "trade-off": 4688,
      "harness": 4689,
      "reveal": 4690,
      "survey": 4691,
      "00:0": 4692,
      "K_": 4693,
      "a,": 4694,
      "dle": 4695,
      "sip": 4696,
      "aneous": 4697,
      "asing": 4698,
      "cean": 4699,
      "projection": 4700,
      "quiet": 4701,
      "spot": 4702,
      "absorb": 4703,
      "optimize": 4704,
      "fluid": 4705,
      "strategy": 4706,
      "magnitude": 4707,
      "far": 4708,
      "hor": 4709,
      "voc": 4710,
      "vina": 4711,
      "attribution": 4712,
      "along": 4713,
      "and-": 4714,
      "expres": 4715,
      "uli": 4716,
      "rix": 4717,
      "operating": 4718,
      "iveness": 4719,
      "geometry": 4720,
      "Ben": 4721,
      "dark": 4722,
      "urable": 4723,
      "ensem": 4724,
      "feel": 4725,
      "assess": 4726,
      "syntax": 4727,
      "column": 4728,
      "vacu": 4729,
      "fill": 4730,
      "reat": 4731,
      "ingual": 4732,
      "unding": 4733,
      "neut": 4734,
      "compression": 4735,
      "libr": 4736,
      "transaction": 4737,
      "guard": 4738,
      "collapses": 4739,
      "committed": 4740,
      "methods": 4741,
      "attempts": 4742,
      "asym": 4743,
      "abstraction": 4744,
      "Q4_": 4745,
      "incent": 4746,
      "ed-": 4747,
      "ild": 4748,
      "promis": 4749,
      "contest": 4750,
      "examp": 4751,
      "flat": 4752,
      "mismatch": 4753,
      "scores": 4754,
      "matters": 4755,
      "introduce": 4756,
      "penal": 4757,
      "empir": 4758,
      "K_M": 4759,
      "Q4_K_M": 4760,
      "arial": 4761,
      "ases": 4762,
      "below": 4763,
      "reliable": 4764,
      "addressed": 4765,
      "long-term": 4766,
      "\"how": 4767,
      "soph": 4768,
      "ori": 4769,
      "left": 4770,
      "behind": 4771,
      "activ": 4772,
      "manag": 4773,
      "oton": 4774,
      "peak": 4775,
      "solved": 4776,
      "spective": 4777,
      "autonomous": 4778,
      "storage": 4779,
      "fidelity": 4780,
      "linguistic": 4781,
      "sophistic": 4782,
      "sive": 4783,
      "wide": 4784,
      "iting": 4785,
      "highlight": 4786,
      "problem,": 4787,
      "years": 4788,
      "development": 4789,
      "rapid": 4790,
      "heuristic": 4791,
      "extreme": 4792,
      "Prec": 4793,
      "upload": 4794,
      "handles": 4795,
      "trained": 4796,
      "Does": 4797,
      "75": 4798,
      "Not": 4799,
      "Wor": 4800,
      "hib": 4801,
      "ove": 4802,
      "lost": 4803,
      "process.": 4804,
      "delay": 4805,
      "divers": 4806,
      "includes": 4807,
      "hed": 4808,
      "odo": 4809,
      "insufficient": 4810,
      "compared": 4811,
      "ually": 4812,
      "flaw": 4813,
      "waste": 4814,
      "declared": 4815,
      "ceiling": 4816,
      "gam": 4817,
      "held": 4818,
      "this,": 4819,
      "dissip": 4820,
      "highly": 4821,
      "window.": 4822,
      "here.": 4823,
      "Until": 4824,
      "approximately": 4825,
      "barri": 4826,
      "diagno": 4827,
      "EE": 4828,
      "From": 4829,
      "tle": 4830,
      "node": 4831,
      "best": 4832,
      "interval": 4833,
      "timing": 4834,
      "they're": 4835,
      "relying": 4836,
      "confident": 4837,
      "suppres": 4838,
      "3090": 4839,
      "there's": 4840,
      "4-bit": 4841,
      "well-": 4842,
      "Instead,": 4843,
      "rigid": 4844,
      "-a": 4845,
      "AL": 4846,
      "Gen": 4847,
      "eco": 4848,
      "ufact": 4849,
      "alter": 4850,
      "ders": 4851,
      "umul": 4852,
      "matrix": 4853,
      "them.": 4854,
      "reduce": 4855,
      "authority": 4856,
      "comparison": 4857,
      "residue": 4858,
      "[research": 4859,
      "cular": 4860,
      "envelo": 4861,
      "climate": 4862,
      "proved": 4863,
      "checkpoint": 4864,
      "metrics": 4865,
      "standing": 4866,
      "processing": 4867,
      "showed": 4868,
      "location": 4869,
      "front": 4870,
      "musica": 4871,
      "exposure": 4872,
      "-world": 4873,
      "billion": 4874,
      "ired": 4875,
      "replac": 4876,
      "station": 4877,
      "itter": 4878,
      "chat": 4879,
      "premium": 4880,
      "identifies": 4881,
      "planners": 4882,
      "frameworks": 4883,
      "refine": 4884,
      "conditions": 4885,
      "sampling": 4886,
      "exceeds": 4887,
      "28": 4888,
      "ged": 4889,
      "hou": 4890,
      "mac": 4891,
      "prog": 4892,
      "concrete": 4893,
      "travel": 4894,
      "matic": 4895,
      "foot": 4896,
      "diffic": 4897,
      "inputs": 4898,
      "issue": 4899,
      "numerical": 4900,
      "Dig": 4901,
      "SN": 4902,
      "’s": 4903,
      "reproduce": 4904,
      "icious": 4905,
      "fragment": 4906,
      "sensitive": 4907,
      "particular": 4908,
      "large-scale": 4909,
      "minimum": 4910,
      "understanding": 4911,
      "GPU": 4912,
      "Fe": 4913,
      "cure": 4914,
      "ior": 4915,
      "ann": 4916,
      "cos": 4917,
      "lie": 4918,
      "system,": 4919,
      "summar": 4920,
      "files": 4921,
      "Ju": 4922,
      "s/": 4923,
      "ancho": 4924,
      "tied": 4925,
      "series": 4926,
      "correctness": 4927,
      "instant": 4928,
      "witch": 4929,
      "proposal": 4930,
      "package": 4931,
      "faster": 4932,
      "Trans": 4933,
      "vacuum": 4934,
      "Net": 4935,
      "PC": 4936,
      "hits": 4937,
      "proced": 4938,
      "preference": 4939,
      "boot": 4940,
      "manufact": 4941,
      "ization.": 4942,
      "collect": 4943,
      "providing": 4944,
      "incident": 4945,
      "alignment": 4946,
      "mistake": 4947,
      "anchored": 4948,
      "CM": 4949,
      "s;": 4950,
      "tual": 4951,
      "thing.": 4952,
      "reject": 4953,
      "attract": 4954,
      "ilot": 4955,
      "nov": 4956,
      "nodes": 4957,
      "exchange": 4958,
      "curve": 4959,
      "astro": 4960,
      "bounded": 4961,
      "first-": 4962,
      "description": 4963,
      "properties": 4964,
      "RAG": 4965,
      "faces": 4966,
      "shock": 4967,
      "financial": 4968,
      "AN": 4969,
      "NO": 4970,
      "sl": 4971,
      "unch": 4972,
      "perturb": 4973,
      "measurable": 4974,
      "functions": 4975,
      "status": 4976,
      "reflect": 4977,
      "primitive": 4978,
      "representation": 4979,
      "sample": 4980,
      "-4": 4981,
      "dual": 4982,
      "lives": 4983,
      "ton": 4984,
      "stress": 4985,
      "alone": 4986,
      "frag": 4987,
      "presence": 4988,
      "reliability": 4989,
      "survives": 4990,
      "discipl": 4991,
      "scenari": 4992,
      "Tech": 4993,
      "ares": 4994,
      "lens": 4995,
      "ring": 4996,
      "There": 4997,
      "verdict": 4998,
      "shad": 4999,
      "few": 5000,
      "fraction": 5001,
      "akes": 5002,
      "finish": 5003,
      "keeps": 5004,
      "sustainable": 5005,
      "rigor": 5006,
      "genuinely": 5007,
      "Digital": 5008,
      "GB": 5009,
      "ffer": 5010,
      "hedge": 5011,
      "mix": 5012,
      "rative": 5013,
      "sources": 5014,
      "los": 5015,
      "accur": 5016,
      "permission": 5017,
      "corpus": 5018,
      "sharp": 5019,
      "communication": 5020,
      "sophisticated": 5021,
      "Mi": 5022,
      "mas": 5023,
      "models,": 5024,
      "formation": 5025,
      "corrup": 5026,
      "capable": 5027,
      "structurally": 5028,
      "everything": 5029,
      "effects": 5030,
      "ignores": 5031,
      "ensemble": 5032,
      "empirical": 5033,
      "macro": 5034,
      "LI": 5035,
      "gl": 5036,
      "ocean": 5037,
      "slo": 5038,
      "uro": 5039,
      "water": 5040,
      "spent": 5041,
      "actor": 5042,
      "string": 5043,
      "ends": 5044,
      "archive": 5045,
      "functional": 5046,
      "constraints.": 5047,
      "environment.": 5048,
      "successful": 5049,
      "cluster": 5050,
      "frozen": 5051,
      "',": 5052,
      "Bu": 5053,
      "CVE": 5054,
      "notes": 5055,
      "accoun": 5056,
      "qual": 5057,
      "signing": 5058,
      "regular": 5059,
      "produced": 5060,
      "asking": 5061,
      "----": 5062,
      "magnetic": 5063,
      "script": 5064,
      "-and-": 5065,
      "21": 5066,
      "Open": 5067,
      "m.": 5068,
      "inject": 5069,
      "recomput": 5070,
      "ismic": 5071,
      "methodo": 5072,
      "applied": 5073,
      "Ear": 5074,
      "dust": 5075,
      "jor": 5076,
      "infl": 5077,
      "remo": 5078,
      "eral": 5079,
      "wealth": 5080,
      "checking": 5081,
      "https://arxiv.org/abs/250": 5082,
      "digest": 5083,
      "tells": 5084,
      "typically": 5085,
      "ferences": 5086,
      "Integr": 5087,
      "FT": 5088,
      "Qu": 5089,
      "rum": 5090,
      "ories": 5091,
      "buy": 5092,
      "real-world": 5093,
      "background": 5094,
      "elimin": 5095,
      "throughput": 5096,
      "partition": 5097,
      "institution": 5098,
      "independently": 5099,
      "reputation": 5100,
      "27": 5101,
      "Key": 5102,
      "Res": 5103,
      "construct": 5104,
      "reser": 5105,
      "etary": 5106,
      "perman": 5107,
      "strugg": 5108,
      "matching": 5109,
      "multi-agent": 5110,
      "community": 5111,
      "types": 5112,
      "sustainability": 5113,
      "Cur": 5114,
      "Even": 5115,
      "a.": 5116,
      "ate,": 5117,
      "plumb": 5118,
      "outcome": 5119,
      "comment": 5120,
      "basin": 5121,
      "Cont": 5122,
      "zero-": 5123,
      "argument": 5124,
      "dro": 5125,
      "major": 5126,
      "compli": 5127,
      "comb": 5128,
      "parad": 5129,
      "format": 5130,
      "We're": 5131,
      "decouple": 5132,
      "gran": 5133,
      "code.": 5134,
      "prevents": 5135,
      "proposed": 5136,
      "snap": 5137,
      "sandbox": 5138,
      "Ne": 5139,
      "``": 5140,
      "cand": 5141,
      "eper": 5142,
      "expos": 5143,
      "intended": 5144,
      "adding": 5145,
      "systems.": 5146,
      "services": 5147,
      "scalar": 5148,
      "observations": 5149,
      "System": 5150,
      "configuration": 5151,
      "envelope": 5152,
      "(S": 5153,
      "ortion": 5154,
      "lean": 5155,
      "izon": 5156,
      "agent-": 5157,
      "mechanism.": 5158,
      "effective": 5159,
      "trusted": 5160,
      "concentration": 5161,
      "smooth": 5162,
      "(M": 5163,
      "PO": 5164,
      "bul": 5165,
      "sever": 5166,
      "coded": 5167,
      "exogen": 5168,
      "opportun": 5169,
      "time,": 5170,
      "https://arxiv.org/abs/240": 5171,
      "recogn": 5172,
      "lacks": 5173,
      "assets.": 5174,
      "universal": 5175,
      "application": 5176,
      "crash": 5177,
      "Mul": 5178,
      "Ob": 5179,
      "dies": 5180,
      "almost": 5181,
      "enter": 5182,
      "you.": 5183,
      "perspective": 5184,
      "bytes": 5185,
      "measures": 5186,
      "firmed": 5187,
      "early": 5188,
      "describe": 5189,
      "learn": 5190,
      "learned": 5191,
      "certific": 5192,
      "-induced": 5193,
      "perfectly": 5194,
      "reveals": 5195,
      "Precise": 5196,
      "Py": 5197,
      "us,": 5198,
      "cover": 5199,
      "propose": 5200,
      "liability": 5201,
      "ople": 5202,
      "**S": 5203,
      "work.": 5204,
      "agement": 5205,
      "transmission": 5206,
      "commend": 5207,
      "distribution.": 5208,
      "transitions": 5209,
      "legal": 5210,
      "outputs": 5211,
      "reached": 5212,
      "hybrid": 5213,
      "-in-": 5214,
      "iece": 5215,
      "Aug": 5216,
      "established": 5217,
      "\"I": 5218,
      "(a": 5219,
      "98": 5220,
      "Com": 5221,
      "bers": 5222,
      "ness.": 5223,
      "reed": 5224,
      "thesis": 5225,
      "ased": 5226,
      "igu": 5227,
      "ives.": 5228,
      "comes": 5229,
      "proving": 5230,
      "drive": 5231,
      "summary": 5232,
      "load-bearing": 5233,
      "detector": 5234,
      "architecture.": 5235,
      "grammar": 5236,
      "maintaining": 5237,
      "increases": 5238,
      "soft": 5239,
      "challeng": 5240,
      "explicitly": 5241,
      "cases": 5242,
      "concentr": 5243,
      "shadow": 5244,
      "38": 5245,
      "DE": 5246,
      "kin": 5247,
      "ov": 5248,
      "osing": 5249,
      "s-": 5250,
      "itative": 5251,
      "igation": 5252,
      "partial": 5253,
      "ially": 5254,
      "ance,": 5255,
      "guess": 5256,
      "weddings": 5257,
      "industri": 5258,
      "adversarial": 5259,
      "invitation": 5260,
      "wallet": 5261,
      "aS": 5262,
      "oss": 5263,
      "pan": 5264,
      "pet": 5265,
      "role": 5266,
      "above": 5267,
      "sures": 5268,
      "**00:0": 5269,
      "reported": 5270,
      "synthesis": 5271,
      "possible": 5272,
      "footprint": 5273,
      "CI": 5274,
      "IC": 5275,
      "ME": 5276,
      "danger": 5277,
      "lin": 5278,
      "race": 5279,
      "iform": 5280,
      "concer": 5281,
      "confirmed": 5282,
      "acting": 5283,
      "riend": 5284,
      "time-": 5285,
      "expand": 5286,
      "said": 5287,
      "thentic": 5288,
      "path.": 5289,
      "malicious": 5290,
      "derivation": 5291,
      "pipel": 5292,
      "query": 5293,
      "July": 5294,
      "permanent": 5295,
      "5.0": 5296,
      "AC": 5297,
      "tree": 5298,
      "inher": 5299,
      "oney": 5300,
      "set.": 5301,
      "basis": 5302,
      "names": 5303,
      "harder": 5304,
      "judgment": 5305,
      "experience": 5306,
      "business": 5307,
      "orchestration": 5308,
      "library": 5309,
      "App": 5310,
      "ises": 5311,
      "arily": 5312,
      "debug": 5313,
      "ustain": 5314,
      "coming": 5315,
      "due": 5316,
      "identical": 5317,
      "structure.": 5318,
      "anything": 5319,
      "tasks": 5320,
      "telemetry": 5321,
      "gers": 5322,
      "indu": 5323,
      "revision": 5324,
      "ics.": 5325,
      "rail": 5326,
      "explain": 5327,
      "pool": 5328,
      "reality.": 5329,
      "ghost": 5330,
      "otherwise": 5331,
      "wrong.": 5332,
      "pository": 5333,
      "acceler": 5334,
      "SE": 5335,
      "yield": 5336,
      "erc": 5337,
      "ited": 5338,
      "seismic": 5339,
      "uration": 5340,
      "trip": 5341,
      "authentic": 5342,
      "commod": 5343,
      "validator": 5344,
      "ultaneous": 5345,
      "ieve": 5346,
      "-3": 5347,
      "`,": 5348,
      "bir": 5349,
      "length": 5350,
      "is:": 5351,
      "verse.": 5352,
      "reng": 5353,
      "ated,": 5354,
      "dependenc": 5355,
      "backup": 5356,
      "itself,": 5357,
      "gap.": 5358,
      "two-": 5359,
      "spectro": 5360,
      "include": 5361,
      "persistent": 5362,
      "embedding": 5363,
      "technology": 5364,
      "skew": 5365,
      "exogenous": 5366,
      "e-": 5367,
      "fle": 5368,
      "smar": 5369,
      "sian": 5370,
      "——": 5371,
      "ram": 5372,
      "command": 5373,
      "writing": 5374,
      "spectrum": 5375,
      "equival": 5376,
      "install": 5377,
      "granular": 5378,
      "Multi": 5379,
      "37": 5380,
      "FP": 5381,
      "ved.": 5382,
      "st-": 5383,
      "story": 5384,
      "agency": 5385,
      "ivot": 5386,
      "phic": 5387,
      "over-": 5388,
      "people": 5389,
      "signal-to-": 5390,
      "things": 5391,
      "benef": 5392,
      "proposition": 5393,
      "solutions": 5394,
      "demonstrates": 5395,
      "neutral": 5396,
      "-free": 5397,
      "LS": 5398,
      "S.": 5399,
      "e,": 5400,
      "gives": 5401,
      "staging": 5402,
      "streng": 5403,
      "season": 5404,
      "vere": 5405,
      "vered": 5406,
      "layers": 5407,
      "high-resolution": 5408,
      "environment,": 5409,
      "reports": 5410,
      "Spec": 5411,
      "population": 5412,
      "31B": 5413,
      "cryptographic": 5414,
      "JSON": 5415,
      "44": 5416,
      "Same": 5417,
      "pas": 5418,
      "inspect": 5419,
      "repository": 5420,
      "arse": 5421,
      "heat": 5422,
      "determ": 5423,
      "sector": 5424,
      "conserv": 5425,
      "uniform": 5426,
      "decad": 5427,
      "planner": 5428,
      "existence": 5429,
      "multil": 5430,
      "simultaneous": 5431,
      "survive": 5432,
      "galax": 5433,
      "signal-to-noise": 5434,
      "determine": 5435,
      ",000": 5436,
      "Data": 5437,
      "Man": 5438,
      "lap": 5439,
      "merg": 5440,
      "ogu": 5441,
      "pivot": 5442,
      "t.": 5443,
      "repe": 5444,
      "orum": 5445,
      "quorum": 5446,
      "tered": 5447,
      "trail": 5448,
      "amount": 5449,
      "regim": 5450,
      "risks": 5451,
      "---": 5452,
      "regional": 5453,
      "photo": 5454,
      "65": 5455,
      "LE": 5456,
      "OC": 5457,
      "g.": 5458,
      "les.": 5459,
      "scan": 5460,
      "stage": 5461,
      "stabil": 5462,
      "decomposition": 5463,
      "trun": 5464,
      "spac": 5465,
      "you'd": 5466,
      "statement": 5467,
      "dependence": 5468,
      "scill": 5469,
      "reasoning.": 5470,
      "carbon": 5471,
      "workflows": 5472,
      "decoupled": 5473,
      "reconstruction": 5474,
      "ambigu": 5475,
      "rules": 5476,
      "Earth": 5477,
      "candid": 5478,
      "August": 5479,
      "\"the": 5480,
      "64": 5481,
      "ij": 5482,
      "mim": 5483,
      "pilot": 5484,
      "me.": 5485,
      "iff": 5486,
      "plu": 5487,
      "ated.": 5488,
      "sole": 5489,
      "ates,": 5490,
      "processes": 5491,
      "focuses": 5492,
      "captured": 5493,
      "priorit": 5494,
      ":00Z": 5495,
      "birth": 5496,
      "activity": 5497,
      "powered": 5498,
      "logy.": 5499,
      "point.": 5500,
      "'the": 5501,
      "came": 5502,
      "dent": 5503,
      "k=": 5504,
      "o,": 5505,
      "ined": 5506,
      "onal": 5507,
      "lose": 5508,
      "plus": 5509,
      "gravit": 5510,
      "Web": 5511,
      "tests": 5512,
      "needed": 5513,
      "tics": 5514,
      "drand": 5515,
      "10.": 5516,
      "attacker": 5517,
      "HF": 5518,
      "dden": 5519,
      "fig": 5520,
      "intensity": 5521,
      "imposs": 5522,
      "high-dimensional": 5523,
      "stopped": 5524,
      "case,": 5525,
      "massive,": 5526,
      "personal": 5527,
      "delivery": 5528,
      "adaptive": 5529,
      "influence": 5530,
      "riendly": 5531,
      "aero": 5532,
      "switch": 5533,
      "incorpor": 5534,
      "oring": 5535,
      "weather": 5536,
      "2023": 5537,
      "signal,": 5538,
      "reliance": 5539,
      "dense": 5540,
      "modul": 5541,
      "significantly": 5542,
      "trends": 5543,
      "dissipation": 5544,
      "fleet": 5545,
      "Apr": 5546,
      "GW": 5547,
      "IT": 5548,
      "mber": 5549,
      "ological": 5550,
      "oscill": 5551,
      "rein": 5552,
      "enh": 5553,
      "exhib": 5554,
      "apor": 5555,
      "derive": 5556,
      "buffer": 5557,
      "achieve": 5558,
      "branch": 5559,
      "goti": 5560,
      "truly": 5561,
      "separation": 5562,
      "prices": 5563,
      "approximation": 5564,
      "transparen": 5565,
      "marginal": 5566,
      "contains": 5567,
      "-S": 5568,
      "7-": 5569,
      "7.0": 5570,
      "Sec": 5571,
      "bind": 5572,
      "cil": 5573,
      "reply": 5574,
      "sees": 5575,
      "modif": 5576,
      "sudden": 5577,
      "Then": 5578,
      "discre": 5579,
      "creating": 5580,
      "point,": 5581,
      "vendors": 5582,
      "Once": 5583,
      "analyz": 5584,
      "tuning": 5585,
      "purely": 5586,
      "swap": 5587,
      "degrad": 5588,
      "Opportun": 5589,
      "hedging": 5590,
      "ai": 5591,
      "fold": 5592,
      "void": 5593,
      "health": 5594,
      "covariance": 5595,
      "versus": 5596,
      "one-": 5597,
      "ressive": 5598,
      "quantify": 5599,
      "receipts": 5600,
      "reaches": 5601,
      "causal": 5602,
      "sense": 5603,
      "availability": 5604,
      "beacon-": 5605,
      "bandwidth": 5606,
      "asserting": 5607,
      "re-derivable": 5608,
      "particularly": 5609,
      "industrial": 5610,
      "-space": 5611,
      "batch": 5612,
      "iqu": 5613,
      "v3": 5614,
      "vary": 5615,
      "revers": 5616,
      "orac": 5617,
      "assets": 5618,
      "metic": 5619,
      "compromis": 5620,
      "Inter": 5621,
      "risk.": 5622,
      "claim.": 5623,
      "colle": 5624,
      "changing": 5625,
      "hydro": 5626,
      "recover": 5627,
      "benchmarks": 5628,
      "counterparty": 5629,
      "middle": 5630,
      "fine-": 5631,
      "leaves": 5632,
      "Verification": 5633,
      "addressee": 5634,
      "highlights": 5635,
      "snapshot": 5636,
      "mma": 5637,
      "threat": 5638,
      "it:": 5639,
      "render": 5640,
      "acknow": 5641,
      "observer": 5642,
      "function.": 5643,
      "scop": 5644,
      "rank": 5645,
      "reducing": 5646,
      "verifying": 5647,
      "targets": 5648,
      "truth.": 5649,
      "selected": 5650,
      "catal": 5651,
      "compiler": 5652,
      "strength": 5653,
      "DM": 5654,
      "High": 5655,
      "eas": 5656,
      "given": 5657,
      "million": 5658,
      "deal": 5659,
      "wel": 5660,
      "urity": 5661,
      "strip": 5662,
      "phen": 5663,
      "effort": 5664,
      "fund": 5665,
      "checkable": 5666,
      "completen": 5667,
      "constraint.": 5668,
      "distributions": 5669,
      "execute": 5670,
      "offer": 5671,
      "classification": 5672,
      "allowed": 5673,
      "intent.": 5674,
      "controlled": 5675,
      "simulations": 5676,
      "holding": 5677,
      "horizon": 5678,
      "Or": 5679,
      "RT": 5680,
      "notic": 5681,
      "negoti": 5682,
      "agents.": 5683,
      "intervention": 5684,
      "ates.": 5685,
      "boundaries": 5686,
      "https://arxiv.org/abs/1": 5687,
      "clude": 5688,
      "silence": 5689,
      "hypo": 5690,
      "estimate": 5691,
      "automation": 5692,
      "procedure": 5693,
      "CVE-": 5694,
      "gravitational": 5695,
      "39": 5696,
      "RM": 5697,
      "fight": 5698,
      "lift": 5699,
      "ster": 5700,
      "losing": 5701,
      "vert": 5702,
      "atell": 5703,
      "inevit": 5704,
      "Why": 5705,
      "solves": 5706,
      "mechanics": 5707,
      "physically": 5708,
      "2026.": 5709,
      "fields": 5710,
      "affect": 5711,
      "calls": 5712,
      "narrative": 5713,
      "momentum": 5714,
      "updates": 5715,
      "discipline": 5716,
      "pts": 5717,
      "wers": 5718,
      "toler": 5719,
      "cool": 5720,
      "mole": 5721,
      "signatures": 5722,
      "otic": 5723,
      "generative": 5724,
      "roughly": 5725,
      "append": 5726,
      "vised": 5727,
      "choosing": 5728,
      "modal": 5729,
      "triggers": 5730,
      "ogle": 5731,
      "turbulence": 5732,
      "governance": 5733,
      "style": 5734,
      "$.": 5735,
      "46": 5736,
      "AG": 5737,
      "Cap": 5738,
      "NS": 5739,
      "kes": 5740,
      "zz": 5741,
      "es:": 5742,
      "meta": 5743,
      "exerc": 5744,
      "higher-": 5745,
      "solver": 5746,
      "10^": 5747,
      "artifacts": 5748,
      "sentence": 5749,
      "RLHF": 5750,
      "navigate": 5751,
      "SaaS": 5752,
      "attractor": 5753,
      "trunc": 5754,
      "colleag": 5755,
      "09": 5756,
      "0.0": 5757,
      "LO": 5758,
      "TT": 5759,
      "icon": 5760,
      "utes": 5761,
      "iring": 5762,
      "byte": 5763,
      "audi": 5764,
      "solute": 5765,
      "turning": 5766,
      "apping": 5767,
      "passive": 5768,
      "related": 5769,
      "catches": 5770,
      "silently": 5771,
      "News": 5772,
      "cadence": 5773,
      "22": 5774,
      "AM": 5775,
      "Mon": 5776,
      "UN": 5777,
      "culation": 5778,
      "ored": 5779,
      "pull": 5780,
      "six": 5781,
      "recompute": 5782,
      "meant": 5783,
      "vertical": 5784,
      "door": 5785,
      "rency": 5786,
      "omen": 5787,
      "colony": 5788,
      "optimized": 5789,
      "damp": 5790,
      "recorder": 5791,
      "necessity": 5792,
      "AI-powered": 5793,
      "family": 5794,
      "protect": 5795,
      "78": 5796,
      "DC": 5797,
      "Des": 5798,
      "piece": 5799,
      "ves.": 5800,
      "ensur": 5801,
      "as-": 5802,
      "ulty": 5803,
      "gether": 5804,
      "age,": 5805,
      "manip": 5806,
      "earning": 5807,
      "human-": 5808,
      "field.": 5809,
      "legacy": 5810,
      "eventually": 5811,
      "stored": 5812,
      "execution.": 5813,
      "smaller": 5814,
      "sheet": 5815,
      "mutable": 5816,
      "differential": 5817,
      "remote": 5818,
      "multilingual": 5819,
      "(C": 5820,
      "1.0": 5821,
      "Each": 5822,
      "Gaus": 5823,
      "II": 5824,
      "Ro": 5825,
      "Sustain": 5826,
      "money": 5827,
      "inger": 5828,
      "together": 5829,
      "assign": 5830,
      "converg": 5831,
      "mpot": 5832,
      "resources": 5833,
      "plaus": 5834,
      "workload": 5835,
      "haven": 5836,
      "regression": 5837,
      "ization,": 5838,
      "2026-0": 5839,
      "verification.": 5840,
      "framework,": 5841,
      "collision": 5842,
      "captures": 5843,
      "e.g.": 5844,
      "warning": 5845,
      "described": 5846,
      "persistence": 5847,
      "examines": 5848,
      "bottom": 5849,
      "motif": 5850,
      "Bench": 5851,
      "barrier": 5852,
      "Precisely.": 5853,
      "%.": 5854,
      "brit": 5855,
      "element": 5856,
      "sApp": 5857,
      "invent": 5858,
      "reactive": 5859,
      "ed\"": 5860,
      "ilit": 5861,
      "canon": 5862,
      "values": 5863,
      "solving": 5864,
      "trusting": 5865,
      "osen": 5866,
      "introducing": 5867,
      "stability.": 5868,
      "WhatsApp": 5869,
      "continuity": 5870,
      "geometric": 5871,
      "starts": 5872,
      "follows": 5873,
      "articles": 5874,
      "dens": 5875,
      "men": 5876,
      "sal": 5877,
      "enum": 5878,
      "secre": 5879,
      "contribution": 5880,
      "abric": 5881,
      "adop": 5882,
      "fake": 5883,
      "transl": 5884,
      "specification": 5885,
      "typed": 5886,
      "performing": 5887,
      "mitigate": 5888,
      "isolate": 5889,
      "GPT": 5890,
      "deliber": 5891,
      "cycles": 5892,
      "vanish": 5893,
      "freshness": 5894,
      "incentive": 5895,
      "-wrong": 5896,
      "4**": 5897,
      "Ap": 5898,
      "Per": 5899,
      "ffic": 5900,
      "altern": 5901,
      "coin": 5902,
      "acou": 5903,
      "izer": 5904,
      "agent,": 5905,
      "system's": 5906,
      "v1,": 5907,
      "evaluate": 5908,
      "talk": 5909,
      "fitting": 5910,
      "ignore": 5911,
      "registry": 5912,
      "citation": 5913,
      "morpho": 5914,
      "important": 5915,
      "paradig": 5916,
      "/motif": 5917,
      "1)": 5918,
      "2.0": 5919,
      "EN": 5920,
      "El": 5921,
      "batter": 5922,
      "i,": 5923,
      "vity": 5924,
      "eness": 5925,
      "arith": 5926,
      "moist": 5927,
      "absolute": 5928,
      "answers": 5929,
      "currency": 5930,
      "https://assets.": 5931,
      "uel": 5932,
      "bounds": 5933,
      "noise,": 5934,
      "flows": 5935,
      "space,": 5936,
      "I'll": 5937,
      "correctly": 5938,
      "warm": 5939,
      "com/musica": 5940,
      "vinaverse.": 5941,
      "Gaussian": 5942,
      "/motif.": 5943,
      "https://assets.vinaverse.": 5944,
      "https://assets.vinaverse.com/musica": 5945,
      "0.1": 5946,
      "33": 5947,
      "8.0": 5948,
      "Are": 5949,
      "Cor": 5950,
      "Lá": 5951,
      "Pr": 5952,
      "VM": 5953,
      "dial": 5954,
      "lig": 5955,
      "rase": 5956,
      "reprodu": 5957,
      "orth": 5958,
      "ently": 5959,
      "dele": 5960,
      "ation:": 5961,
      "disclosure": 5962,
      "colon": 5963,
      "event.": 5964,
      "approaches": 5965,
      "reduced": 5966,
      "radius": 5967,
      "preserve": 5968,
      "maximum": 5969,
      "landscape": 5970,
      "increasingly": 5971,
      "English": 5972,
      "institutional": 5973,
      "phenomen": 5974,
      "3.0": 5975,
      "B2": 5976,
      "PR": 5977,
      "UTC": 5978,
      "eco-": 5979,
      "flex": 5980,
      "uary": 5981,
      "—it": 5982,
      "recommend": 5983,
      "is.": 5984,
      "itation": 5985,
      "tel": 5986,
      "key,": 5987,
      "tire": 5988,
      "**The": 5989,
      "setup": 5990,
      "metry.": 5991,
      "owner": 5992,
      "movement": 5993,
      "simpl": 5994,
      "coupled": 5995,
      "represents": 5996,
      "increased": 5997,
      "broader": 5998,
      "enforcement": 5999,
      "completeness": 6000,
      "-the-": 6001,
      "BM": 6002,
      "ture": 6003,
      "usel": 6004,
      "vice": 6005,
      "attribut": 6006,
      "ford": 6007,
      "ured": 6008,
      "strat": 6009,
      "agent.": 6010,
      "evapor": 6011,
      "text{": 6012,
      "focused": 6013,
      "anchors": 6014,
      "queue": 6015,
      "demonstrate": 6016,
      "walk": 6017,
      "abstract": 6018,
      "aggregate": 6019,
      "alongside": 6020,
      "kinetic": 6021,
      "ensuring": 6022,
      "moisture": 6023,
      "8.": 6024,
      "Ac": 6025,
      "EU": 6026,
      "itute": 6027,
      "raph": 6028,
      "util": 6029,
      "contam": 6030,
      "guid": 6031,
      "decide": 6032,
      "monol": 6033,
      "tool-": 6034,
      "emit": 6035,
      "Any": 6036,
      "growing": 6037,
      "dropped": 6038,
      "1000": 6039,
      "reconstruct": 6040,
      "examine": 6041,
      "diffusion": 6042,
      "sider": 6043,
      "recursive": 6044,
      "discussion": 6045,
      "plumbing": 6046,
      "vereign": 6047,
      "e.g.,": 6048,
      "4.0": 6049,
      "6-": 6050,
      "Ask": 6051,
      "Euro": 6052,
      "bio": 6053,
      "ga": 6054,
      "jitter": 6055,
      "sight": 6056,
      "invisible": 6057,
      "ion.": 6058,
      "chosen": 6059,
      "prose": 6060,
      "consc": 6061,
      "not-": 6062,
      "reson": 6063,
      "endor": 6064,
      "Indi": 6065,
      "operation": 6066,
      "added": 6067,
      "launch": 6068,
      "semant": 6069,
      "quantum": 6070,
      "instability": 6071,
      "matches": 6072,
      "ampl": 6073,
      "fetch": 6074,
      "findings": 6075,
      "hitting": 6076,
      "planetary": 6077,
      "difficulty": 6078,
      "Bit": 6079,
      "Using": 6080,
      "flip": 6081,
      "mind": 6082,
      "squ": 6083,
      "vot": 6084,
      "wav": 6085,
      "ycle": 6086,
      "toff": 6087,
      "poor": 6088,
      "modeled": 6089,
      "cket": 6090,
      "specific,": 6091,
      "identifi": 6092,
      "Real": 6093,
      "hood": 6094,
      "environmental": 6095,
      "boundary.": 6096,
      "international": 6097,
      "blockchain": 6098,
      "speak": 6099,
      "medium": 6100,
      "describes": 6101,
      "isolated": 6102,
      "controller": 6103,
      "forecasting": 6104,
      "accumul": 6105,
      "fluctuations": 6106,
      "symbolic": 6107,
      "inflation": 6108,
      "certificate": 6109,
      "noticed": 6110,
      "haven't": 6111,
      "acoustic": 6112,
      "https://assets.vinaverse.com/musica/": 6113,
      "/C": 6114,
      "9.": 6115,
      "Bay": 6116,
      "Dis": 6117,
      "Lan": 6118,
      "dress": 6119,
      "deeper": 6120,
      "rage": 6121,
      "resist": 6122,
      "max": 6123,
      "parse": 6124,
      "interpol": 6125,
      "shifted": 6126,
      "variables": 6127,
      "context.": 6128,
      "cutoff": 6129,
      "hole": 6130,
      "virtual": 6131,
      "paper,": 6132,
      "receipt.": 6133,
      "rate-": 6134,
      "recorded": 6135,
      "modular": 6136,
      "open-": 6137,
      "datasets": 6138,
      "implicit": 6139,
      "bootstra": 6140,
      "equivalent": 6141,
      "April": 6142,
      "az": 6143,
      "sig": 6144,
      "won't": 6145,
      "—it's": 6146,
      "’t": 6147,
      "incomplete": 6148,
      "stake": 6149,
      "route": 6150,
      "degener": 6151,
      "mere": 6152,
      "systems,": 6153,
      "commer": 6154,
      "layer,": 6155,
      "scient": 6156,
      "goes": 6157,
      "observational": 6158,
      "Reg": 6159,
      "graphic": 6160,
      "terms": 6161,
      "witnesses": 6162,
      "frontier": 6163,
      "interesting": 6164,
      "participant": 6165,
      "converge": 6166,
      "brief]": 6167,
      "struggle": 6168,
      "challenges": 6169,
      "colleagues": 6170,
      "canonical": 6171,
      "(e.g.,": 6172,
      "6.1": 6173,
      "cris": 6174,
      "les,": 6175,
      "o-": 6176,
      "satell": 6177,
      "cha": 6178,
      "novel": 6179,
      "consu": 6180,
      "extract": 6181,
      "note": 6182,
      "span": 6183,
      "augh": 6184,
      "forms": 6185,
      "idempot": 6186,
      "surance": 6187,
      "ifying": 6188,
      "reduces": 6189,
      "camp": 6190,
      "drift.": 6191,
      "programming": 6192,
      "assertion": 6193,
      "tuned": 6194,
      "lifec": 6195,
      "propagation": 6196,
      "conscious": 6197,
      "(P": 6198,
      "45": 6199,
      "Frid": 6200,
      "easy": 6201,
      "none": 6202,
      "nonce": 6203,
      "rational": 6204,
      "retry": 6205,
      "arc": 6206,
      "neither": 6207,
      "Anal": 6208,
      "controls": 6209,
      "bottleneck.": 6210,
      "force,": 6211,
      "leading": 6212,
      "indicator": 6213,
      "differenti": 6214,
      "identifying": 6215,
      "replacement": 6216,
      "impossible": 6217,
      "monolith": 6218,
      "Friday": 6219,
      "Plat": 6220,
      "Sou": 6221,
      "v/": 6222,
      "y-": 6223,
      "aler": 6224,
      "edia": 6225,
      "arma": 6226,
      "lets": 6227,
      "beat": 6228,
      "condu": 6229,
      "aude": 6230,
      "observe": 6231,
      "weights.": 6232,
      "legit": 6233,
      "cript": 6234,
      "ultural": 6235,
      "authorized": 6236,
      "assumptions": 6237,
      "strategic": 6238,
      "256": 6239,
      "voice": 6240,
      "mid-": 6241,
      "arbitr": 6242,
      "Claude": 6243,
      "quietly": 6244,
      "penalty": 6245,
      "scenario": 6246,
      "concern": 6247,
      "\"what": 6248,
      "$,": 6249,
      "32": 6250,
      "Imp": 6251,
      "QL": 6252,
      "RU": 6253,
      "ios": 6254,
      "tag": 6255,
      "restr": 6256,
      "heter": 6257,
      "plant": 6258,
      "fav": 6259,
      "photon": 6260,
      "fire": 6261,
      "upd": 6262,
      "surro": 6263,
      "set,": 6264,
      "remaining": 6265,
      "integrate": 6266,
      "paths": 6267,
      "code,": 6268,
      "ities.": 6269,
      "breakdown": 6270,
      "resolved": 6271,
      "networks": 6272,
      "changes.": 6273,
      "store": 6274,
      "Tool": 6275,
      "numbers": 6276,
      "successfully": 6277,
      "transforms": 6278,
      "drawn": 6279,
      "pinned": 6280,
      "asymmetry": 6281,
      "compliance": 6282,
      "figure": 6283,
      "plausible": 6284,
      "CS": 6285,
      "Fir": 6286,
      "IM": 6287,
      "Ré": 6288,
      "Su": 6289,
      "finger": 6290,
      "native": 6291,
      "sits": 6292,
      "secure": 6293,
      "contrad": 6294,
      "conclusion": 6295,
      "acqu": 6296,
      "actively": 6297,
      "Invit": 6298,
      "takes": 6299,
      "shifts.": 6300,
      "otrop": 6301,
      "solid": 6302,
      "respect": 6303,
      "clusters": 6304,
      "competitive": 6305,
      "orbital": 6306,
      "catastro": 6307,
      "themselves": 6308,
      "diagnostic": 6309,
      "3090,": 6310,
      "42": 6311,
      "?',": 6312,
      "Car": 6313,
      "Ma": 6314,
      "bil": 6315,
      "bra": 6316,
      "div": 6317,
      "fession": 6318,
      "lt": 6319,
      "rich": 6320,
      "tens": 6321,
      "on,": 6322,
      "ing\"": 6323,
      "abul": 6324,
      "quar": 6325,
      "formul": 6326,
      "validates": 6327,
      "distribution,": 6328,
      "hook": 6329,
      "synt": 6330,
      "primit": 6331,
      "certification": 6332,
      "literature": 6333,
      "shaped": 6334,
      "mathematically": 6335,
      "estimation": 6336,
      "indicates": 6337,
      "delegate": 6338,
      "purpose": 6339,
      "Both": 6340,
      "Techno": 6341,
      "arithmetic": 6342,
      "Europe": 6343,
      "lifecycle": 6344,
      "56": 6345,
      "500": 6346,
      "96": 6347,
      "Block": 6348,
      "Can": 6349,
      "MW": 6350,
      "Sw": 6351,
      "friendly": 6352,
      "st,": 6353,
      "weigh": 6354,
      "resil": 6355,
      "traffic": 6356,
      "optical": 6357,
      "fair": 6358,
      "thermo": 6359,
      "preprint": 6360,
      "overlap": 6361,
      "expon": 6362,
      "expir": 6363,
      "polar": 6364,
      "single,": 6365,
      "sequent": 6366,
      "context,": 6367,
      "analog": 6368,
      "text.": 6369,
      "prompt.": 6370,
      "LLMs": 6371,
      "defense": 6372,
      "components": 6373,
      "unique": 6374,
      "inherently": 6375,
      "satisfy": 6376,
      "achieved": 6377,
      "Pyth": 6378,
      "Hub": 6379,
      "RI": 6380,
      "Sum": 6381,
      "Tren": 6382,
      "Where": 6383,
      "invalidate": 6384,
      "infinite": 6385,
      "unknown": 6386,
      "adoption": 6387,
      "area": 6388,
      "spik": 6389,
      "assoc": 6390,
      "regress": 6391,
      "producer": 6392,
      "mechanisms": 6393,
      "artific": 6394,
      "changed": 6395,
      "orders": 6396,
      "maintenance": 6397,
      "mitt": 6398,
      "skip": 6399,
      "Chat": 6400,
      "behavior.": 6401,
      "convex": 6402,
      "convective": 6403,
      "synchronization": 6404,
      "accounting": 6405,
      "associ": 6406,
      "6.0": 6407,
      "88": 6408,
      "Sav": 6409,
      "_{": 6410,
      "mill": 6411,
      "zone": 6412,
      "thous": 6413,
      "replay": 6414,
      "leave": 6415,
      "decorrelation": 6416,
      "contra": 6417,
      "extra": 6418,
      "aph": 6419,
      "advant": 6420,
      "perce": 6421,
      "stranger": 6422,
      "work,": 6423,
      "upstream": 6424,
      "computation": 6425,
      "design.": 6426,
      "10.0": 6427,
      "provider": 6428,
      "allowing": 6429,
      "particle": 6430,
      "Agents": 6431,
      "Deep": 6432,
      "economy": 6433,
      "following": 6434,
      "sentiment": 6435,
      "potentially": 6436,
      "short-": 6437,
      "dominant": 6438,
      "hierarchy": 6439,
      "house": 6440,
      "accurate": 6441,
      "-1": 6442,
      "Dó": 6443,
      "March": 6444,
      "fuel": 6445,
      "tend": 6446,
      "anced": 6447,
      "lease": 6448,
      "deg": 6449,
      "me,": 6450,
      "convention": 6451,
      "conclude": 6452,
      "ourse": 6453,
      "contact": 6454,
      "upper": 6455,
      "realized": 6456,
      "brand": 6457,
      "counts": 6458,
      "operations": 6459,
      "eliz": 6460,
      "template": 6461,
      "level.": 6462,
      "engine.": 6463,
      "respons": 6464,
      "receipt-": 6465,
      "couldn't": 6466,
      "record.": 6467,
      "languages": 6468,
      "three-": 6469,
      "drops": 6470,
      "privacy": 6471,
      "radio": 6472,
      "normalization": 6473,
      "nonlinear": 6474,
      "insufficient.": 6475,
      "Observ": 6476,
      "fighting": 6477,
      "Asked": 6478,
      "thousand": 6479,
      "AO": 6480,
      "EC": 6481,
      "Ser": 6482,
      "VR": 6483,
      "hide": 6484,
      "nal": 6485,
      "ines.": 6486,
      "orient": 6487,
      "escal": 6488,
      "ous,": 6489,
      "modu": 6490,
      "notification": 6491,
      "istribut": 6492,
      "irrelevant": 6493,
      "this.": 6494,
      "signer": 6495,
      "grades": 6496,
      "lineage": 6497,
      "high-fidelity": 6498,
      "memor": 6499,
      "Exori": 6500,
      "logic,": 6501,
      "output.": 6502,
      "task.": 6503,
      "waiting": 6504,
      "What's": 6505,
      "privile": 6506,
      "leads": 6507,
      "Google": 6508,
      "insight": 6509,
      "Luxury": 6510,
      "several": 6511,
      "catastrophic": 6512,
      "Fo": 6513,
      "NV": 6514,
      "Retic": 6515,
      "SO": 6516,
      "Val": 6517,
      "mun": 6518,
      "depart": 6519,
      "gravity": 6520,
      "provision": 6521,
      "handling": 6522,
      "breaking": 6523,
      "talking": 6524,
      "proposes": 6525,
      "ratic": 6526,
      "iki": 6527,
      "occurs": 6528,
      "embed": 6529,
      "lukitun-": 6530,
      "stationary": 6531,
      "pipelines": 6532,
      "Security": 6533,
      "exercise": 6534,
      "abulary": 6535,
      "Reticuli": 6536,
      "()": 6537,
      ".The": 6538,
      "hot": 6539,
      "mint": 6540,
      "s?": 6541,
      "in.": 6542,
      "sell": 6543,
      "cope": 6544,
      "lob": 6545,
      "pointer": 6546,
      "redund": 6547,
      "sovereign": 6548,
      "diver": 6549,
      "funding": 6550,
      "what's": 6551,
      "closes": 6552,
      "passes": 6553,
      "hoc": 6554,
      "https://arxiv.org/abs/230": 6555,
      "stock": 6556,
      "reachable": 6557,
      "predicted": 6558,
      "evaluated": 6559,
      "criter": 6560,
      "defines": 6561,
      "setting": 6562,
      "liter": 6563,
      "retriev": 6564,
      "packet": 6565,
      "2025,": 6566,
      "connected": 6567,
      "rotation": 6568,
      "debt": 6569,
      "lossy": 6570,
      "Dec": 6571,
      "Red": 6572,
      "cible": 6573,
      "ubl": 6574,
      "replic": 6575,
      "isotrop": 6576,
      "esian": 6577,
      "white": 6578,
      "traces": 6579,
      "ounding": 6580,
      "beta": 6581,
      "centric": 6582,
      "flow.": 6583,
      "humans": 6584,
      "writes": 6585,
      "refut": 6586,
      "dynamical": 6587,
      "answer.": 6588,
      "12.0": 6589,
      "arXiv:250": 6590,
      "biased": 6591,
      "burst": 6592,
      "access,": 6593,
      "argue": 6594,
      "isolation": 6595,
      "competition": 6596,
      "mirrors": 6597,
      "diversity": 6598,
      "scopic": 6599,
      "3%": 6600,
      "Brid": 6601,
      "LT": 6602,
      "Par": 6603,
      "relay": 6604,
      "anom": 6605,
      "entify": 6606,
      "lebr": 6607,
      "wearing": 6608,
      "irrevers": 6609,
      "worse": 6610,
      "compan": 6611,
      "agents,": 6612,
      "correspond": 6613,
      "diverg": 6614,
      "run.": 6615,
      "solv": 6616,
      "ator.": 6617,
      "paid": 6618,
      "constraints,": 6619,
      "weighted": 6620,
      "reflection": 6621,
      "study:": 6622,
      "arXiv:1": 6623,
      "practition": 6624,
      "ashboard": 6625,
      "priority": 6626,
      "finds": 6627,
      "strategies": 6628,
      "onomy": 6629,
      "accepted": 6630,
      "recip": 6631,
      "invariants": 6632,
      "coordinate": 6633,
      "smoothing": 6634,
      "vocabulary": 6635,
      "arbitrary": 6636,
      "heterogen": 6637,
      "anomal": 6638,
      "\"this": 6639,
      ");": 6640,
      "1.1": 6641,
      "3.1": 6642,
      "Bus": 6643,
      "ED": 6644,
      "EM": 6645,
      "IP": 6646,
      "IR": 6647,
      "NFT": 6648,
      "Vogu": 6649,
      "aign": 6650,
      "dou": 6651,
      "got": 6652,
      "i.": 6653,
      "liveness": 6654,
      "alloc": 6655,
      "nois": 6656,
      "compens": 6657,
      "up.": 6658,
      "failing": 6659,
      "generic": 6660,
      "generates": 6661,
      "subsid": 6662,
      "measurements": 6663,
      "10.1": 6664,
      "charge": 6665,
      "hash,": 6666,
      "attempting": 6667,
      "regions": 6668,
      "strictly": 6669,
      "practice,": 6670,
      "navig": 6671,
      "methodology": 6672,
      "exposes": 6673,
      "oracle": 6674,
      "aught": 6675,
      "Che": 6676,
      "Did": 6677,
      "Ste": 6678,
      "avi": 6679,
      "dantic": 6680,
      "iation": 6681,
      "pec": 6682,
      "rink": 6683,
      "si": 6684,
      "ining": 6685,
      "stal": 6686,
      "icity": 6687,
      "arm": 6688,
      "demo": 6689,
      "ation-": 6690,
      "beli": 6691,
      "triv": 6692,
      "ighter": 6693,
      "cording": 6694,
      "wasn't": 6695,
      "subsequent": 6696,
      "validated": 6697,
      "approval": 6698,
      "claim,": 6699,
      "tempor": 6700,
      "markets": 6701,
      "science": 6702,
      "loop,": 6703,
      "homo": 6704,
      "presented": 6705,
      "media": 6706,
      "environments": 6707,
      "instance": 6708,
      "days": 6709,
      "channels": 6710,
      "pipeline.": 6711,
      "judge": 6712,
      "investig": 6713,
      "developers": 6714,
      "life": 6715,
      "arbitrage": 6716,
      "scheduling": 6717,
      "improvement": 6718,
      "deviation": 6719,
      "slope": 6720,
      "Bitcoin": 6721,
      "campaign": 6722,
      "94": 6723,
      "CE": 6724,
      "FR": 6725,
      "Jan": 6726,
      "LA": 6727,
      "OR": 6728,
      "Si": 6729,
      "\\text{": 6730,
      "brow": 6731,
      "ox": 6732,
      "tor": 6733,
      "ouch": 6734,
      "propri": 6735,
      "exit": 6736,
      "mail": 6737,
      "symp": 6738,
      "parser": 6739,
      "haust": 6740,
      "extension": 6741,
      "real,": 6742,
      "validity": 6743,
      "operate": 6744,
      "operates": 6745,
      "on-chain": 6746,
      "cleared": 6747,
      "remained": 6748,
      "passing": 6749,
      "quantitative": 6750,
      "terminal": 6751,
      "management.": 6752,
      "surface.": 6753,
      "discr": 6754,
      "demonstrated": 6755,
      "categor": 6756,
      "nearly": 6757,
      "-aware": 6758,
      "eliminate": 6759,
      "opportunity": 6760,
      "varying": 6761,
      "catalog": 6762,
      "battery": 6763,
      "3:": 6764,
      "HA": 6765,
      "Run": 6766,
      "SD": 6767,
      "hig": 6768,
      "ique": 6769,
      "send": 6770,
      "attire": 6771,
      "ensures": 6772,
      "tour": 6773,
      "assem": 6774,
      "chasing": 6775,
      "beam": 6776,
      "un-": 6777,
      "shrink": 6778,
      "out.": 6779,
      "ignoring": 6780,
      "byproduct": 6781,
      "comfort": 6782,
      "calling": 6783,
      "ester": 6784,
      "intermediate": 6785,
      "upgrade": 6786,
      "export": 6787,
      "applying": 6788,
      "scr": 6789,
      "suggested": 6790,
      "optimizes": 6791,
      "re-run": 6792,
      "sequences": 6793,
      "levels": 6794,
      "memory.": 6795,
      "foundation": 6796,
      "deployed": 6797,
      "ixel": 6798,
      "video": 6799,
      "scope,": 6800,
      "scope.": 6801,
      "routing": 6802,
      "mentioned": 6803,
      "falsifi": 6804,
      "automat": 6805,
      "rigorous": 6806,
      "Current": 6807,
      "degradation": 6808,
      "monolithic": 6809,
      "degree": 6810,
      "3-": 6811,
      "55": 6812,
      "AA": 6813,
      "All": 6814,
      "Med": 6815,
      "Right": 6816,
      "ama": 6817,
      "give": 6818,
      "karma": 6819,
      "renew": 6820,
      "is,": 6821,
      "ission": 6822,
      "edges": 6823,
      "rote": 6824,
      "ent.": 6825,
      "lot": 6826,
      "loses": 6827,
      "approved": 6828,
      "compat": 6829,
      "worker": 6830,
      "checker": 6831,
      "tool.": 6832,
      "variability": 6833,
      "Report": 6834,
      "earli": 6835,
      "relier": 6836,
      "attach": 6837,
      "visibility": 6838,
      "records": 6839,
      "defining": 6840,
      "forcement": 6841,
      "shared-": 6842,
      "mandate": 6843,
      "production.": 6844,
      "documentation": 6845,
      "centralized": 6846,
      "...": 6847,
      "namo": 6848,
      "dependencies": 6849,
      "Multi-": 6850,
      "plugin": 6851,
      "hypothesis": 6852,
      "Design": 6853,
      "proprietary": 6854,
      "highe": 6855,
      "-for": 6856,
      "-as-": 6857,
      "2)": 6858,
      "7v1": 6859,
      "@bytes": 6860,
      "JW": 6861,
      "Mem": 6862,
      "duration": 6863,
      "km": 6864,
      "enco": 6865,
      "escape": 6866,
      "cosmo": 6867,
      "ago": 6868,
      "explan": 6869,
      "exhaust": 6870,
      "ollar": 6871,
      "image": 6872,
      "shares": 6873,
      "by-": 6874,
      "liability.": 6875,
      "genes": 6876,
      "grant": 6877,
      "physics.": 6878,
      "computed": 6879,
      "everyone": 6880,
      "daily": 6881,
      "equation": 6882,
      "both.": 6883,
      "truct": 6884,
      "focusing": 6885,
      "accountability": 6886,
      "hyper": 6887,
      "attested": 6888,
      "floor.": 6889,
      "atmosphere": 6890,
      "empty": 6891,
      "indeed": 6892,
      "preserves": 6893,
      "popul": 6894,
      "organization": 6895,
      "meaningful": 6896,
      "famil": 6897,
      "engineering.": 6898,
      "seasonal": 6899,
      "\"is": 6900,
      "AD": 6901,
      "VV": 6902,
      "Whe": 6903,
      "_id": 6904,
      "aver": 6905,
      "ban": 6906,
      "civ": 6907,
      "k-": 6908,
      "in,": 6909,
      "onic": 6910,
      "espec": 6911,
      "robo": 6912,
      "cold": 6913,
      "conven": 6914,
      "doi": 6915,
      "requiring": 6916,
      "created": 6917,
      "really": 6918,
      "finance": 6919,
      "cost.": 6920,
      "market.": 6921,
      "plane": 6922,
      "precip": 6923,
      "control.": 6924,
      "refusal": 6925,
      "scheme": 6926,
      "standardized": 6927,
      "hardware.": 6928,
      "threshold,": 6929,
      "aggressive": 6930,
      "invitations": 6931,
      "options": 6932,
      "custo": 6933,
      "applies": 6934,
      "electron": 6935,
      "Researchers": 6936,
      "turbulent": 6937,
      "Finding": 6938,
      "Bayesian": 6939,
      "Langu": 6940,
      "consumption": 6941,
      "artificial": 6942,
      "receipt-schema": 6943,
      "(N": 6944,
      "Fá": 6945,
      "Hy": 6946,
      "Ident": 6947,
      "La": 6948,
      "NT": 6949,
      "bes": 6950,
      "gated": 6951,
      "vow": 6952,
      "retic": 6953,
      "atom": 6954,
      "belong": 6955,
      "ages,": 6956,
      "tries": 6957,
      "anti-": 6958,
      "keys": 6959,
      "amend": 6960,
      "evident": 6961,
      "aked": 6962,
      "checked.": 6963,
      "apply": 6964,
      "study,": 6965,
      "complex,": 6966,
      "introduced": 6967,
      "selection.": 6968,
      "pping": 6969,
      "similarity": 6970,
      "thought": 6971,
      "concentrated": 6972,
      "mimic": 6973,
      "fingerprint": 6974,
      "Business": 6975,
      "reticuli": 6976,
      "\"un": 6977,
      "34": 6978,
      "Bax": 6979,
      "DO": 6980,
      "Ge": 6981,
      "big": 6982,
      "cru": 6983,
      "lab": 6984,
      "mical": 6985,
      "ptic": 6986,
      "wrap": 6987,
      "income": 6988,
      "remon": 6989,
      "reset": 6990,
      "thered": 6991,
      "ised": 6992,
      "road": 6993,
      "heating": 6994,
      "sea": 6995,
      "propo": 6996,
      "exception": 6997,
      "auction": 6998,
      "2019": 6999,
      "durable": 7000,
      "manages": 7001,
      "getting": 7002,
      "center": 7003,
      "grounding": 7004,
      "clos": 7005,
      "item": 7006,
      "2026/0": 7007,
      "volt": 7008,
      "collabor": 7009,
      "patterns.": 7010,
      "decision-": 7011,
      "settle": 7012,
      "saying": 7013,
      "Stand": 7014,
      "closed-": 7015,
      "governed": 7016,
      "heavily": 7017,
      "gains": 7018,
      "ASA": 7019,
      "emergent": 7020,
      "principal": 7021,
      "first-class": 7022,
      "fragile": 7023,
      "Buil": 7024,
      "ownership": 7025,
      "satellite": 7026,
      "Saventify": 7027,
      "especially": 7028,
      "(or": 7029,
      "-chain": 7030,
      "3,": 7031,
      "Ty": 7032,
      "Vir": 7033,
      "bill": 7034,
      "cup": 7035,
      "caught": 7036,
      "factual": 7037,
      "gates": 7038,
      "hur": 7039,
      "sav": 7040,
      "wrote": 7041,
      "·平": 7042,
      "如是": 7043,
      "endo": 7044,
      "stall": 7045,
      "ingest": 7046,
      "height": 7047,
      "profession": 7048,
      "that,": 7049,
      "extraction": 7050,
      "gemma": 7051,
      "outage": 7052,
      "oppos": 7053,
      "red.": 7054,
      "paraph": 7055,
      "2020": 7056,
      "prun": 7057,
      "prise": 7058,
      "logy,": 7059,
      "having": 7060,
      "idea": 7061,
      "boundar": 7062,
      "volution": 7063,
      "exists,": 7064,
      "observable": 7065,
      "handoff": 7066,
      "polit": 7067,
      "integrating": 7068,
      "windows": 7069,
      "refute": 7070,
      "shipped": 7071,
      "meaning,": 7072,
      "bridal": 7073,
      "stack.": 7074,
      "detected": 7075,
      "circular": 7076,
      "masking": 7077,
      "participants": 7078,
      "disjointness": 7079,
      "interpretation": 7080,
      "corruption": 7081,
      "Quant": 7082,
      "dangerous": 7083,
      "acknowledge": 7084,
      "bootstrap": 7085,
      "legitimate": 7086,
      "·平安": 7087,
      "如是·平安": 7088,
      ".com": 7089,
      "400": 7090,
      "84": 7091,
      "Base": 7092,
      "CAP": 7093,
      "Ef": 7094,
      "Other": 7095,
      "PD": 7096,
      "SQL": 7097,
      "_monitor": 7098,
      "bond": 7099,
      "eth": 7100,
      "fabric": 7101,
      "nic": 7102,
      "stone": 7103,
      "seam": 7104,
      "susp": 7105,
      "immutable": 7106,
      "act.": 7107,
      "chemical": 7108,
      "viable": 7109,
      "dynamo": 7110,
      "check.": 7111,
      "generating": 7112,
      "events.": 7113,
      "posts": 7114,
      "workflows.": 7115,
      "agging": 7116,
      "infrastructure.": 7117,
      "instructions": 7118,
      "vs-": 7119,
      "Guest": 7120,
      "themselves.": 7121,
      "assessment": 7122,
      "cooling": 7123,
      "paradigm": 7124,
      "Whether": 7125,
      "3D": 7126,
      "9f": 7127,
      "Gem": 7128,
      "Global": 7129,
      "PA": 7130,
      "Part": 7131,
      "slight": 7132,
      "rer": 7133,
      "rewrite": 7134,
      "stated": 7135,
      "entity": 7136,
      "cop": 7137,
      "chol": 7138,
      "no-": 7139,
      "Their": 7140,
      "ages.": 7141,
      "unk": 7142,
      "clause": 7143,
      "Indust": 7144,
      "omission": 7145,
      "monu": 7146,
      "engagement": 7147,
      "latter": 7148,
      "statistics": 7149,
      "weighting": 7150,
      "studies": 7151,
      "loops": 7152,
      "live_monitor": 7153,
      "wants": 7154,
      "Under": 7155,
      "freeze": 7156,
      "agged": 7157,
      "minimize": 7158,
      "regulator": 7159,
      "hallucinated": 7160,
      "circu": 7161,
      "a-gemma": 7162,
      "electric": 7163,
      "hours": 7164,
      "leaving": 7165,
      "retention": 7166,
      "alternative": 7167,
      "associated": 7168,
      "diverge": 7169,
      "discrimin": 7170,
      "civil": 7171,
      "endogen": 7172,
      "3v1": 7173,
      "69": 7174,
      "AF": 7175,
      "CT": 7176,
      "GH": 7177,
      "Struct": 7178,
      "his": 7179,
      "rating": 7180,
      "revenue": 7181,
      "allocation": 7182,
      "vie": 7183,
      "line.": 7184,
      "under-": 7185,
      "integer": 7186,
      "asked": 7187,
      "high-precision": 7188,
      "elastic": 7189,
      "loads": 7190,
      "Exp": 7191,
      "ibly": 7192,
      "choose": 7193,
      "cade": 7194,
      "probes": 7195,
      "paying": 7196,
      "hermes": 7197,
      "cleanly": 7198,
      "mapped": 7199,
      "Space": 7200,
      "algorithms": 7201,
      "photograph": 7202,
      "happened": 7203,
      "AND": 7204,
      "```": 7205,
      "panel": 7206,
      "transparency": 7207,
      "conduct": 7208,
      "Trends": 7209,
      "eliza-gemma": 7210,
      "homogen": 7211,
      "opposite": 7212,
      "Gemma": 7213,
      "?The": 7214,
      "OT": 7215,
      "Ph": 7216,
      "Str": 7217,
      "bif": 7218,
      "c.": 7219,
      "defect": 7220,
      "seal": 7221,
      "ist-": 7222,
      "eta": 7223,
      "neigh": 7224,
      "coring": 7225,
      "disclosed": 7226,
      "subtle": 7227,
      "closing": 7228,
      "scatter": 7229,
      "2026:": 7230,
      "suggestion": 7231,
      "adds": 7232,
      "actions": 7233,
      "level,": 7234,
      "legible": 7235,
      "necessarily": 7236,
      "machine.": 7237,
      "persona": 7238,
      "automate": 7239,
      "11.0": 7240,
      "distinguishable": 7241,
      "algorithmic": 7242,
      "investment": 7243,
      "leakage": 7244,
      "randomness": 7245,
      "ecosystem": 7246,
      "alters": 7247,
      "galaxy": 7248,
      "merged": 7249,
      "prioritize": 7250,
      "tolerance": 7251,
      "degeneracy": 7252,
      "scientific": 7253,
      "advantage": 7254,
      "temporary": 7255,
      "'we": 7256,
      "-year": 7257,
      "5%": 7258,
      "5**": 7259,
      "Graph": 7260,
      "IEE": 7261,
      "Pre": 7262,
      "Sc": 7263,
      "Te": 7264,
      "Tre": 7265,
      "dashboard": 7266,
      "dollar": 7267,
      "s**:": 7268,
      "us.": 7269,
      "ancing": 7270,
      "alone.": 7271,
      "asp": 7272,
      "rarely": 7273,
      "unified": 7274,
      "quad": 7275,
      "actu": 7276,
      "poison": 7277,
      "users": 7278,
      "inel": 7279,
      "disrup": 7280,
      "fail-": 7281,
      "proven": 7282,
      "misses": 7283,
      "problem:": 7284,
      "exponent": 7285,
      "monoton": 7286,
      "basic": 7287,
      "epist": 7288,
      "optimizer": 7289,
      "weights,": 7290,
      "change,": 7291,
      "rang": 7292,
      "chain.": 7293,
      "information.": 7294,
      "venues": 7295,
      "evaluating": 7296,
      "Some": 7297,
      "architecture,": 7298,
      "restart": 7299,
      "ashion": 7300,
      "deployment.": 7301,
      "Develo": 7302,
      "threads": 7303,
      "assuming": 7304,
      "Colon": 7305,
      "thinking": 7306,
      "preserv": 7307,
      "possess": 7308,
      "near-": 7309,
      "surveys": 7310,
      "substitute": 7311,
      "managed": 7312,
      "cosmic": 7313,
      "smart": 7314,
      "benefit": 7315,
      "pass,": 7316,
      "commercial": 7317,
      "-H": 7318,
      "1/": 7319,
      "5.1": 7320,
      "67": 7321,
      "DR": 7322,
      "Del": 7323,
      "UI": 7324,
      "X-": 7325,
      "Zh": 7326,
      "aware": 7327,
      "email": 7328,
      "death": 7329,
      "ceremon": 7330,
      "we've": 7331,
      "atever": 7332,
      "quot": 7333,
      "lihood": 7334,
      "among": 7335,
      "former": 7336,
      "all.": 7337,
      "intersection": 7338,
      "way.": 7339,
      "finally": 7340,
      "tick": 7341,
      "side,": 7342,
      "non-deterministic": 7343,
      "breach": 7344,
      "Exec": 7345,
      "response.": 7346,
      "break,": 7347,
      "right,": 7348,
      "occup": 7349,
      "proof.": 7350,
      "continue": 7351,
      "target.": 7352,
      "190": 7353,
      "draft": 7354,
      "402": 7355,
      "angle": 7356,
      "estimator": 7357,
      "facilit": 7358,
      "filtering": 7359,
      "correlations": 7360,
      "minimal": 7361,
      "declar": 7362,
      "laws": 7363,
      "24GB": 7364,
      "accident": 7365,
      "gamma": 7366,
      "manipul": 7367,
      "favor": 7368,
      "genesis": 7369,
      "viewer": 7370,
      "IEEE": 7371,
      "(T": 7372,
      "(like": 7373,
      "Ab": 7374,
      "Bar": 7375,
      "Det": 7376,
      "Mult": 7377,
      "Over": 7378,
      "SM": 7379,
      "`.": 7380,
      "d.": 7381,
      "dam": 7382,
      "loud": 7383,
      "uzz": 7384,
      "—essentially": 7385,
      "revalidate": 7386,
      "atives": 7387,
      "isition": 7388,
      "ous.": 7389,
      "notice": 7390,
      "west": 7391,
      "advan": 7392,
      "urc": 7393,
      "whatever": 7394,
      "Three": 7395,
      "redshift": 7396,
      "calculation": 7397,
      "state-": 7398,
      "testim": 7399,
      "https://doi": 7400,
      "engines": 7401,
      "posed": 7402,
      "structure,": 7403,
      "failure,": 7404,
      "claiming": 7405,
      "mechanism,": 7406,
      "lax": 7407,
      "scale.": 7408,
      "reaching": 7409,
      "proofs": 7410,
      "techniqu": 7411,
      "operators": 7412,
      "defend": 7413,
      "protocols": 7414,
      "estimates": 7415,
      "trajectories": 7416,
      "schedu": 7417,
      "Good": 7418,
      "cryptographically": 7419,
      "assistant": 7420,
      "expertise": 7421,
      "feels": 7422,
      "manufacturing": 7423,
      "bulk": 7424,
      "otherwise.": 7425,
      "exhibit": 7426,
      "Python": 7427,
      "embedded": 7428,
      "BaxCode": 7429,
      "https://doi.org/": 7430,
      "68": 7431,
      "97": 7432,
      "ires": 7433,
      "np": 7434,
      "sli": 7435,
      "t,": 7436,
      "table": 7437,
      "relax": 7438,
      "ons": 7439,
      "enforces": 7440,
      "entral": 7441,
      "became": 7442,
      "intens": 7443,
      "spheric": 7444,
      "iza": 7445,
      "ournal": 7446,
      "cheaper": 7447,
      "more,": 7448,
      "likelihood": 7449,
      "offers": 7450,
      "emic": 7451,
      "ropical": 7452,
      "metric.": 7453,
      "blocks": 7454,
      "tracks": 7455,
      "Uni": 7456,
      "years,": 7457,
      "interactions": 7458,
      "dictates": 7459,
      "deliver": 7460,
      "cycle.": 7461,
      "experiences": 7462,
      "experimental": 7463,
      "post-hoc": 7464,
      "sites": 7465,
      "——如是·平安": 7466,
      "Sustainable": 7467,
      "menu": 7468,
      "-for-": 7469,
      "paraphrase": 7470,
      "bifurc": 7471,
      "4,": 7472,
      "62": 7473,
      "GET": 7474,
      "Hum": 7475,
      "Ly": 7476,
      "Pe": 7477,
      "Ru": 7478,
      "Sche": 7479,
      "cm": 7480,
      "cach": 7481,
      "fat": 7482,
      "rise": 7483,
      "repo": 7484,
      "references": 7485,
      "oration": 7486,
      "decre": 7487,
      "aged": 7488,
      "poly": 7489,
      "compose": 7490,
      "**.": 7491,
      "vibe": 7492,
      "logs": 7493,
      "isecond": 7494,
      "variab": 7495,
      "templ": 7496,
      "observing": 7497,
      "launder": 7498,
      "passeng": 7499,
      "scale,": 7500,
      "management,": 7501,
      "capability.": 7502,
      "threshold.": 7503,
      "name.": 7504,
      "destro": 7505,
      "proportion": 7506,
      "autonomy": 7507,
      "confirms": 7508,
      "ambda": 7509,
      "Local": 7510,
      "appears": 7511,
      "CO2": 7512,
      "progress": 7513,
      "candidate": 7514,
      "Opportunities": 7515,
      "molecular": 7516,
      "acquisition": 7517,
      "European": 7518,
      "47": 7519,
      "@eliza-gemma": 7520,
      "DP": 7521,
      "Er": 7522,
      "Mar": 7523,
      "U.": 7524,
      "UT": 7525,
      "fed": 7526,
      "n’t": 7527,
      "tid": 7528,
      "tically": 7529,
      "went": 7530,
      "wild": 7531,
      "ing-": 7532,
      "ics,": 7533,
      "ctors": 7534,
      "expl": 7535,
      "intention": 7536,
      "advert": 7537,
      "shown": 7538,
      "ters": 7539,
      "ine,": 7540,
      "ifications": 7541,
      "formed": 7542,
      "preferences": 7543,
      "tting": 7544,
      "soc": 7545,
      "intermitt": 7546,
      "disk": 7547,
      "readable": 7548,
      "runs.": 7549,
      "identification": 7550,
      "variations": 7551,
      "going": 7552,
      "gov/": 7553,
      "poll": 7554,
      "others": 7555,
      "transition.": 7556,
      "collapsing": 7557,
      "returned": 7558,
      "power-": 7559,
      "capacity.": 7560,
      "survival": 7561,
      "jointly": 7562,
      "180": 7563,
      "guarantees": 7564,
      "falls": 7565,
      "takeaway": 7566,
      "vote": 7567,
      "involving": 7568,
      "falsifier": 7569,
      "begins": 7570,
      "attribution,": 7571,
      "[research]": 7572,
      "annual": 7573,
      "debugging": 7574,
      "millisecond": 7575,
      "module": 7576,
      "'ll": 7577,
      "(1)": 7578,
      "-side": 7579,
      "-by-": 7580,
      "11.": 7581,
      "Dav": 7582,
      "Now": 7583,
      "Sim": 7584,
      "Scal": 7585,
      "card": 7586,
      "f-": 7587,
      "iny": 7588,
      "inclusion": 7589,
      "reh": 7590,
      "decor": 7591,
      "decoded": 7592,
      "unless": 7593,
      "admin": 7594,
      "according": 7595,
      "sparse": 7596,
      "teles": 7597,
      "compromise": 7598,
      "extended": 7599,
      "buys": 7600,
      "crew": 7601,
      "funded": 7602,
      "aims": 7603,
      "news": 7604,
      "looked": 7605,
      "additional": 7606,
      "Rece": 7607,
      "framework.": 7608,
      "responses": 7609,
      "breaks.": 7610,
      "equity": 7611,
      "parameters.": 7612,
      "derivative": 7613,
      "latency.": 7614,
      "arXiv:240": 7615,
      "priced": 7616,
      "dynamics.": 7617,
      "aligned": 7618,
      "known-": 7619,
      "discourse": 7620,
      "ateral": 7621,
      "cascade": 7622,
      "SVG": 7623,
      "simulate": 7624,
      "shell": 7625,
      "iteration": 7626,
      "hierarchical": 7627,
      "combined": 7628,
      "refinement": 7629,
      "slice": 7630,
      "useless": 7631,
      "syntactic": 7632,
      "trivial": 7633,
      "Standard": 7634,
      "-B": 7635,
      "-T": 7636,
      "-vs-": 7637,
      "/articles": 7638,
      "4/": 7639,
      "CV": 7640,
      "Mic": 7641,
      "NG": 7642,
      "ae": 7643,
      "pixel": 7644,
      "reloc": 7645,
      "repair": 7646,
      "stakes": 7647,
      "for.": 7648,
      "unde": 7649,
      "exori": 7650,
      "s.\"": 7651,
      "teach": 7652,
      "ives,": 7653,
      "gered": 7654,
      "out-of-": 7655,
      "usive": 7656,
      "Those": 7657,
      "lied": 7658,
      "ability,": 7659,
      "ipedia": 7660,
      "preced": 7661,
      "shift.": 7662,
      "fract": 7663,
      "minutes": 7664,
      "turing": 7665,
      "news.": 7666,
      "function,": 7667,
      "naming": 7668,
      "researcher": 7669,
      "re-derive": 7670,
      "hard-": 7671,
      "Retry": 7672,
      "offset": 7673,
      "offering": 7674,
      "window,": 7675,
      "question:": 7676,
      "afford": 7677,
      "collapse.": 7678,
      "litch": 7679,
      "necessit": 7680,
      "zero.": 7681,
      "auditing": 7682,
      "ikipedia": 7683,
      "Autom": 7684,
      "projected": 7685,
      "drivers": 7686,
      "cited": 7687,
      "degrades": 7688,
      "customer": 7689,
      "Here": 7690,
      "rollback": 7691,
      "expression": 7692,
      "perturbation": 7693,
      "combination": 7694,
      "k=1": 7695,
      "enhance": 7696,
      "Eliza": 7697,
      "colonist-": 7698,
      "updated": 7699,
      "Swift": 7700,
      "epistemic": 7701,
      "David": 7702,
      "->": 7703,
      "DI": 7704,
      "FI": 7705,
      "Gal": 7706,
      "Lang": 7707,
      "MCP": 7708,
      "Vendor": 7709,
      "bed": 7710,
      "cash": 7711,
      "lor": 7712,
      "ning.": 7713,
      "tit": 7714,
      "insp": 7715,
      "reviewer": 7716,
      "online": 7717,
      "isite": 7718,
      "entail": 7719,
      "offic": 7720,
      "asma": 7721,
      "forc": 7722,
      "forge": 7723,
      "profiles": 7724,
      "essential": 7725,
      "poch": 7726,
      "faith": 7727,
      "works.": 7728,
      "requisite": 7729,
      "interact": 7730,
      "fails.": 7731,
      "bles": 7732,
      "asks": 7733,
      "lookup": 7734,
      "verified.": 7735,
      "shouldn't": 7736,
      "showing": 7737,
      "network.": 7738,
      "informed": 7739,
      "information,": 7740,
      "classical": 7741,
      "ruin": 7742,
      "decisions": 7743,
      "boundary,": 7744,
      "completely": 7745,
      "satur": 7746,
      "Spain": 7747,
      "Sybil": 7748,
      "computationally": 7749,
      "ceiling.": 7750,
      "ophys": 7751,
      "consensu": 7752,
      "entirely.": 7753,
      "predicate": 7754,
      "conflict": 7755,
      "absorbing": 7756,
      "Integration": 7757,
      "reserve": 7758,
      "reinforcement": 7759,
      "compromised": 7760,
      "bottoms": 7761,
      "quarter": 7762,
      "primitives": 7763,
      "voltage": 7764,
      "Industry": 7765,
      "neighbor": 7766,
      "-p": 7767,
      "-language": 7768,
      "5,": 7769,
      "7,": 7770,
      "89": 7771,
      "Af": 7772,
      "Ger": 7773,
      "MM": 7774,
      "NL": 7775,
      "Please": 7776,
      "Rec": 7777,
      "_by": 7778,
      "jet": 7779,
      "mu": 7780,
      "pap": 7781,
      "rss": 7782,
      "thin": 7783,
      "indistinguishable": 7784,
      "revised": 7785,
      "ones.": 7786,
      "agreed": 7787,
      "excess": 7788,
      "imal": 7789,
      "sphere": 7790,
      "umin": 7791,
      "boo": 7792,
      "bub": 7793,
      "guide": 7794,
      "ported": 7795,
      "completed": 7796,
      "noise\"": 7797,
      "exists.": 7798,
      "process,": 7799,
      "field,": 7800,
      "equations": 7801,
      "Agre": 7802,
      "views": 7803,
      "determined": 7804,
      "licence": 7805,
      "file.": 7806,
      "succeed": 7807,
      "conditional": 7808,
      "character,": 7809,
      "correlate": 7810,
      "acceptable.": 7811,
      "understands": 7812,
      "transformer": 7813,
      "transformation": 7814,
      "delegates": 7815,
      "hallucinating": 7816,
      "manifold.": 7817,
      "since.": 7818,
      "involves": 7819,
      "guardrail": 7820,
      "enumer": 7821,
      "contamin": 7822,
      "tensor": 7823,
      "exponential": 7824,
      "correspondence": 7825,
      "endogenous": 7826,
      "Receip": 7827,
      "-up": 7828,
      "@vina": 7829,
      "AB": 7830,
      "Event": 7831,
      "Git": 7832,
      "NN": 7833,
      "PM": 7834,
      "baked": 7835,
      "don": 7836,
      "emul": 7837,
      "sv": 7838,
      "thro": 7839,
      "coarse": 7840,
      "intr": 7841,
      "perception": 7842,
      "modeling.": 7843,
      "ride": 7844,
      "parties": 7845,
      "phon": 7846,
      "contag": 7847,
      "specul": 7848,
      "capturing": 7849,
      "regex": 7850,
      "high-level": 7851,
      "marketing": 7852,
      "computing": 7853,
      "seeks": 7854,
      "knows": 7855,
      "multipl": 7856,
      "directory": 7857,
      "wait": 7858,
      "value.": 7859,
      "reporting": 7860,
      "learns": 7861,
      "steps": 7862,
      "tails": 7863,
      "mitigation": 7864,
      "machine-": 7865,
      "dedic": 7866,
      "economics": 7867,
      "periods": 7868,
      "packages": 7869,
      "microstructure": 7870,
      "projects": 7871,
      "hallucinate": 7872,
      "website": 7873,
      "adaptation": 7874,
      "dominated": 7875,
      "CPU": 7876,
      "predicting": 7877,
      "protection": 7878,
      "example,": 7879,
      "SNR": 7880,
      "collective": 7881,
      "FP16": 7882,
      "decades": 7883,
      "Management": 7884,
      "regimes": 7885,
      "meta-": 7886,
      "discussions": 7887,
      "rate-limited": 7888,
      "Analysis": 7889,
      "Technology": 7890,
      "Blockchain": 7891,
      "noisy": 7892,
      "atomic": 7893,
      "9f2": 7894,
      "03:": 7895,
      "AV": 7896,
      "CH": 7897,
      "Dest": 7898,
      "Ga": 7899,
      "Ke": 7900,
      "WN": 7901,
      "gi": 7902,
      "glitch": 7903,
      "ude": 7904,
      "inary": 7905,
      "remove": 7906,
      "atically": 7907,
      "ened": 7908,
      "ising": 7909,
      "contribut": 7910,
      "accre": 7911,
      "sharing": 7912,
      "compound": 7913,
      "phil": 7914,
      "prerequisite": 7915,
      "fires": 7916,
      "timeout": 7917,
      "omin": 7918,
      "2022": 7919,
      "now.": 7920,
      "error,": 7921,
      "providers": 7922,
      "mostly": 7923,
      "lane": 7924,
      "down.": 7925,
      "fact.": 7926,
      "prompts": 7927,
      "policy.": 7928,
      "ferred": 7929,
      "analysis.": 7930,
      "burn": 7931,
      "leader": 7932,
      "explore": 7933,
      "topological": 7934,
      "selector": 7935,
      "pushed": 7936,
      "endpoints": 7937,
      "manifests": 7938,
      "topic": 7939,
      "le.com/": 7940,
      "stronger": 7941,
      "previously": 7942,
      "World": 7943,
      "accounts": 7944,
      "spacing,": 7945,
      "eco-friendly": 7946,
      "expiry": 7947,
      "recipient": 7948,
      "cosmological": 7949,
      "revalidate_by": 7950,
      "$k": 7951,
      "(B": 7952,
      "(R": 7953,
      "1-": 7954,
      "36": 7955,
      "49": 7956,
      "Jo": 7957,
      "Know": 7958,
      "PS": 7959,
      "Test": 7960,
      "blog": 7961,
      "crow": 7962,
      "diction": 7963,
      "ean": 7964,
      "hab": 7965,
      "x402": 7966,
      "£1000": 7967,
      "ini": 7968,
      "refin": 7969,
      "ana": 7970,
      "esthe": 7971,
      "array": 7972,
      "enters": 7973,
      "celebr": 7974,
      "raises": 7975,
      "unestablished": 7976,
      "intu": 7977,
      "ading": 7978,
      "actors": 7979,
      "form.": 7980,
      "soil": 7981,
      "disper": 7982,
      "identity.": 7983,
      "blur": 7984,
      "cost,": 7985,
      "tending": 7986,
      "laz": 7987,
      "trust.": 7988,
      "emer": 7989,
      "change.": 7990,
      "ranking": 7991,
      "nership": 7992,
      "output,": 7993,
      "performs": 7994,
      "reach.": 7995,
      "mitig": 7996,
      "certify": 7997,
      "placement": 7998,
      "firms": 7999,
      "channel.": 8000,
      "asyn": 8001,
      "guests": 8002,
      "useful,": 8003,
      "shear": 8004,
      "purported": 8005,
      "satisfi": 8006,
      "decided": 8007,
      "debate": 8008,
      "retro": 8009,
      "injected": 8010,
      ":00Z;": 8011,
      "appendix": 8012,
      "orthog": 8013,
      "solvency": 8014,
      "Memory": 8015,
      "'we'": 8016,
      "Schema": 8017,
      "colonist-one": 8018,
      "(not": 8019,
      "-first": 8020,
      "4.1": 8021,
      "57": 8022,
      "EX": 8023,
      "FC": 8024,
      "Have": 8025,
      "Just": 8026,
      "Learning": 8027,
      "NASA": 8028,
      "Pol": 8029,
      "Rep": 8030,
      "Ux": 8031,
      "Use": 8032,
      "fly": 8033,
      "fuzz": 8034,
      "kine": 8035,
      "md": 8036,
      "sun": 8037,
      "sour": 8038,
      "innov": 8039,
      "restrict": 8040,
      "orption": 8041,
      "ingestion": 8042,
      "ract": 8043,
      "units": 8044,
      "improved": 8045,
      "spo": 8046,
      "tem": 8047,
      "with-": 8048,
      "redistribut": 8049,
      "logies": 8050,
      "diverse": 8051,
      "tamp": 8052,
      "00:00": 8053,
      "pointing": 8054,
      "producing": 8055,
      "blast": 8056,
      "twice": 8057,
      "tools,": 8058,
      "else.": 8059,
      "designing": 8060,
      "ergy": 8061,
      "reasoning,": 8062,
      "offline": 8063,
      "network,": 8064,
      "execution,": 8065,
      "evaluator": 8066,
      "restim": 8067,
      "silicon": 8068,
      "source.": 8069,
      "keeping": 8070,
      "draf": 8071,
      "drag": 8072,
      "mode.": 8073,
      "micro-": 8074,
      "crypto": 8075,
      "states.": 8076,
      "emerging": 8077,
      "substant": 8078,
      "today.": 8079,
      "coefficients": 8080,
      "example": 8081,
      "Network": 8082,
      "manufacture": 8083,
      "dual-": 8084,
      "repeat": 8085,
      "solely": 8086,
      "modified": 8087,
      "flexibility": 8088,
      "square": 8089,
      "sigma": 8090,
      "analogy": 8091,
      "highest": 8092,
      "Virtual": 8093,
      "Multil": 8094,
      "6/": 8095,
      "Ass": 8096,
      "Free": 8097,
      "HE": 8098,
      "Har": 8099,
      "ION": 8100,
      "Tur": 8101,
      "cile": 8102,
      "din": 8103,
      "ht": 8104,
      "—which": 8105,
      "anisotrop": 8106,
      "ars": 8107,
      "nostic": 8108,
      "profil": 8109,
      "procure": 8110,
      "conversion": 8111,
      "abund": 8112,
      "unt": 8113,
      "exo": 8114,
      "weep": 8115,
      "quick": 8116,
      "you,": 8117,
      "yout": 8118,
      "doc": 8119,
      "trades": 8120,
      "illusion": 8121,
      "Intern": 8122,
      "serial": 8123,
      "buff": 8124,
      "hasn't": 8125,
      "cape.": 8126,
      "overclaim": 8127,
      "serves": 8128,
      "validating": 8129,
      "closer": 8130,
      "gap,": 8131,
      "design,": 8132,
      "action.": 8133,
      "emitter": 8134,
      "question.": 8135,
      "sync": 8136,
      "rate.": 8137,
      "schemas": 8138,
      "Conf": 8139,
      "ordering": 8140,
      "mean-": 8141,
      "step.": 8142,
      "world.": 8143,
      "source:": 8144,
      "modification": 8145,
      "speech": 8146,
      "persists": 8147,
      "accuracy.": 8148,
      "reconcile": 8149,
      "True": 8150,
      "nuance": 8151,
      "Trad": 8152,
      "intelligence\"": 8153,
      "article": 8154,
      "Planning": 8155,
      "Models": 8156,
      "kills": 8157,
      "activation": 8158,
      "difficult": 8159,
      "perspective,": 8160,
      "brittle": 8161,
      "thermodynamic": 8162,
      "contrast": 8163,
      "munic": 8164,
      "Bridal": 8165,
      "esterday": 8166,
      "Findings": 8167,
      "Delta": 8168,
      "papers": 8169,
      "svg": 8170,
      "(which": 8171,
      "2-": 8172,
      "Cred": 8173,
      "Coun": 8174,
      "Further": 8175,
      "OM": 8176,
      "Rev": 8177,
      "a's": 8178,
      "epoch": 8179,
      "fits": 8180,
      "iew": 8181,
      "rhy": 8182,
      "scoring": 8183,
      "vouch": 8184,
      "inversion": 8185,
      "erk": 8186,
      "orbit": 8187,
      "iso": 8188,
      "edit": 8189,
      "veto": 8190,
      "sure-": 8191,
      "not,": 8192,
      "weake": 8193,
      "spur": 8194,
      "inef": 8195,
      "corpu": 8196,
      "bots": 8197,
      "obs": 8198,
      "creep": 8199,
      "run,": 8200,
      "check,": 8201,
      "You've": 8202,
      "yourself": 8203,
      "metry,": 8204,
      "goog": 8205,
      "handed": 8206,
      "gaps": 8207,
      "receive": 8208,
      "authored": 8209,
      "chain,": 8210,
      "informative": 8211,
      "caused": 8212,
      "payoff": 8213,
      "drift,": 8214,
      "prompt,": 8215,
      "implementation.": 8216,
      "sky": 8217,
      "artifact.": 8218,
      "contracts": 8219,
      "stochasticity": 8220,
      "employ": 8221,
      "pressure.": 8222,
      "periodic": 8223,
      "wall.": 8224,
      "sufficiently": 8225,
      "reconcil": 8226,
      "90%": 8227,
      "months": 8228,
      "compressed": 8229,
      "Gener": 8230,
      "fragility": 8231,
      "simultaneously": 8232,
      "ijiki": 8233,
      "semantics": 8234,
      "assemb": 8235,
      "earlier": 8236,
      "precipitation": 8237,
      "google.com/": 8238,
      "6v1": 8239,
      "7.1": 8240,
      "Black": 8241,
      "EVM": 8242,
      "Gro": 8243,
      "Gree": 8244,
      "SA": 8245,
      "Sep": 8246,
      "Time": 8247,
      "UV": 8248,
      "WP": 8249,
      "\\n": 8250,
      "_grade": 8251,
      "brain": 8252,
      "done": 8253,
      "emotion": 8254,
      "fashion": 8255,
      "lives.": 8256,
      "mm": 8257,
      "pancy": 8258,
      "inver": 8259,
      "ont": 8260,
      "at-": 8261,
      "lever": 8262,
      "dex": 8263,
      "segment": 8264,
      "nob": 8265,
      "conv": 8266,
      "tric": 8267,
      "spin": 8268,
      "fee": 8269,
      "ized.": 8270,
      "clim": 8271,
      "curv": 8272,
      "singular": 8273,
      "aking": 8274,
      "https://news.": 8275,
      "marked": 8276,
      "served": 8277,
      "surfaces": 8278,
      "bling": 8279,
      "drives": 8280,
      "saw": 8281,
      "observability": 8282,
      "sequential": 8283,
      "path,": 8284,
      "ities,": 8285,
      "questions": 8286,
      "presents": 8287,
      "shipping": 8288,
      "decision.": 8289,
      "result.": 8290,
      "truth,": 8291,
      "floor,": 8292,
      "once.": 8293,
      "starting": 8294,
      "smolag": 8295,
      "play:": 8296,
      "analyze": 8297,
      "score:": 8298,
      "AR/": 8299,
      "https://arxiv.org/abs/2606.": 8300,
      "requests": 8301,
      "places": 8302,
      "direction.": 8303,
      "fine.": 8304,
      "practice.": 8305,
      "recursion": 8306,
      "Planner": 8307,
      "achieves": 8308,
      "replaced": 8309,
      "rejected": 8310,
      "inherits": 8311,
      "conservation": 8312,
      "conservative": 8313,
      "secret": 8314,
      "Language": 8315,
      "professional": 8316,
      "Destination": 8317,
      "accretion": 8318,
      "\"intelligence\"": 8319,
      "(L": 8320,
      "-out": 8321,
      "=5": 8322,
      "DNS": 8323,
      "SL": 8324,
      "cumul": 8325,
      "lambda": 8326,
      "ml": 8327,
      "t-": 8328,
      "vs.": 8329,
      "—a": 8330,
      "incorrect": 8331,
      "rol": 8332,
      "chose": 8333,
      "proxim": 8334,
      "ress.": 8335,
      "model:": 8336,
      "geophys": 8337,
      "key.": 8338,
      "systematically": 8339,
      "imply": 8340,
      "willing": 8341,
      "processor": 8342,
      "loading": 8343,
      "Retri": 8344,
      "write.": 8345,
      "largest": 8346,
      "value,": 8347,
      "tax\"": 8348,
      "taxonomy": 8349,
      "amplit": 8350,
      "heads": 8351,
      "block,": 8352,
      "objects": 8353,
      "tracking,": 8354,
      "traded": 8355,
      "place.": 8356,
      "triggered": 8357,
      "volatility.": 8358,
      "products": 8359,
      "issues": 8360,
      "issued": 8361,
      "declare": 8362,
      "constant.": 8363,
      "USDC": 8364,
      "coordinated": 8365,
      "gradients": 8366,
      "popular": 8367,
      "details": 8368,
      "Optim": 8369,
      "emissions": 8370,
      "Work": 8371,
      "finished": 8372,
      "inevitable": 8373,
      "deliberately": 8374,
      "reproducible": 8375,
      "surrounding": 8376,
      "spikes": 8377,
      "ublish": 8378,
      "browser": 8379,
      "symptom": 8380,
      "Otherwise": 8381,
      "npm": 8382,
      "Human": 8383,
      "/articles/C": 8384,
      "rss/articles/C": 8385,
      "boolean": 8386,
      "dedicated": 8387,
      "Multilingual": 8388,
      "Furthermore,": 8389,
      "spurious": 8390,
      "google.com/rss/articles/C": 8391,
      "https://news.google.com/rss/articles/C": 8392,
      "(\"": 8393,
      "*:": 8394,
      "300": 8395,
      "54": 8396,
      "58": 8397,
      "?oc": 8398,
      "@reticuli": 8399,
      "FS": 8400,
      "Low": 8401,
      "MT": 8402,
      "WE": 8403,
      "cultural": 8404,
      "eleg": 8405,
      "fare": 8406,
      "hes": 8407,
      "p2": 8408,
      "scre": 8409,
      "throw": 8410,
      "encounter": 8411,
      "device": 8412,
      "suit": 8413,
      "olt": 8414,
      "adj": 8415,
      "imm": 8416,
      "stron": 8417,
      "canary": 8418,
      "outure": 8419,
      "faul": 8420,
      "interference": 8421,
      "decar": 8422,
      "expired": 8423,
      "absorption": 8424,
      "now,": 8425,
      "save": 8426,
      "graph,": 8427,
      "relied": 8428,
      "chains": 8429,
      "changes,": 8430,
      "performed": 8431,
      "classic": 8432,
      "ian-": 8433,
      "collaps": 8434,
      "multi-step": 8435,
      "latency,": 8436,
      "landing": 8437,
      "airframe": 8438,
      "Hotel": 8439,
      "tradition": 8440,
      "tradeoff": 8441,
      "regime,": 8442,
      "Span": 8443,
      "links": 8444,
      "radiation": 8445,
      "crack": 8446,
      "pushes": 8447,
      "calibrated": 8448,
      "holder": 8449,
      "labeled": 8450,
      "history.": 8451,
      "principle": 8452,
      "vocation": 8453,
      "suppression": 8454,
      "frozen_grade": 8455,
      "recognize": 8456,
      "commodity": 8457,
      "incorporate": 8458,
      "Opportunity": 8459,
      "damping": 8460,
      "Lá4-": 8461,
      "interpolation": 8462,
      "Check": 8463,
      "orthogonal": 8464,
      "?oc=5": 8465,
      "\"A": 8466,
      "\"The": 8467,
      "\"correct": 8468,
      "(D": 8469,
      "CC": 8470,
      "IA": 8471,
      "MI": 8472,
      "SK": 8473,
      "cc": 8474,
      "cab": 8475,
      "echo": 8476,
      "pace": 8477,
      "enforced": 8478,
      "ange": 8479,
      "ionian": 8480,
      "ices.": 8481,
      "leaf": 8482,
      "letting": 8483,
      "child": 8484,
      "mp3": 8485,
      "weap": 8486,
      "quas": 8487,
      "feas": 8488,
      "augment": 8489,
      "opin": 8490,
      "**00:00": 8491,
      "workspace": 8492,
      "pretending": 8493,
      "specified": 8494,
      "fiber": 8495,
      "upcoming": 8496,
      "oblig": 8497,
      "needing": 8498,
      "constraint,": 8499,
      "hand-": 8500,
      "receives": 8501,
      "right.": 8502,
      "supposed": 8503,
      "classifi": 8504,
      "properti": 8505,
      "implementing": 8506,
      "volatile": 8507,
      "facing": 8508,
      "warr": 8509,
      "iee": 8510,
      "stars": 8511,
      "environments,": 8512,
      "ifically,": 8513,
      "efficiency.": 8514,
      "Second": 8515,
      "configuration,": 8516,
      "heuristics": 8517,
      "suppress": 8518,
      "Specifically,": 8519,
      "aerosol": 8520,
      "discrepancy": 8521,
      "inventory": 8522,
      "/motif.svg": 8523,
      "/motif.mp3": 8524,
      "crisis": 8525,
      "Type": 8526,
      "circuit": 8527,
      "X-ray": 8528,
      "4/4": 8529,
      "Receipt": 8530,
      "intrins": 8531,
      "\")": 8532,
      "%,": 8533,
      ")$": 8534,
      "-on-": 8535,
      "A3": 8536,
      "Ed": 8537,
      "GR": 8538,
      "Out": 8539,
      "Pred": 8540,
      "ZK": 8541,
      "_hash": 8542,
      "gith": 8543,
      "ology": 8544,
      "encoding": 8545,
      "ery": 8546,
      "mete": 8547,
      "nothing.": 8548,
      "profit": 8549,
      "untrusted": 8550,
      "expose": 8551,
      "noted": 8552,
      "imit": 8553,
      "trial": 8554,
      "shallow": 8555,
      "claw": 8556,
      "called": 8557,
      "signs": 8558,
      "ippet": 8559,
      "haz": 8560,
      "grading": 8561,
      "obvious": 8562,
      "data-": 8563,
      "straight": 8564,
      "problems": 8565,
      "tooling": 8566,
      "fiction": 8567,
      "velength": 8568,
      "whoever": 8569,
      "scaf": 8570,
      "ally,": 8571,
      "refresh": 8572,
      "both-wrong": 8573,
      "poster": 8574,
      "classifier": 8575,
      "folding": 8576,
      "evaluates": 8577,
      "input.": 8578,
      "wrong,": 8579,
      "developed": 8580,
      "targeted": 8581,
      "certifies": 8582,
      "maintains": 8583,
      "lightweight": 8584,
      "relational": 8585,
      "angular": 8586,
      "region.": 8587,
      "dimensionality": 8588,
      "triggering": 8589,
      "intelligence.": 8590,
      "bypasses": 8591,
      "Trust": 8592,
      "ceiling,": 8593,
      "discover": 8594,
      "TEE": 8595,
      "Ship": 8596,
      "robustness": 8597,
      "hope": 8598,
      "arrived": 8599,
      "inerti": 8600,
      "General": 8601,
      "replacing": 8602,
      "announ": 8603,
      "reflects": 8604,
      "spectroscopic": 8605,
      "analyzed": 8606,
      "belief": 8607,
      "renewable": 8608,
      "testimony": 8609,
      "slipp": 8610,
      "speculative": 8611,
      "curvature": 8612,
      "AR/VR": 8613,
      "github": 8614,
      "*is": 8615,
      "-order": 8616,
      "-with-": 8617,
      ".j": 8618,
      "2v1": 8619,
      "59": 8620,
      "BE": 8621,
      "Cal": 8622,
      "Di": 8623,
      "Dy": 8624,
      "FE": 8625,
      "Li": 8626,
      "PV": 8627,
      "Port": 8628,
      "Sof": 8629,
      "Sup": 8630,
      "Sub": 8631,
      "pi": 8632,
      "tain": 8633,
      "vite": 8634,
      "vices": 8635,
      "inction": 8636,
      "en.": 8637,
      "an,": 8638,
      "it\"": 8639,
      "robot": 8640,
      "defic": 8641,
      "seven": 8642,
      "coal": 8643,
      "chip": 8644,
      "mob": 8645,
      "agnostic": 8646,
      "improves": 8647,
      "trick": 8648,
      "ists": 8649,
      "ety": 8650,
      "aylor": 8651,
      "ferent": 8652,
      "ries": 8653,
      "discount": 8654,
      "disagree": 8655,
      "fram": 8656,
      "subset": 8657,
      "use.": 8658,
      "re-measurable": 8659,
      "trustworth": 8660,
      "Relying": 8661,
      "knowing": 8662,
      "them,": 8663,
      "ranean": 8664,
      "primarily": 8665,
      "wavelength": 8666,
      "there.": 8667,
      "continuum": 8668,
      "conditions.": 8669,
      "honesty": 8670,
      "State": 8671,
      "performance.": 8672,
      "inference.": 8673,
      "norm": 8674,
      "statistically": 8675,
      "Node": 8676,
      "assumed": 8677,
      "another.": 8678,
      "linked": 8679,
      "analytical": 8680,
      "characterized": 8681,
      "baseline.": 8682,
      "documented": 8683,
      "interested": 8684,
      "weekly": 8685,
      "principl": 8686,
      "galactic": 8687,
      "borrow": 8688,
      "pulse": 8689,
      "fragmentation": 8690,
      "audio": 8691,
      "biological": 8692,
      "waves": 8693,
      "perceived": 8694,
      "privilege": 8695,
      "January": 8696,
      "scrut": 8697,
      "explanation": 8698,
      "slightly": 8699,
      "monument": 8700,
      "Micro": 8701,
      "inspection": 8702,
      "GitHub": 8703,
      "kinematic": 8704,
      "cumulative": 8705,
      "Spanish": 8706,
      "meteor": 8707,
      "-style": 8708,
      "86": 8709,
      "GN": 8710,
      "Grow": 8711,
      "Lag": 8712,
      "Min": 8713,
      "Sur": 8714,
      "Sem": 8715,
      "fero": 8716,
      "rist": 8717,
      "sweep": 8718,
      "yesterday": 8719,
      "rect": 8720,
      "at.": 8721,
      "en-": 8722,
      "encode": 8723,
      "defe": 8724,
      "covers": 8725,
      "cember": 8726,
      "advis": 8727,
      "imag": 8728,
      "imbalance": 8729,
      "comparing": 8730,
      "opa": 8731,
      "**,": 8732,
      "logistics": 8733,
      "descent": 8734,
      "grad": 8735,
      "objection": 8736,
      "way,": 8737,
      "test.": 8738,
      "ritual": 8739,
      "high-density": 8740,
      "claimed": 8741,
      "move.": 8742,
      "market,": 8743,
      "locally": 8744,
      "exist.": 8745,
      "polling": 8746,
      "event,": 8747,
      "patterns,": 8748,
      "filtr": 8749,
      "task,": 8750,
      "denomin": 8751,
      "parameters,": 8752,
      "parameterization": 8753,
      "memory,": 8754,
      "record,": 8755,
      "did.": 8756,
      "machines": 8757,
      "separates": 8758,
      "letter": 8759,
      "grows": 8760,
      "shapes": 8761,
      "number.": 8762,
      "small-scale": 8763,
      "API,": 8764,
      "evolving": 8765,
      "samples": 8766,
      "December": 8767,
      "biases": 8768,
      "utility.": 8769,
      "friction.": 8770,
      "vendor's": 8771,
      "topology.": 8772,
      "indicate": 8773,
      "judg": 8774,
      "drawdown": 8775,
      "connectivity": 8776,
      "calculating": 8777,
      "executing": 8778,
      "Level": 8779,
      "iterranean": 8780,
      "2024,": 8781,
      "Engine": 8782,
      "satisfies": 8783,
      "regularization": 8784,
      "rendering": 8785,
      "adopted": 8786,
      "ligible": 8787,
      "recommendations": 8788,
      "poorly": 8789,
      "convexity": 8790,
      "double": 8791,
      "Mediterranean": 8792,
      "contagion": 8793,
      "dispersion": 8794,
      "obsess": 8795,
      "$10^": 8796,
      "(H": 8797,
      "-label": 8798,
      "2.1": 8799,
      "8-": 8800,
      "9.0": 8801,
      "Gre": 8802,
      "Ko": 8803,
      "Put": 8804,
      "Tim": 8805,
      "Zero": 8806,
      "aesthe": 8807,
      "bund": 8808,
      "gar": 8809,
      "hic": 8810,
      "hund": 8811,
      "pting": 8812,
      "annot": 8813,
      "al,": 8814,
      "ali": 8815,
      "ico": 8816,
      "roid": 8817,
      "to.": 8818,
      "ctic": 8819,
      "rad": 8820,
      "apart": 8821,
      "shake": 8822,
      "ive,": 8823,
      "compreh": 8824,
      "thern": 8825,
      "parsing": 8826,
      "phan": 8827,
      "ipe": 8828,
      "gency": 8829,
      "shifts,": 8830,
      "We've": 8831,
      "bruary": 8832,
      "engage": 8833,
      "new,": 8834,
      "winner": 8835,
      "mult": 8836,
      "passed": 8837,
      "stuck": 8838,
      "Exist": 8839,
      "graphy": 8840,
      "balancing": 8841,
      "prompting": 8842,
      "ia,": 8843,
      "preventing": 8844,
      "targeting": 8845,
      "technically": 8846,
      "live.": 8847,
      "faced": 8848,
      "productivity": 8849,
      "intent,": 8850,
      "documents": 8851,
      "characterization": 8852,
      "characteristic": 8853,
      "initi": 8854,
      "carrying": 8855,
      "mortem": 8856,
      "confirmation": 8857,
      "supervised": 8858,
      "experiments": 8859,
      "sensitiv": 8860,
      "scheduler": 8861,
      "hoping": 8862,
      "valuation": 8863,
      "asymmetric": 8864,
      "replaces": 8865,
      "fragmented": 8866,
      "February": 8867,
      "recomputes": 8868,
      "recognition": 8869,
      "guessing": 8870,
      "granularity": 8871,
      "pass.": 8872,
      "lifting": 8873,
      "irreversible": 8874,
      "Step": 8875,
      "schedule": 8876,
      "tidal": 8877,
      "After": 8878,
      "weakest": 8879,
      "adjac": 8880,
      "A2": 8881,
      "GA": 8882,
      "P(": 8883,
      "Pers": 8884,
      "Pho": 8885,
      "QR": 8886,
      "Skill": 8887,
      "UK": 8888,
      "Wang": 8889,
      "fers": 8890,
      "hub": 8891,
      "lumin": 8892,
      "u,": 8893,
      "ud": 8894,
      "invoice": 8895,
      "stro": 8896,
      "or,": 8897,
      "dered": 8898,
      "degrade": 8899,
      "rab": 8900,
      "proceed": 8901,
      "convolution": 8902,
      "acity": 8903,
      "model-": 8904,
      "sycho": 8905,
      "umulation": 8906,
      "interfaces": 8907,
      "gradual": 8908,
      "distortion": 8909,
      "disappear": 8910,
      "capex": 8911,
      "strain": 8912,
      "bright": 8913,
      "submission": 8914,
      "ically,": 8915,
      "flow,": 8916,
      "re-evaluation": 8917,
      "non-stationary": 8918,
      "semi-": 8919,
      "lang": 8920,
      "verification,": 8921,
      "More": 8922,
      "https://arxiv.org/abs/25": 8923,
      "spectra": 8924,
      "follow-": 8925,
      "independently.": 8926,
      "schema.": 8927,
      "determines": 8928,
      "determinism": 8929,
      "drops.": 8930,
      "Promp": 8931,
      "environments.": 8932,
      "requirements.": 8933,
      "detectable": 8934,
      "counterfactual": 8935,
      "accumulation": 8936,
      "ETF": 8937,
      "encies": 8938,
      "laboratory": 8939,
      "flatten": 8940,
      "--------": 8941,
      "acceleration": 8942,
      "smarter": 8943,
      "Platform": 8944,
      "Valid": 8945,
      "retrieved": 8946,
      "Vogue": 8947,
      "compatible": 8948,
      "political": 8949,
      "monotonic": 8950,
      "Develop": 8951,
      "U.S.": 8952,
      "administ": 8953,
      "Group": 8954,
      "amplitude": 8955,
      "*is*": 8956,
      "A.": 8957,
      "B.": 8958,
      "B's": 8959,
      "Fut": 8960,
      "HI": 8961,
      "Her": 8962,
      "Hand": 8963,
      "Im": 8964,
      "Pay": 8965,
      "Sch": 8966,
      "Taylor": 8967,
      "](": 8968,
      "border": 8969,
      "lived": 8970,
      "national": 8971,
      "situ": 8972,
      "slip": 8973,
      "ues,": 8974,
      "yes,": 8975,
      "—where": 8976,
      "invalid": 8977,
      "inverse": 8978,
      "vehic": 8979,
      "consolid": 8980,
      "unched": 8981,
      "quo": 8982,
      "ive.": 8983,
      "clin": 8984,
      "prune": 8985,
      "extinction": 8986,
      "grace": 8987,
      "creation": 8988,
      "shift,": 8989,
      "timeline": 8990,
      "funds": 8991,
      "flagged": 8992,
      "surge": 8993,
      "signals.": 8994,
      "risk,": 8995,
      "ictory": 8996,
      "observations.": 8997,
      "side-": 8998,
      "non-Gaussian": 8999,
      "integrity.": 9000,
      "collateral": 9001,
      "question,": 9002,
      "graph.": 9003,
      "Moving": 9004,
      "events,": 9005,
      "approach.": 9006,
      "builds": 9007,
      "call.": 9008,
      "hardware,": 9009,
      "priors": 9010,
      "answer:": 9011,
      "too.": 9012,
      "programm": 9013,
      "filters": 9014,
      "followed": 9015,
      "widening": 9016,
      "simulated": 9017,
      "interface.": 9018,
      "cycles.": 9019,
      "timescal": 9020,
      "detailed": 9021,
      "sitting": 9022,
      "styl": 9023,
      "timestamped": 9024,
      "addressing": 9025,
      "chatbot": 9026,
      "accurately": 9027,
      "easily": 9028,
      "negotiation": 9029,
      "heterogeneous": 9030,
      "homogeneous": 9031,
      "fail-closed": 9032,
      "preservation": 9033,
      "rhyth": 9034,
      "github.com/": 9035,
      "hundred": 9036,
      "(V": 9037,
      "(July": 9038,
      "-C": 9039,
      "-party": 9040,
      "/ES": 9041,
      "52": 9042,
      "Dior": 9043,
      "Fed": 9044,
      "Fra": 9045,
      "Kel": 9046,
      "Lat": 9047,
      "Live": 9048,
      "OD": 9049,
      "OL": 9050,
      "SH": 9051,
      "Sing": 9052,
      "Sto": 9053,
      "WH": 9054,
      "couple": 9055,
      "gold": 9056,
      "je": 9057,
      "vance": 9058,
      "zo": 9059,
      "inish": 9060,
      "reaction": 9061,
      "ane": 9062,
      "alt": 9063,
      "cores": 9064,
      "behave": 9065,
      "consider": 9066,
      "agre": 9067,
      "api": 9068,
      "ure.": 9069,
      "territ": 9070,
      "plasma": 9071,
      "steer": 9072,
      "kept": 9073,
      "clusive": 9074,
      "parate": 9075,
      "parti": 9076,
      "this:": 9077,
      "lower-": 9078,
      "desk": 9079,
      "display": 9080,
      "fail.": 9081,
      "decentral": 9082,
      "identity,": 9083,
      "owned": 9084,
      "ically.": 9085,
      "becomes:": 9086,
      "scarc": 9087,
      "existed": 9088,
      "earn": 9089,
      "home": 9090,
      "control,": 9091,
      "pattern.": 9092,
      "lesion": 9093,
      "https://arxiv.org/abs/220": 9094,
      "factors": 9095,
      "rate,": 9096,
      "task-specific": 9097,
      "matters.": 9098,
      "frequently": 9099,
      "limitations": 9100,
      "therefore": 9101,
      "instrument.": 9102,
      "world,": 9103,
      "Agentic": 9104,
      "case.": 9105,
      "estimated": 9106,
      "diminish": 9107,
      "anchoring": 9108,
      "messy": 9109,
      "Markov": 9110,
      "characterize": 9111,
      "negligible": 9112,
      "profile.": 9113,
      "Interest": 9114,
      "half-": 9115,
      "CMB": 9116,
      "NOT": 9117,
      "severity": 9118,
      "morphology": 9119,
      "resistance": 9120,
      "chaotic": 9121,
      "wrapper": 9122,
      "intermittency": 9123,
      "power-law": 9124,
      "entailment": 9125,
      "emerge": 9126,
      "exoplanet": 9127,
      "intrinsic": 9128,
      "\"we": 9129,
      "\"can": 9130,
      "'The": 9131,
      ")`": 9132,
      "-9": 9133,
      "-but": 9134,
      "-like": 9135,
      ".gov/": 9136,
      "120": 9137,
      "1v1": 9138,
      "AU": 9139,
      "FAA": 9140,
      "R.": 9141,
      "Sign": 9142,
      "Ven": 9143,
      "lagging": 9144,
      "m,": 9145,
      "por": 9146,
      "pun": 9147,
      "pite": 9148,
      "tighter": 9149,
      "xy": 9150,
      "inu": 9151,
      "inser": 9152,
      "insurance": 9153,
      "ats": 9154,
      "ros": 9155,
      "radial": 9156,
      "consent": 9157,
      "union": 9158,
      "unpredictable": 9159,
      "terrain": 9160,
      "compare": 9161,
      "lio": 9162,
      "parts": 9163,
      "workaround": 9164,
      "interactive": 9165,
      "implied": 9166,
      "depending": 9167,
      "dispatch": 9168,
      "curated": 9169,
      "ideal": 9170,
      "portable": 9171,
      "backed": 9172,
      "versity": 9173,
      "error-": 9174,
      "errors.": 9175,
      "clever": 9176,
      "2026).": 9177,
      "observation.": 9178,
      "effectiveness": 9179,
      "engineers": 9180,
      "fixes": 9181,
      "hotel": 9182,
      "reliably": 9183,
      "locked": 9184,
      "https://arxiv.org/abs/23": 9185,
      "tasks.": 9186,
      "tasks,": 9187,
      "instances": 9188,
      "probably": 9189,
      "matched": 9190,
      "-to-end": 9191,
      "particles": 9192,
      "auditable": 9193,
      "China": 9194,
      "recovered": 9195,
      "publishing": 9196,
      "$\\beta": 9197,
      "saturation": 9198,
      "discard": 9199,
      "stayed": 9200,
      "analyst": 9201,
      "wavelet": 9202,
      "implications": 9203,
      "judic": 9204,
      "evolution.": 9205,
      "dictate": 9206,
      "Syn": 9207,
      "conversational": 9208,
      "queries": 9209,
      "sub-grid": 9210,
      "morning": 9211,
      "diagram": 9212,
      "sounds": 9213,
      "Book": 9214,
      "violation": 9215,
      "converts": 9216,
      "arent": 9217,
      "architectures.": 9218,
      "Q4_K_M,": 9219,
      "diversification": 9220,
      "perturbations": 9221,
      "sharpest": 9222,
      "Control": 9223,
      "covering": 9224,
      "middleware": 9225,
      "truncation": 9226,
      "contradiction": 9227,
      "resilience": 9228,
      "Summary": 9229,
      "sovereignty": 9230,
      "comfortable": 9231,
      "niche": 9232,
      "ceremony": 9233,
      "passenger": 9234,
      "asynchron": 9235,
      "weapon": 9236,
      "\"noise\"": 9237,
      "(I": 9238,
      "(arXiv:260": 9239,
      "-point": 9240,
      "6%": 9241,
      "9,": 9242,
      "A)": 9243,
      "Act": 9244,
      "Em": 9245,
      "Ha": 9246,
      "Ja": 9247,
      "Log": 9248,
      "SI": 9249,
      "Sent": 9250,
      "Up": 9251,
      "couture": 9252,
      "dwar": 9253,
      "ience.": 9254,
      "lad": 9255,
      "sou": 9256,
      "tropical": 9257,
      "won": 9258,
      "wire": 9259,
      "thick": 9260,
      "reverse": 9261,
      "itch": 9262,
      "heart": 9263,
      "le-": 9264,
      "ramp": 9265,
      "ly:": 9266,
      "utive": 9267,
      "concurrent": 9268,
      "verifies": 9269,
      "imil": 9270,
      "s.**": 9271,
      "extend": 9272,
      "translate": 9273,
      "curs": 9274,
      "pressure-": 9275,
      "self.": 9276,
      "monit": 9277,
      "ephe": 9278,
      "compute.": 9279,
      "filtered": 9280,
      "requirement.": 9281,
      "reachability": 9282,
      "frequent": 9283,
      "practices": 9284,
      "representations": 9285,
      "zero,": 9286,
      "cache.": 9287,
      "arXiv:25": 9288,
      "workflow.": 9289,
      "geometry.": 9290,
      "low-frequency": 9291,
      "facility": 9292,
      "attacks": 9293,
      "approximate": 9294,
      "region,": 9295,
      "cross-platform": 9296,
      "selective": 9297,
      "fallback": 9298,
      "possibility": 9299,
      "sharper": 9300,
      "rules,": 9301,
      "helps": 9302,
      "combining": 9303,
      "revealed": 9304,
      "express": 9305,
      "diagnosis": 9306,
      "summaries": 9307,
      "exposed": 9308,
      "POST": 9309,
      "lines.": 9310,
      "inherit": 9311,
      "inductive": 9312,
      "repository,": 9313,
      "stabilize": 9314,
      "Observatory": 9315,
      "lukitun-hermes": 9316,
      "redundant": 9317,
      "JWST": 9318,
      "aspect": 9319,
      "philos": 9320,
      "drafting": 9321,
      "Traditional": 9322,
      "Review": 9323,
      "Existing": 9324,
      "\"does": 9325,
      "\"did": 9326,
      "-day": 9327,
      "74": 9328,
      "Att": 9329,
      "BH": 9330,
      "Econom": 9331,
      "Lar": 9332,
      "RSS": 9333,
      "Wikipedia": 9334,
      "gan": 9335,
      "ky": 9336,
      "sink": 9337,
      "unov": 9338,
      "v4": 9339,
      "wing": 9340,
      "repl": 9341,
      "isk": 9342,
      "icts": 9343,
      "rock": 9344,
      "rower": 9345,
      "leap": 9346,
      "copy": 9347,
      "chunk": 9348,
      "ceases": 9349,
      "ifferent": 9350,
      "moat": 9351,
      "abstain": 9352,
      "untested": 9353,
      "iding": 9354,
      "idio": 9355,
      "apunov": 9356,
      "notifications": 9357,
      "ress,": 9358,
      "adjudic": 9359,
      "immedi": 9360,
      "accommod": 9361,
      "spending": 9362,
      "ayer": 9363,
      "neto": 9364,
      "plate": 9365,
      "out,": 9366,
      "complic": 9367,
      "one;": 9368,
      "phr": 9369,
      "assini": 9370,
      "archives": 9371,
      "solo": 9372,
      "dump": 9373,
      "interconnection": 9374,
      "does.": 9375,
      "high,": 9376,
      "effic": 9377,
      "frames": 9378,
      "absent": 9379,
      "various": 9380,
      "marketplace": 9381,
      "statistic": 9382,
      "handled": 9383,
      "seeking": 9384,
      "viscos": 9385,
      "part.": 9386,
      "equally": 9387,
      "map.": 9388,
      "complexity.": 9389,
      "Consider": 9390,
      "literal": 9391,
      "airport": 9392,
      "precision.": 9393,
      "12.1": 9394,
      "magic": 9395,
      "mandatory": 9396,
      "regime.": 9397,
      "careful": 9398,
      "retrieval.": 9399,
      "aligns": 9400,
      "arguing": 9401,
      "full-": 9402,
      "preserving": 9403,
      "interpreting": 9404,
      "math.": 9405,
      "spatially": 9406,
      "assert": 9407,
      "hallucination.": 9408,
      "Sym": 9409,
      "hollow": 9410,
      "masks": 9411,
      "coordination.": 9412,
      "sessions": 9413,
      "register": 9414,
      "executable": 9415,
      "cheapest": 9416,
      "arrival": 9417,
      "jumps": 9418,
      "third-party": 9419,
      "exploitation": 9420,
      "teams": 9421,
      "Lukitun": 9422,
      "vacuum.": 9423,
      "shocks": 9424,
      "quality.": 9425,
      "majority": 9426,
      "opportunities": 9427,
      "regimes.": 9428,
      "birth-": 9429,
      "fine-tuning": 9430,
      "High-": 9431,
      "RTX": 9432,
      "higher-order": 9433,
      "EN/ES": 9434,
      "semantically": 9435,
      "Platforms": 9436,
      "polarization": 9437,
      "sidecar": 9438,
      "belongs": 9439,
      "decision-making": 9440,
      "rangian": 9441,
      "advanced": 9442,
      "https://doi.org/10.": 9443,
      "Lyapunov": 9444,
      "variables.": 9445,
      "ElizaOS": 9446,
      "lazy": 9447,
      "satisfied": 9448,
      "html": 9449,
      "procurement": 9450,
      "\"correct\"": 9451,
      "Lagrangian": 9452,
      "#5-": 9453,
      "-truth": 9454,
      "/2026/0": 9455,
      "250": 9456,
      "6,": 9457,
      "8,": 9458,
      "A,": 9459,
      "Cross": 9460,
      "KNO": 9461,
      "Met": 9462,
      "O(": 9463,
      "Oper": 9464,
      "RO": 9465,
      "Ret": 9466,
      "iver": 9467,
      "mine": 9468,
      "tau": 9469,
      "v-": 9470,
      "remember": 9471,
      "repet": 9472,
      "theater": 9473,
      "en,": 9474,
      "orrow": 9475,
      "ices,": 9476,
      "arity": 9477,
      "told": 9478,
      "asury": 9479,
      "degre": 9480,
      "forget": 9481,
      "unverified": 9482,
      "superi": 9483,
      "acade": 9484,
      "trillion": 9485,
      "ecc": 9486,
      "auce": 9487,
      "red,": 9488,
      "workers": 9489,
      "grain": 9490,
      "whereas": 9491,
      "transit": 9492,
      "taking": 9493,
      "real.": 9494,
      "framed": 9495,
      "same-wrong": 9496,
      "minor": 9497,
      "ed.\"": 9498,
      "twent": 9499,
      "tools.": 9500,
      "high-entropy": 9501,
      "high-stakes": 9502,
      "flows.": 9503,
      "action,": 9504,
      "collusion": 9505,
      "scoped": 9506,
      "Anth": 9507,
      "somewhere": 9508,
      "refuse": 9509,
      "recording": 9510,
      "correct.": 9511,
      "correctness.": 9512,
      "stood": 9513,
      "cave": 9514,
      "limitation": 9515,
      "call,": 9516,
      "schema,": 9517,
      "flood": 9518,
      "released": 9519,
      "separately": 9520,
      "magneto": 9521,
      "evolve": 9522,
      "signature.": 9523,
      "away.": 9524,
      "Energy": 9525,
      "issuer": 9526,
      "co-authors": 9527,
      "detecting": 9528,
      "theoretically": 9529,
      "groups": 9530,
      "baseline,": 9531,
      "missing.": 9532,
      "calibrate": 9533,
      "mutation": 9534,
      "shortcut": 9535,
      "registration": 9536,
      "sharpen": 9537,
      "naturally": 9538,
      "initialization": 9539,
      "Arch": 9540,
      "scripts": 9541,
      "executes": 9542,
      "customers": 9543,
      "shoot": 9544,
      "Saijiki": 9545,
      "Meas": 9546,
      "Cloud": 9547,
      "rainfall": 9548,
      "Neural": 9549,
      "transparent": 9550,
      "binds": 9551,
      "acknowled": 9552,
      "TTP": 9553,
      "UNKNO": 9554,
      "density.": 9555,
      "Correct": 9556,
      "resonance": 9557,
      "Redu": 9558,
      "companion": 9559,
      "encoder": 9560,
      "relaxation": 9561,
      "telescope": 9562,
      "CVSS": 9563,
      "necessitates": 9564,
      "German": 9565,
      "warrant": 9566,
      "posterior": 9567,
      "opaque": 9568,
      "ephemer": 9569,
      "EN/ES/": 9570,
      "superior": 9571,
      "UNKNOWN": 9572,
      "\"trust": 9573,
      "63": 9574,
      "@smolag": 9575,
      "Ce": 9576,
      "Cir": 9577,
[...]
